{
  "version": "1.0",
  "truncation": null,
  "padding": null,
  "added_tokens": [
    {
      "id": 0,
      "special": true,
      "content": "[PAD]",
      "single_word": false,
      "lstrip": false,
      "rstrip": false,
      "normalized": false
    },
    {
      "id": 1,
      "special": true,
      "content": "[UNK]",
      "single_word": false,
      "lstrip": false,
      "rstrip": false,
      "normalized": false
    },
    {
      "id": 2,
      "special": true,
      "content": "[CLS]",
      "single_word": false,
      "lstrip": false,
      "rstrip": false,
      "normalized": false
    },
    {
      "id": 3,
      "special": true,
      "content": "[SEP]",
      "single_word": false,
      "lstrip": false,
      "rstrip": false,
      "normalized": false
    },
    {
      "id": 4,
      "special": true,
      "content": "[MASK]",
      "single_word": false,
      "lstrip": false,
      "rstrip": false,
      "normalized": false
    }
  ],
  "normalizer": {
    "type": "BertNormalizer",
    "clean_text": true,
    "handle_chinese_chars": true,
    "strip_accents": false,
    "lowercase": false
  },
  "pre_tokenizer": {
    "type": "BertPreTokenizer"
  },
  "post_processor": null,
  "decoder": {
    "type": "WordPiece",
    "prefix": "##",
    "cleanup": true
  },
  "model": {
    "type": "WordPiece",
    "unk_token": "[UNK]",
    "continuing_subword_prefix": "##",
    "max_input_chars_per_word": 100,
    "vocab": {
      "[PAD]": 0,
      "[UNK]": 1,
      "[CLS]": 2,
      "[SEP]": 3,
      "[MASK]": 4,
      "!": 5,
      "\"": 6,
      "#": 7,
      "$": 8,
      "%": 9,
      "&": 10,
      "'": 11,
      "(": 12,
      ")": 13,
      "*": 14,
      "+": 15,
      ",": 16,
      "-": 17,
      ".": 18,
      "/": 19,
      "0": 20,
      "1": 21,
      "2": 22,
      "3": 23,
      "4": 24,
      "5": 25,
      "6": 26,
      "7": 27,
      "8": 28,
      "9": 29,
      ":": 30,
      ";": 31,
      "<": 32,
      "=": 33,
      ">": 34,
      "?": 35,
      "@": 36,
      "A": 37,
      "B": 38,
      "C": 39,
      "D": 40,
      "E": 41,
      "F": 42,
      "G": 43,
      "H": 44,
      "I": 45,
      "J": 46,
      "K": 47,
      "L": 48,
      "M": 49,
      "N": 50,
      "O": 51,
      "P": 52,
      "Q": 53,
      "R": 54,
      "S": 55,
      "T": 56,
      "U": 57,
      "V": 58,
      "W": 59,
      "X": 60,
      "Y": 61,
      "Z": 62,
      "[": 63,
      "\\": 64,
      "]": 65,
      "^": 66,
      "_": 67,
      "`": 68,
      "a": 69,
      "b": 70,
      "c": 71,
      "d": 72,
      "e": 73,
      "f": 74,
      "g": 75,
      "h": 76,
      "i": 77,
      "j": 78,
      "k": 79,
      "l": 80,
      "m": 81,
      "n": 82,
      "o": 83,
      "p": 84,
      "q": 85,
      "r": 86,
      "s": 87,
      "t": 88,
      "u": 89,
      "v": 90,
      "w": 91,
      "x": 92,
      "y": 93,
      "z": 94,
      "{": 95,
      "|": 96,
      "}": 97,
      "~": 98,
      "·": 99,
      "∼": 100,
      "가": 101,
      "각": 102,
      "간": 103,
      "갇": 104,
      "갈": 105,
      "갉": 106,
      "갊": 107,
      "감": 108,
      "갑": 109,
      "값": 110,
      "갓": 111,
      "갔": 112,
      "강": 113,
      "갖": 114,
      "갗": 115,
      "같": 116,
      "갚": 117,
      "갛": 118,
      "개": 119,
      "객": 120,
      "갠": 121,
      "갤": 122,
      "갬": 123,
      "갭": 124,
      "갯": 125,
      "갰": 126,
      "갱": 127,
      "갸": 128,
      "갹": 129,
      "갼": 130,
      "걀": 131,
      "걋": 132,
      "걍": 133,
      "걔": 134,
      "걘": 135,
      "걜": 136,
      "거": 137,
      "걱": 138,
      "건": 139,
      "걷": 140,
      "걸": 141,
      "걺": 142,
      "검": 143,
      "겁": 144,
      "것": 145,
      "겄": 146,
      "겅": 147,
      "겆": 148,
      "겉": 149,
      "겊": 150,
      "겋": 151,
      "게": 152,
      "겐": 153,
      "겔": 154,
      "겜": 155,
      "겝": 156,
      "겟": 157,
      "겠": 158,
      "겡": 159,
      "겨": 160,
      "격": 161,
      "겪": 162,
      "견": 163,
      "겯": 164,
      "결": 165,
      "겸": 166,
      "겹": 167,
      "겻": 168,
      "겼": 169,
      "경": 170,
      "곁": 171,
      "계": 172,
      "곈": 173,
      "곌": 174,
      "곕": 175,
      "곗": 176,
      "고": 177,
      "곡": 178,
      "곤": 179,
      "곧": 180,
      "골": 181,
      "곪": 182,
      "곬": 183,
      "곯": 184,
      "곰": 185,
      "곱": 186,
      "곳": 187,
      "공": 188,
      "곶": 189,
      "과": 190,
      "곽": 191,
      "관": 192,
      "괄": 193,
      "괆": 194,
      "괌": 195,
      "괍": 196,
      "괏": 197,
      "광": 198,
      "괘": 199,
      "괜": 200,
      "괠": 201,
      "괩": 202,
      "괬": 203,
      "괭": 204,
      "괴": 205,
      "괵": 206,
      "괸": 207,
      "괼": 208,
      "굄": 209,
      "굅": 210,
      "굇": 211,
      "굉": 212,
      "교": 213,
      "굔": 214,
      "굘": 215,
      "굡": 216,
      "굣": 217,
      "구": 218,
      "국": 219,
      "군": 220,
      "굳": 221,
      "굴": 222,
      "굵": 223,
      "굶": 224,
      "굻": 225,
      "굼": 226,
      "굽": 227,
      "굿": 228,
      "궁": 229,
      "궂": 230,
      "궈": 231,
      "궉": 232,
      "권": 233,
      "궐": 234,
      "궜": 235,
      "궝": 236,
      "궤": 237,
      "궷": 238,
      "귀": 239,
      "귁": 240,
      "귄": 241,
      "귈": 242,
      "귐": 243,
      "귑": 244,
      "귓": 245,
      "규": 246,
      "균": 247,
      "귤": 248,
      "그": 249,
      "극": 250,
      "근": 251,
      "귿": 252,
      "글": 253,
      "긁": 254,
      "금": 255,
      "급": 256,
      "긋": 257,
      "긍": 258,
      "긔": 259,
      "기": 260,
      "긱": 261,
      "긴": 262,
      "긷": 263,
      "길": 264,
      "긺": 265,
      "김": 266,
      "깁": 267,
      "깃": 268,
      "깅": 269,
      "깆": 270,
      "깊": 271,
      "까": 272,
      "깍": 273,
      "깎": 274,
      "깐": 275,
      "깔": 276,
      "깖": 277,
      "깜": 278,
      "깝": 279,
      "깟": 280,
      "깠": 281,
      "깡": 282,
      "깥": 283,
      "깨": 284,
      "깩": 285,
      "깬": 286,
      "깰": 287,
      "깸": 288,
      "깹": 289,
      "깻": 290,
      "깼": 291,
      "깽": 292,
      "꺄": 293,
      "꺅": 294,
      "꺌": 295,
      "꺼": 296,
      "꺽": 297,
      "꺾": 298,
      "껀": 299,
      "껄": 300,
      "껌": 301,
      "껍": 302,
      "껏": 303,
      "껐": 304,
      "껑": 305,
      "께": 306,
      "껙": 307,
      "껜": 308,
      "껨": 309,
      "껫": 310,
      "껭": 311,
      "껴": 312,
      "껸": 313,
      "껼": 314,
      "꼇": 315,
      "꼈": 316,
      "꼍": 317,
      "꼐": 318,
      "꼬": 319,
      "꼭": 320,
      "꼰": 321,
      "꼲": 322,
      "꼴": 323,
      "꼼": 324,
      "꼽": 325,
      "꼿": 326,
      "꽁": 327,
      "꽂": 328,
      "꽃": 329,
      "꽈": 330,
      "꽉": 331,
      "꽐": 332,
      "꽜": 333,
      "꽝": 334,
      "꽤": 335,
      "꽥": 336,
      "꽹": 337,
      "꾀": 338,
      "꾄": 339,
      "꾈": 340,
      "꾐": 341,
      "꾑": 342,
      "꾕": 343,
      "꾜": 344,
      "꾸": 345,
      "꾹": 346,
      "꾼": 347,
      "꿀": 348,
      "꿇": 349,
      "꿈": 350,
      "꿉": 351,
      "꿋": 352,
      "꿍": 353,
      "꿎": 354,
      "꿔": 355,
      "꿜": 356,
      "꿨": 357,
      "꿩": 358,
      "꿰": 359,
      "꿱": 360,
      "꿴": 361,
      "꿸": 362,
      "뀀": 363,
      "뀁": 364,
      "뀄": 365,
      "뀌": 366,
      "뀐": 367,
      "뀔": 368,
      "뀜": 369,
      "뀝": 370,
      "뀨": 371,
      "끄": 372,
      "끅": 373,
      "끈": 374,
      "끊": 375,
      "끌": 376,
      "끎": 377,
      "끓": 378,
      "끔": 379,
      "끕": 380,
      "끗": 381,
      "끙": 382,
      "끝": 383,
      "끼": 384,
      "끽": 385,
      "낀": 386,
      "낄": 387,
      "낌": 388,
      "낍": 389,
      "낏": 390,
      "낑": 391,
      "나": 392,
      "낙": 393,
      "낚": 394,
      "난": 395,
      "낟": 396,
      "날": 397,
      "낡": 398,
      "낢": 399,
      "남": 400,
      "납": 401,
      "낫": 402,
      "났": 403,
      "낭": 404,
      "낮": 405,
      "낯": 406,
      "낱": 407,
      "낳": 408,
      "내": 409,
      "낵": 410,
      "낸": 411,
      "낼": 412,
      "냄": 413,
      "냅": 414,
      "냇": 415,
      "냈": 416,
      "냉": 417,
      "냐": 418,
      "냑": 419,
      "냔": 420,
      "냘": 421,
      "냠": 422,
      "냥": 423,
      "너": 424,
      "넉": 425,
      "넋": 426,
      "넌": 427,
      "널": 428,
      "넒": 429,
      "넓": 430,
      "넘": 431,
      "넙": 432,
      "넛": 433,
      "넜": 434,
      "넝": 435,
      "넣": 436,
      "네": 437,
      "넥": 438,
      "넨": 439,
      "넬": 440,
      "넴": 441,
      "넵": 442,
      "넷": 443,
      "넸": 444,
      "넹": 445,
      "녀": 446,
      "녁": 447,
      "년": 448,
      "녈": 449,
      "념": 450,
      "녑": 451,
      "녔": 452,
      "녕": 453,
      "녘": 454,
      "녜": 455,
      "녠": 456,
      "노": 457,
      "녹": 458,
      "논": 459,
      "놀": 460,
      "놂": 461,
      "놈": 462,
      "놉": 463,
      "놋": 464,
      "농": 465,
      "높": 466,
      "놓": 467,
      "놔": 468,
      "놘": 469,
      "놜": 470,
      "놨": 471,
      "뇌": 472,
      "뇐": 473,
      "뇔": 474,
      "뇜": 475,
      "뇝": 476,
      "뇟": 477,
      "뇨": 478,
      "뇩": 479,
      "뇬": 480,
      "뇰": 481,
      "뇹": 482,
      "뇻": 483,
      "뇽": 484,
      "누": 485,
      "눅": 486,
      "눈": 487,
      "눋": 488,
      "눌": 489,
      "눔": 490,
      "눕": 491,
      "눗": 492,
      "눙": 493,
      "눠": 494,
      "눴": 495,
      "눼": 496,
      "뉘": 497,
      "뉜": 498,
      "뉠": 499,
      "뉨": 500,
      "뉩": 501,
      "뉴": 502,
      "뉵": 503,
      "뉼": 504,
      "늄": 505,
      "늅": 506,
      "늉": 507,
      "느": 508,
      "늑": 509,
      "는": 510,
      "늘": 511,
      "늙": 512,
      "늚": 513,
      "늠": 514,
      "늡": 515,
      "늣": 516,
      "능": 517,
      "늦": 518,
      "늪": 519,
      "늬": 520,
      "늰": 521,
      "늴": 522,
      "니": 523,
      "닉": 524,
      "닌": 525,
      "닐": 526,
      "닒": 527,
      "님": 528,
      "닙": 529,
      "닛": 530,
      "닝": 531,
      "닢": 532,
      "다": 533,
      "닥": 534,
      "닦": 535,
      "단": 536,
      "닫": 537,
      "달": 538,
      "닭": 539,
      "닮": 540,
      "닯": 541,
      "닳": 542,
      "담": 543,
      "답": 544,
      "닷": 545,
      "닸": 546,
      "당": 547,
      "닺": 548,
      "닻": 549,
      "닿": 550,
      "대": 551,
      "댁": 552,
      "댄": 553,
      "댈": 554,
      "댐": 555,
      "댑": 556,
      "댓": 557,
      "댔": 558,
      "댕": 559,
      "댜": 560,
      "더": 561,
      "덕": 562,
      "덖": 563,
      "던": 564,
      "덛": 565,
      "덜": 566,
      "덞": 567,
      "덟": 568,
      "덤": 569,
      "덥": 570,
      "덧": 571,
      "덩": 572,
      "덫": 573,
      "덮": 574,
      "데": 575,
      "덱": 576,
      "덴": 577,
      "델": 578,
      "뎀": 579,
      "뎁": 580,
      "뎃": 581,
      "뎄": 582,
      "뎅": 583,
      "뎌": 584,
      "뎐": 585,
      "뎔": 586,
      "뎠": 587,
      "뎡": 588,
      "뎨": 589,
      "뎬": 590,
      "도": 591,
      "독": 592,
      "돈": 593,
      "돋": 594,
      "돌": 595,
      "돎": 596,
      "돐": 597,
      "돔": 598,
      "돕": 599,
      "돗": 600,
      "동": 601,
      "돛": 602,
      "돝": 603,
      "돠": 604,
      "돤": 605,
      "돨": 606,
      "돼": 607,
      "됐": 608,
      "되": 609,
      "된": 610,
      "될": 611,
      "됨": 612,
      "됩": 613,
      "됫": 614,
      "됴": 615,
      "두": 616,
      "둑": 617,
      "둔": 618,
      "둘": 619,
      "둠": 620,
      "둡": 621,
      "둣": 622,
      "둥": 623,
      "둬": 624,
      "뒀": 625,
      "뒈": 626,
      "뒝": 627,
      "뒤": 628,
      "뒨": 629,
      "뒬": 630,
      "뒵": 631,
      "뒷": 632,
      "뒹": 633,
      "듀": 634,
      "듄": 635,
      "듈": 636,
      "듐": 637,
      "듕": 638,
      "드": 639,
      "득": 640,
      "든": 641,
      "듣": 642,
      "들": 643,
      "듦": 644,
      "듬": 645,
      "듭": 646,
      "듯": 647,
      "등": 648,
      "듸": 649,
      "디": 650,
      "딕": 651,
      "딘": 652,
      "딛": 653,
      "딜": 654,
      "딤": 655,
      "딥": 656,
      "딧": 657,
      "딨": 658,
      "딩": 659,
      "딪": 660,
      "따": 661,
      "딱": 662,
      "딴": 663,
      "딸": 664,
      "땀": 665,
      "땁": 666,
      "땃": 667,
      "땄": 668,
      "땅": 669,
      "땋": 670,
      "때": 671,
      "땍": 672,
      "땐": 673,
      "땔": 674,
      "땜": 675,
      "땝": 676,
      "땟": 677,
      "땠": 678,
      "땡": 679,
      "떠": 680,
      "떡": 681,
      "떤": 682,
      "떨": 683,
      "떪": 684,
      "떫": 685,
      "떰": 686,
      "떱": 687,
      "떳": 688,
      "떴": 689,
      "떵": 690,
      "떻": 691,
      "떼": 692,
      "떽": 693,
      "뗀": 694,
      "뗄": 695,
      "뗌": 696,
      "뗍": 697,
      "뗏": 698,
      "뗐": 699,
      "뗑": 700,
      "뗘": 701,
      "뗬": 702,
      "또": 703,
      "똑": 704,
      "똔": 705,
      "똘": 706,
      "똥": 707,
      "똬": 708,
      "똴": 709,
      "뙈": 710,
      "뙤": 711,
      "뙨": 712,
      "뚜": 713,
      "뚝": 714,
      "뚠": 715,
      "뚤": 716,
      "뚫": 717,
      "뚬": 718,
      "뚱": 719,
      "뛔": 720,
      "뛰": 721,
      "뛴": 722,
      "뛸": 723,
      "뜀": 724,
      "뜁": 725,
      "뜅": 726,
      "뜨": 727,
      "뜩": 728,
      "뜬": 729,
      "뜯": 730,
      "뜰": 731,
      "뜸": 732,
      "뜹": 733,
      "뜻": 734,
      "띄": 735,
      "띈": 736,
      "띌": 737,
      "띔": 738,
      "띕": 739,
      "띠": 740,
      "띤": 741,
      "띨": 742,
      "띰": 743,
      "띱": 744,
      "띳": 745,
      "띵": 746,
      "라": 747,
      "락": 748,
      "란": 749,
      "랄": 750,
      "람": 751,
      "랍": 752,
      "랏": 753,
      "랐": 754,
      "랑": 755,
      "랒": 756,
      "랖": 757,
      "랗": 758,
      "래": 759,
      "랙": 760,
      "랜": 761,
      "랠": 762,
      "램": 763,
      "랩": 764,
      "랫": 765,
      "랬": 766,
      "랭": 767,
      "랴": 768,
      "략": 769,
      "랸": 770,
      "럇": 771,
      "량": 772,
      "러": 773,
      "럭": 774,
      "런": 775,
      "럴": 776,
      "럼": 777,
      "럽": 778,
      "럿": 779,
      "렀": 780,
      "렁": 781,
      "렇": 782,
      "레": 783,
      "렉": 784,
      "렌": 785,
      "렐": 786,
      "렘": 787,
      "렙": 788,
      "렛": 789,
      "렝": 790,
      "려": 791,
      "력": 792,
      "련": 793,
      "렬": 794,
      "렴": 795,
      "렵": 796,
      "렷": 797,
      "렸": 798,
      "령": 799,
      "례": 800,
      "롄": 801,
      "롑": 802,
      "롓": 803,
      "로": 804,
      "록": 805,
      "론": 806,
      "롤": 807,
      "롬": 808,
      "롭": 809,
      "롯": 810,
      "롱": 811,
      "롸": 812,
      "롼": 813,
      "뢍": 814,
      "뢨": 815,
      "뢰": 816,
      "뢴": 817,
      "뢸": 818,
      "룀": 819,
      "룁": 820,
      "룃": 821,
      "룅": 822,
      "료": 823,
      "룐": 824,
      "룔": 825,
      "룝": 826,
      "룟": 827,
      "룡": 828,
      "루": 829,
      "룩": 830,
      "룬": 831,
      "룰": 832,
      "룸": 833,
      "룹": 834,
      "룻": 835,
      "룽": 836,
      "뤄": 837,
      "뤘": 838,
      "뤠": 839,
      "뤼": 840,
      "뤽": 841,
      "륀": 842,
      "륄": 843,
      "륌": 844,
      "륏": 845,
      "륑": 846,
      "류": 847,
      "륙": 848,
      "륜": 849,
      "률": 850,
      "륨": 851,
      "륩": 852,
      "륫": 853,
      "륭": 854,
      "르": 855,
      "륵": 856,
      "른": 857,
      "를": 858,
      "름": 859,
      "릅": 860,
      "릇": 861,
      "릉": 862,
      "릊": 863,
      "릍": 864,
      "릎": 865,
      "리": 866,
      "릭": 867,
      "린": 868,
      "릴": 869,
      "림": 870,
      "립": 871,
      "릿": 872,
      "링": 873,
      "마": 874,
      "막": 875,
      "만": 876,
      "많": 877,
      "맏": 878,
      "말": 879,
      "맑": 880,
      "맒": 881,
      "맘": 882,
      "맙": 883,
      "맛": 884,
      "망": 885,
      "맞": 886,
      "맡": 887,
      "맣": 888,
      "매": 889,
      "맥": 890,
      "맨": 891,
      "맬": 892,
      "맴": 893,
      "맵": 894,
      "맷": 895,
      "맸": 896,
      "맹": 897,
      "맺": 898,
      "먀": 899,
      "먁": 900,
      "먈": 901,
      "먕": 902,
      "머": 903,
      "먹": 904,
      "먼": 905,
      "멀": 906,
      "멂": 907,
      "멈": 908,
      "멉": 909,
      "멋": 910,
      "멍": 911,
      "멎": 912,
      "멓": 913,
      "메": 914,
      "멕": 915,
      "멘": 916,
      "멜": 917,
      "멤": 918,
      "멥": 919,
      "멧": 920,
      "멨": 921,
      "멩": 922,
      "며": 923,
      "멱": 924,
      "면": 925,
      "멸": 926,
      "몃": 927,
      "몄": 928,
      "명": 929,
      "몇": 930,
      "몌": 931,
      "모": 932,
      "목": 933,
      "몫": 934,
      "몬": 935,
      "몰": 936,
      "몲": 937,
      "몸": 938,
      "몹": 939,
      "못": 940,
      "몽": 941,
      "뫄": 942,
      "뫈": 943,
      "뫘": 944,
      "뫙": 945,
      "뫼": 946,
      "묀": 947,
      "묄": 948,
      "묍": 949,
      "묏": 950,
      "묑": 951,
      "묘": 952,
      "묜": 953,
      "묠": 954,
      "묩": 955,
      "묫": 956,
      "무": 957,
      "묵": 958,
      "묶": 959,
      "문": 960,
      "묻": 961,
      "물": 962,
      "묽": 963,
      "묾": 964,
      "뭄": 965,
      "뭅": 966,
      "뭇": 967,
      "뭉": 968,
      "뭍": 969,
      "뭏": 970,
      "뭐": 971,
      "뭔": 972,
      "뭘": 973,
      "뭡": 974,
      "뭣": 975,
      "뭬": 976,
      "뮈": 977,
      "뮌": 978,
      "뮐": 979,
      "뮤": 980,
      "뮨": 981,
      "뮬": 982,
      "뮴": 983,
      "뮷": 984,
      "므": 985,
      "믄": 986,
      "믈": 987,
      "믐": 988,
      "믓": 989,
      "미": 990,
      "믹": 991,
      "민": 992,
      "믿": 993,
      "밀": 994,
      "밂": 995,
      "밈": 996,
      "밉": 997,
      "밋": 998,
      "밌": 999,
      "밍": 1000,
      "및": 1001,
      "밑": 1002,
      "바": 1003,
      "박": 1004,
      "밖": 1005,
      "밗": 1006,
      "반": 1007,
      "받": 1008,
      "발": 1009,
      "밝": 1010,
      "밞": 1011,
      "밟": 1012,
      "밤": 1013,
      "밥": 1014,
      "밧": 1015,
      "방": 1016,
      "밭": 1017,
      "배": 1018,
      "백": 1019,
      "밴": 1020,
      "밸": 1021,
      "뱀": 1022,
      "뱁": 1023,
      "뱃": 1024,
      "뱄": 1025,
      "뱅": 1026,
      "뱉": 1027,
      "뱌": 1028,
      "뱍": 1029,
      "뱐": 1030,
      "뱝": 1031,
      "버": 1032,
      "벅": 1033,
      "번": 1034,
      "벋": 1035,
      "벌": 1036,
      "벎": 1037,
      "범": 1038,
      "법": 1039,
      "벗": 1040,
      "벙": 1041,
      "벚": 1042,
      "베": 1043,
      "벡": 1044,
      "벤": 1045,
      "벧": 1046,
      "벨": 1047,
      "벰": 1048,
      "벱": 1049,
      "벳": 1050,
      "벴": 1051,
      "벵": 1052,
      "벼": 1053,
      "벽": 1054,
      "변": 1055,
      "별": 1056,
      "볍": 1057,
      "볏": 1058,
      "볐": 1059,
      "병": 1060,
      "볕": 1061,
      "볘": 1062,
      "볜": 1063,
      "보": 1064,
      "복": 1065,
      "볶": 1066,
      "본": 1067,
      "볼": 1068,
      "봄": 1069,
      "봅": 1070,
      "봇": 1071,
      "봉": 1072,
      "봐": 1073,
      "봔": 1074,
      "봤": 1075,
      "봬": 1076,
      "뵀": 1077,
      "뵈": 1078,
      "뵉": 1079,
      "뵌": 1080,
      "뵐": 1081,
      "뵘": 1082,
      "뵙": 1083,
      "뵤": 1084,
      "뵨": 1085,
      "부": 1086,
      "북": 1087,
      "분": 1088,
      "붇": 1089,
      "불": 1090,
      "붉": 1091,
      "붊": 1092,
      "붐": 1093,
      "붑": 1094,
      "붓": 1095,
      "붕": 1096,
      "붙": 1097,
      "붚": 1098,
      "붜": 1099,
      "붤": 1100,
      "붰": 1101,
      "붸": 1102,
      "뷔": 1103,
      "뷕": 1104,
      "뷘": 1105,
      "뷜": 1106,
      "뷩": 1107,
      "뷰": 1108,
      "뷴": 1109,
      "뷸": 1110,
      "븀": 1111,
      "븃": 1112,
      "븅": 1113,
      "브": 1114,
      "븍": 1115,
      "븐": 1116,
      "블": 1117,
      "븜": 1118,
      "븝": 1119,
      "븟": 1120,
      "비": 1121,
      "빅": 1122,
      "빈": 1123,
      "빌": 1124,
      "빎": 1125,
      "빔": 1126,
      "빕": 1127,
      "빗": 1128,
      "빙": 1129,
      "빚": 1130,
      "빛": 1131,
      "빠": 1132,
      "빡": 1133,
      "빤": 1134,
      "빨": 1135,
      "빪": 1136,
      "빰": 1137,
      "빱": 1138,
      "빳": 1139,
      "빴": 1140,
      "빵": 1141,
      "빻": 1142,
      "빼": 1143,
      "빽": 1144,
      "뺀": 1145,
      "뺄": 1146,
      "뺌": 1147,
      "뺍": 1148,
      "뺏": 1149,
      "뺐": 1150,
      "뺑": 1151,
      "뺘": 1152,
      "뺙": 1153,
      "뺨": 1154,
      "뻐": 1155,
      "뻑": 1156,
      "뻔": 1157,
      "뻗": 1158,
      "뻘": 1159,
      "뻠": 1160,
      "뻣": 1161,
      "뻤": 1162,
      "뻥": 1163,
      "뻬": 1164,
      "뼁": 1165,
      "뼈": 1166,
      "뼉": 1167,
      "뼘": 1168,
      "뼙": 1169,
      "뼛": 1170,
      "뼜": 1171,
      "뼝": 1172,
      "뽀": 1173,
      "뽁": 1174,
      "뽄": 1175,
      "뽈": 1176,
      "뽐": 1177,
      "뽑": 1178,
      "뽕": 1179,
      "뾔": 1180,
      "뾰": 1181,
      "뿅": 1182,
      "뿌": 1183,
      "뿍": 1184,
      "뿐": 1185,
      "뿔": 1186,
      "뿜": 1187,
      "뿟": 1188,
      "뿡": 1189,
      "쀼": 1190,
      "쁑": 1191,
      "쁘": 1192,
      "쁜": 1193,
      "쁠": 1194,
      "쁨": 1195,
      "쁩": 1196,
      "삐": 1197,
      "삑": 1198,
      "삔": 1199,
      "삘": 1200,
      "삠": 1201,
      "삡": 1202,
      "삣": 1203,
      "삥": 1204,
      "사": 1205,
      "삭": 1206,
      "삯": 1207,
      "산": 1208,
      "삳": 1209,
      "살": 1210,
      "삵": 1211,
      "삶": 1212,
      "삼": 1213,
      "삽": 1214,
      "삿": 1215,
      "샀": 1216,
      "상": 1217,
      "샅": 1218,
      "새": 1219,
      "색": 1220,
      "샌": 1221,
      "샐": 1222,
      "샘": 1223,
      "샙": 1224,
      "샛": 1225,
      "샜": 1226,
      "생": 1227,
      "샤": 1228,
      "샥": 1229,
      "샨": 1230,
      "샬": 1231,
      "샴": 1232,
      "샵": 1233,
      "샷": 1234,
      "샹": 1235,
      "섀": 1236,
      "섄": 1237,
      "섈": 1238,
      "섐": 1239,
      "섕": 1240,
      "서": 1241,
      "석": 1242,
      "섞": 1243,
      "섟": 1244,
      "선": 1245,
      "섣": 1246,
      "설": 1247,
      "섦": 1248,
      "섧": 1249,
      "섬": 1250,
      "섭": 1251,
      "섯": 1252,
      "섰": 1253,
      "성": 1254,
      "섶": 1255,
      "세": 1256,
      "섹": 1257,
      "센": 1258,
      "셀": 1259,
      "셈": 1260,
      "셉": 1261,
      "셋": 1262,
      "셌": 1263,
      "셍": 1264,
      "셔": 1265,
      "셕": 1266,
      "션": 1267,
      "셜": 1268,
      "셤": 1269,
      "셥": 1270,
      "셧": 1271,
      "셨": 1272,
      "셩": 1273,
      "셰": 1274,
      "셴": 1275,
      "셸": 1276,
      "솅": 1277,
      "소": 1278,
      "속": 1279,
      "솎": 1280,
      "손": 1281,
      "솔": 1282,
      "솖": 1283,
      "솜": 1284,
      "솝": 1285,
      "솟": 1286,
      "송": 1287,
      "솥": 1288,
      "솨": 1289,
      "솩": 1290,
      "솬": 1291,
      "솰": 1292,
      "솽": 1293,
      "쇄": 1294,
      "쇈": 1295,
      "쇌": 1296,
      "쇔": 1297,
      "쇗": 1298,
      "쇘": 1299,
      "쇠": 1300,
      "쇤": 1301,
      "쇨": 1302,
      "쇰": 1303,
      "쇱": 1304,
      "쇳": 1305,
      "쇼": 1306,
      "쇽": 1307,
      "숀": 1308,
      "숄": 1309,
      "숌": 1310,
      "숍": 1311,
      "숏": 1312,
      "숑": 1313,
      "수": 1314,
      "숙": 1315,
      "순": 1316,
      "숟": 1317,
      "술": 1318,
      "숨": 1319,
      "숩": 1320,
      "숫": 1321,
      "숭": 1322,
      "숯": 1323,
      "숱": 1324,
      "숲": 1325,
      "숴": 1326,
      "쉈": 1327,
      "쉐": 1328,
      "쉑": 1329,
      "쉔": 1330,
      "쉘": 1331,
      "쉠": 1332,
      "쉥": 1333,
      "쉬": 1334,
      "쉭": 1335,
      "쉰": 1336,
      "쉴": 1337,
      "쉼": 1338,
      "쉽": 1339,
      "쉿": 1340,
      "슁": 1341,
      "슈": 1342,
      "슉": 1343,
      "슐": 1344,
      "슘": 1345,
      "슛": 1346,
      "슝": 1347,
      "스": 1348,
      "슥": 1349,
      "슨": 1350,
      "슬": 1351,
      "슭": 1352,
      "슴": 1353,
      "습": 1354,
      "슷": 1355,
      "승": 1356,
      "시": 1357,
      "식": 1358,
      "신": 1359,
      "싣": 1360,
      "실": 1361,
      "싫": 1362,
      "심": 1363,
      "십": 1364,
      "싯": 1365,
      "싱": 1366,
      "싶": 1367,
      "싸": 1368,
      "싹": 1369,
      "싻": 1370,
      "싼": 1371,
      "쌀": 1372,
      "쌈": 1373,
      "쌉": 1374,
      "쌌": 1375,
      "쌍": 1376,
      "쌓": 1377,
      "쌔": 1378,
      "쌕": 1379,
      "쌘": 1380,
      "쌜": 1381,
      "쌤": 1382,
      "쌥": 1383,
      "쌨": 1384,
      "쌩": 1385,
      "썅": 1386,
      "써": 1387,
      "썩": 1388,
      "썬": 1389,
      "썰": 1390,
      "썲": 1391,
      "썸": 1392,
      "썹": 1393,
      "썼": 1394,
      "썽": 1395,
      "쎄": 1396,
      "쎈": 1397,
      "쎌": 1398,
      "쏀": 1399,
      "쏘": 1400,
      "쏙": 1401,
      "쏜": 1402,
      "쏟": 1403,
      "쏠": 1404,
      "쏢": 1405,
      "쏨": 1406,
      "쏩": 1407,
      "쏭": 1408,
      "쏴": 1409,
      "쏵": 1410,
      "쏸": 1411,
      "쐈": 1412,
      "쐐": 1413,
      "쐤": 1414,
      "쐬": 1415,
      "쐰": 1416,
      "쐴": 1417,
      "쐼": 1418,
      "쐽": 1419,
      "쑈": 1420,
      "쑤": 1421,
      "쑥": 1422,
      "쑨": 1423,
      "쑬": 1424,
      "쑴": 1425,
      "쑵": 1426,
      "쑹": 1427,
      "쒀": 1428,
      "쒔": 1429,
      "쒜": 1430,
      "쒸": 1431,
      "쒼": 1432,
      "쓩": 1433,
      "쓰": 1434,
      "쓱": 1435,
      "쓴": 1436,
      "쓸": 1437,
      "쓺": 1438,
      "쓿": 1439,
      "씀": 1440,
      "씁": 1441,
      "씌": 1442,
      "씐": 1443,
      "씔": 1444,
      "씜": 1445,
      "씨": 1446,
      "씩": 1447,
      "씬": 1448,
      "씰": 1449,
      "씸": 1450,
      "씹": 1451,
      "씻": 1452,
      "씽": 1453,
      "아": 1454,
      "악": 1455,
      "안": 1456,
      "앉": 1457,
      "않": 1458,
      "알": 1459,
      "앍": 1460,
      "앎": 1461,
      "앓": 1462,
      "암": 1463,
      "압": 1464,
      "앗": 1465,
      "았": 1466,
      "앙": 1467,
      "앝": 1468,
      "앞": 1469,
      "애": 1470,
      "액": 1471,
      "앤": 1472,
      "앨": 1473,
      "앰": 1474,
      "앱": 1475,
      "앳": 1476,
      "앴": 1477,
      "앵": 1478,
      "야": 1479,
      "약": 1480,
      "얀": 1481,
      "얄": 1482,
      "얇": 1483,
      "얌": 1484,
      "얍": 1485,
      "얏": 1486,
      "양": 1487,
      "얕": 1488,
      "얗": 1489,
      "얘": 1490,
      "얜": 1491,
      "얠": 1492,
      "얩": 1493,
      "어": 1494,
      "억": 1495,
      "언": 1496,
      "얹": 1497,
      "얻": 1498,
      "얼": 1499,
      "얽": 1500,
      "얾": 1501,
      "엄": 1502,
      "업": 1503,
      "없": 1504,
      "엇": 1505,
      "었": 1506,
      "엉": 1507,
      "엊": 1508,
      "엌": 1509,
      "엎": 1510,
      "에": 1511,
      "엑": 1512,
      "엔": 1513,
      "엘": 1514,
      "엠": 1515,
      "엡": 1516,
      "엣": 1517,
      "엥": 1518,
      "여": 1519,
      "역": 1520,
      "엮": 1521,
      "연": 1522,
      "열": 1523,
      "엶": 1524,
      "엷": 1525,
      "염": 1526,
      "엽": 1527,
      "엾": 1528,
      "엿": 1529,
      "였": 1530,
      "영": 1531,
      "옅": 1532,
      "옆": 1533,
      "옇": 1534,
      "예": 1535,
      "옌": 1536,
      "옐": 1537,
      "옘": 1538,
      "옙": 1539,
      "옛": 1540,
      "옜": 1541,
      "오": 1542,
      "옥": 1543,
      "온": 1544,
      "올": 1545,
      "옭": 1546,
      "옮": 1547,
      "옰": 1548,
      "옳": 1549,
      "옴": 1550,
      "옵": 1551,
      "옷": 1552,
      "옹": 1553,
      "옻": 1554,
      "와": 1555,
      "왁": 1556,
      "완": 1557,
      "왈": 1558,
      "왐": 1559,
      "왑": 1560,
      "왓": 1561,
      "왔": 1562,
      "왕": 1563,
      "왜": 1564,
      "왝": 1565,
      "왠": 1566,
      "왬": 1567,
      "왯": 1568,
      "왱": 1569,
      "외": 1570,
      "왹": 1571,
      "왼": 1572,
      "욀": 1573,
      "욈": 1574,
      "욉": 1575,
      "욋": 1576,
      "욍": 1577,
      "요": 1578,
      "욕": 1579,
      "욘": 1580,
      "욜": 1581,
      "욤": 1582,
      "욥": 1583,
      "욧": 1584,
      "용": 1585,
      "우": 1586,
      "욱": 1587,
      "운": 1588,
      "울": 1589,
      "욹": 1590,
      "욺": 1591,
      "움": 1592,
      "웁": 1593,
      "웃": 1594,
      "웅": 1595,
      "워": 1596,
      "웍": 1597,
      "원": 1598,
      "월": 1599,
      "웜": 1600,
      "웝": 1601,
      "웠": 1602,
      "웡": 1603,
      "웨": 1604,
      "웩": 1605,
      "웬": 1606,
      "웰": 1607,
      "웸": 1608,
      "웹": 1609,
      "웽": 1610,
      "위": 1611,
      "윅": 1612,
      "윈": 1613,
      "윌": 1614,
      "윔": 1615,
      "윕": 1616,
      "윗": 1617,
      "윙": 1618,
      "유": 1619,
      "육": 1620,
      "윤": 1621,
      "율": 1622,
      "윰": 1623,
      "윱": 1624,
      "윳": 1625,
      "융": 1626,
      "윷": 1627,
      "으": 1628,
      "윽": 1629,
      "은": 1630,
      "을": 1631,
      "읊": 1632,
      "음": 1633,
      "읍": 1634,
      "읏": 1635,
      "응": 1636,
      "읒": 1637,
      "읓": 1638,
      "읔": 1639,
      "읕": 1640,
      "읖": 1641,
      "읗": 1642,
      "의": 1643,
      "읜": 1644,
      "읠": 1645,
      "읨": 1646,
      "읫": 1647,
      "이": 1648,
      "익": 1649,
      "인": 1650,
      "일": 1651,
      "읽": 1652,
      "읾": 1653,
      "잃": 1654,
      "임": 1655,
      "입": 1656,
      "잇": 1657,
      "있": 1658,
      "잉": 1659,
      "잊": 1660,
      "잎": 1661,
      "자": 1662,
      "작": 1663,
      "잔": 1664,
      "잖": 1665,
      "잗": 1666,
      "잘": 1667,
      "잚": 1668,
      "잠": 1669,
      "잡": 1670,
      "잣": 1671,
      "잤": 1672,
      "장": 1673,
      "잦": 1674,
      "재": 1675,
      "잭": 1676,
      "잰": 1677,
      "잴": 1678,
      "잼": 1679,
      "잽": 1680,
      "잿": 1681,
      "쟀": 1682,
      "쟁": 1683,
      "쟈": 1684,
      "쟉": 1685,
      "쟌": 1686,
      "쟎": 1687,
      "쟐": 1688,
      "쟘": 1689,
      "쟝": 1690,
      "쟤": 1691,
      "쟨": 1692,
      "쟬": 1693,
      "저": 1694,
      "적": 1695,
      "전": 1696,
      "절": 1697,
      "젊": 1698,
      "점": 1699,
      "접": 1700,
      "젓": 1701,
      "정": 1702,
      "젖": 1703,
      "제": 1704,
      "젝": 1705,
      "젠": 1706,
      "젤": 1707,
      "젬": 1708,
      "젭": 1709,
      "젯": 1710,
      "젱": 1711,
      "져": 1712,
      "젼": 1713,
      "졀": 1714,
      "졈": 1715,
      "졉": 1716,
      "졌": 1717,
      "졍": 1718,
      "졔": 1719,
      "조": 1720,
      "족": 1721,
      "존": 1722,
      "졸": 1723,
      "졺": 1724,
      "좀": 1725,
      "좁": 1726,
      "좃": 1727,
      "종": 1728,
      "좆": 1729,
      "좇": 1730,
      "좋": 1731,
      "좌": 1732,
      "좍": 1733,
      "좔": 1734,
      "좝": 1735,
      "좟": 1736,
      "좡": 1737,
      "좨": 1738,
      "좼": 1739,
      "좽": 1740,
      "죄": 1741,
      "죈": 1742,
      "죌": 1743,
      "죔": 1744,
      "죕": 1745,
      "죗": 1746,
      "죙": 1747,
      "죠": 1748,
      "죡": 1749,
      "죤": 1750,
      "죵": 1751,
      "주": 1752,
      "죽": 1753,
      "준": 1754,
      "줄": 1755,
      "줅": 1756,
      "줆": 1757,
      "줌": 1758,
      "줍": 1759,
      "줏": 1760,
      "중": 1761,
      "줘": 1762,
      "줬": 1763,
      "줴": 1764,
      "쥐": 1765,
      "쥑": 1766,
      "쥔": 1767,
      "쥘": 1768,
      "쥠": 1769,
      "쥡": 1770,
      "쥣": 1771,
      "쥬": 1772,
      "쥰": 1773,
      "쥴": 1774,
      "쥼": 1775,
      "즈": 1776,
      "즉": 1777,
      "즌": 1778,
      "즐": 1779,
      "즘": 1780,
      "즙": 1781,
      "즛": 1782,
      "증": 1783,
      "지": 1784,
      "직": 1785,
      "진": 1786,
      "짇": 1787,
      "질": 1788,
      "짊": 1789,
      "짐": 1790,
      "집": 1791,
      "짓": 1792,
      "징": 1793,
      "짖": 1794,
      "짙": 1795,
      "짚": 1796,
      "짜": 1797,
      "짝": 1798,
      "짠": 1799,
      "짢": 1800,
      "짤": 1801,
      "짧": 1802,
      "짬": 1803,
      "짭": 1804,
      "짯": 1805,
      "짰": 1806,
      "짱": 1807,
      "째": 1808,
      "짹": 1809,
      "짼": 1810,
      "쨀": 1811,
      "쨈": 1812,
      "쨉": 1813,
      "쨋": 1814,
      "쨌": 1815,
      "쨍": 1816,
      "쨔": 1817,
      "쨘": 1818,
      "쨩": 1819,
      "쩌": 1820,
      "쩍": 1821,
      "쩐": 1822,
      "쩔": 1823,
      "쩜": 1824,
      "쩝": 1825,
      "쩟": 1826,
      "쩠": 1827,
      "쩡": 1828,
      "쩨": 1829,
      "쩽": 1830,
      "쪄": 1831,
      "쪘": 1832,
      "쪼": 1833,
      "쪽": 1834,
      "쫀": 1835,
      "쫄": 1836,
      "쫌": 1837,
      "쫍": 1838,
      "쫏": 1839,
      "쫑": 1840,
      "쫓": 1841,
      "쫘": 1842,
      "쫙": 1843,
      "쫠": 1844,
      "쫬": 1845,
      "쫴": 1846,
      "쬈": 1847,
      "쬐": 1848,
      "쬔": 1849,
      "쬘": 1850,
      "쬠": 1851,
      "쬡": 1852,
      "쭁": 1853,
      "쭈": 1854,
      "쭉": 1855,
      "쭌": 1856,
      "쭐": 1857,
      "쭘": 1858,
      "쭙": 1859,
      "쭝": 1860,
      "쭤": 1861,
      "쭸": 1862,
      "쭹": 1863,
      "쮜": 1864,
      "쮸": 1865,
      "쯔": 1866,
      "쯤": 1867,
      "쯧": 1868,
      "쯩": 1869,
      "찌": 1870,
      "찍": 1871,
      "찐": 1872,
      "찔": 1873,
      "찜": 1874,
      "찝": 1875,
      "찡": 1876,
      "찢": 1877,
      "찧": 1878,
      "차": 1879,
      "착": 1880,
      "찬": 1881,
      "찮": 1882,
      "찰": 1883,
      "참": 1884,
      "찹": 1885,
      "찻": 1886,
      "찼": 1887,
      "창": 1888,
      "찾": 1889,
      "채": 1890,
      "책": 1891,
      "챈": 1892,
      "챌": 1893,
      "챔": 1894,
      "챕": 1895,
      "챗": 1896,
      "챘": 1897,
      "챙": 1898,
      "챠": 1899,
      "챤": 1900,
      "챦": 1901,
      "챨": 1902,
      "챰": 1903,
      "챵": 1904,
      "처": 1905,
      "척": 1906,
      "천": 1907,
      "철": 1908,
      "첨": 1909,
      "첩": 1910,
      "첫": 1911,
      "첬": 1912,
      "청": 1913,
      "체": 1914,
      "첵": 1915,
      "첸": 1916,
      "첼": 1917,
      "쳄": 1918,
      "쳅": 1919,
      "쳇": 1920,
      "쳉": 1921,
      "쳐": 1922,
      "쳔": 1923,
      "쳤": 1924,
      "쳬": 1925,
      "쳰": 1926,
      "촁": 1927,
      "초": 1928,
      "촉": 1929,
      "촌": 1930,
      "촐": 1931,
      "촘": 1932,
      "촙": 1933,
      "촛": 1934,
      "총": 1935,
      "촤": 1936,
      "촨": 1937,
      "촬": 1938,
      "촹": 1939,
      "최": 1940,
      "쵠": 1941,
      "쵤": 1942,
      "쵬": 1943,
      "쵭": 1944,
      "쵯": 1945,
      "쵱": 1946,
      "쵸": 1947,
      "춈": 1948,
      "추": 1949,
      "축": 1950,
      "춘": 1951,
      "출": 1952,
      "춤": 1953,
      "춥": 1954,
      "춧": 1955,
      "충": 1956,
      "춰": 1957,
      "췄": 1958,
      "췌": 1959,
      "췐": 1960,
      "취": 1961,
      "췬": 1962,
      "췰": 1963,
      "췸": 1964,
      "췹": 1965,
      "췻": 1966,
      "췽": 1967,
      "츄": 1968,
      "츈": 1969,
      "츌": 1970,
      "츔": 1971,
      "츙": 1972,
      "츠": 1973,
      "측": 1974,
      "츤": 1975,
      "츨": 1976,
      "츰": 1977,
      "츱": 1978,
      "츳": 1979,
      "층": 1980,
      "치": 1981,
      "칙": 1982,
      "친": 1983,
      "칟": 1984,
      "칠": 1985,
      "칡": 1986,
      "침": 1987,
      "칩": 1988,
      "칫": 1989,
      "칭": 1990,
      "카": 1991,
      "칵": 1992,
      "칸": 1993,
      "칼": 1994,
      "캄": 1995,
      "캅": 1996,
      "캇": 1997,
      "캉": 1998,
      "캐": 1999,
      "캑": 2000,
      "캔": 2001,
      "캘": 2002,
      "캠": 2003,
      "캡": 2004,
      "캣": 2005,
      "캤": 2006,
      "캥": 2007,
      "캬": 2008,
      "캭": 2009,
      "컁": 2010,
      "커": 2011,
      "컥": 2012,
      "컨": 2013,
      "컫": 2014,
      "컬": 2015,
      "컴": 2016,
      "컵": 2017,
      "컷": 2018,
      "컸": 2019,
      "컹": 2020,
      "케": 2021,
      "켁": 2022,
      "켄": 2023,
      "켈": 2024,
      "켐": 2025,
      "켑": 2026,
      "켓": 2027,
      "켕": 2028,
      "켜": 2029,
      "켠": 2030,
      "켤": 2031,
      "켬": 2032,
      "켭": 2033,
      "켯": 2034,
      "켰": 2035,
      "켱": 2036,
      "켸": 2037,
      "코": 2038,
      "콕": 2039,
      "콘": 2040,
      "콜": 2041,
      "콤": 2042,
      "콥": 2043,
      "콧": 2044,
      "콩": 2045,
      "콰": 2046,
      "콱": 2047,
      "콴": 2048,
      "콸": 2049,
      "쾀": 2050,
      "쾅": 2051,
      "쾌": 2052,
      "쾡": 2053,
      "쾨": 2054,
      "쾰": 2055,
      "쿄": 2056,
      "쿠": 2057,
      "쿡": 2058,
      "쿤": 2059,
      "쿨": 2060,
      "쿰": 2061,
      "쿱": 2062,
      "쿳": 2063,
      "쿵": 2064,
      "쿼": 2065,
      "퀀": 2066,
      "퀄": 2067,
      "퀑": 2068,
      "퀘": 2069,
      "퀭": 2070,
      "퀴": 2071,
      "퀵": 2072,
      "퀸": 2073,
      "퀼": 2074,
      "큄": 2075,
      "큅": 2076,
      "큇": 2077,
      "큉": 2078,
      "큐": 2079,
      "큔": 2080,
      "큘": 2081,
      "큠": 2082,
      "크": 2083,
      "큭": 2084,
      "큰": 2085,
      "클": 2086,
      "큼": 2087,
      "큽": 2088,
      "킁": 2089,
      "키": 2090,
      "킥": 2091,
      "킨": 2092,
      "킬": 2093,
      "킴": 2094,
      "킵": 2095,
      "킷": 2096,
      "킹": 2097,
      "타": 2098,
      "탁": 2099,
      "탄": 2100,
      "탈": 2101,
      "탉": 2102,
      "탐": 2103,
      "탑": 2104,
      "탓": 2105,
      "탔": 2106,
      "탕": 2107,
      "태": 2108,
      "택": 2109,
      "탠": 2110,
      "탤": 2111,
      "탬": 2112,
      "탭": 2113,
      "탯": 2114,
      "탰": 2115,
      "탱": 2116,
      "탸": 2117,
      "턍": 2118,
      "터": 2119,
      "턱": 2120,
      "턴": 2121,
      "털": 2122,
      "턺": 2123,
      "텀": 2124,
      "텁": 2125,
      "텃": 2126,
      "텄": 2127,
      "텅": 2128,
      "테": 2129,
      "텍": 2130,
      "텐": 2131,
      "텔": 2132,
      "템": 2133,
      "텝": 2134,
      "텟": 2135,
      "텡": 2136,
      "텨": 2137,
      "텬": 2138,
      "텼": 2139,
      "톄": 2140,
      "톈": 2141,
      "토": 2142,
      "톡": 2143,
      "톤": 2144,
      "톨": 2145,
      "톰": 2146,
      "톱": 2147,
      "톳": 2148,
      "통": 2149,
      "톺": 2150,
      "톼": 2151,
      "퇀": 2152,
      "퇘": 2153,
      "퇴": 2154,
      "퇸": 2155,
      "툇": 2156,
      "툉": 2157,
      "툐": 2158,
      "투": 2159,
      "툭": 2160,
      "툰": 2161,
      "툴": 2162,
      "툼": 2163,
      "툽": 2164,
      "툿": 2165,
      "퉁": 2166,
      "퉈": 2167,
      "퉜": 2168,
      "퉤": 2169,
      "튀": 2170,
      "튁": 2171,
      "튄": 2172,
      "튈": 2173,
      "튐": 2174,
      "튑": 2175,
      "튕": 2176,
      "튜": 2177,
      "튠": 2178,
      "튤": 2179,
      "튬": 2180,
      "튱": 2181,
      "트": 2182,
      "특": 2183,
      "튼": 2184,
      "튿": 2185,
      "틀": 2186,
      "틂": 2187,
      "틈": 2188,
      "틉": 2189,
      "틋": 2190,
      "틔": 2191,
      "틘": 2192,
      "틜": 2193,
      "틤": 2194,
      "틥": 2195,
      "티": 2196,
      "틱": 2197,
      "틴": 2198,
      "틸": 2199,
      "팀": 2200,
      "팁": 2201,
      "팃": 2202,
      "팅": 2203,
      "파": 2204,
      "팍": 2205,
      "팎": 2206,
      "판": 2207,
      "팔": 2208,
      "팖": 2209,
      "팜": 2210,
      "팝": 2211,
      "팟": 2212,
      "팠": 2213,
      "팡": 2214,
      "팥": 2215,
      "패": 2216,
      "팩": 2217,
      "팬": 2218,
      "팰": 2219,
      "팸": 2220,
      "팹": 2221,
      "팻": 2222,
      "팼": 2223,
      "팽": 2224,
      "퍄": 2225,
      "퍅": 2226,
      "퍼": 2227,
      "퍽": 2228,
      "펀": 2229,
      "펄": 2230,
      "펌": 2231,
      "펍": 2232,
      "펏": 2233,
      "펐": 2234,
      "펑": 2235,
      "페": 2236,
      "펙": 2237,
      "펜": 2238,
      "펠": 2239,
      "펨": 2240,
      "펩": 2241,
      "펫": 2242,
      "펭": 2243,
      "펴": 2244,
      "편": 2245,
      "펼": 2246,
      "폄": 2247,
      "폅": 2248,
      "폈": 2249,
      "평": 2250,
      "폐": 2251,
      "폘": 2252,
      "폡": 2253,
      "폣": 2254,
      "포": 2255,
      "폭": 2256,
      "폰": 2257,
      "폴": 2258,
      "폼": 2259,
      "폽": 2260,
      "폿": 2261,
      "퐁": 2262,
      "퐈": 2263,
      "퐝": 2264,
      "푀": 2265,
      "푄": 2266,
      "표": 2267,
      "푠": 2268,
      "푤": 2269,
      "푭": 2270,
      "푯": 2271,
      "푸": 2272,
      "푹": 2273,
      "푼": 2274,
      "푿": 2275,
      "풀": 2276,
      "풂": 2277,
      "품": 2278,
      "풉": 2279,
      "풋": 2280,
      "풍": 2281,
      "풔": 2282,
      "풩": 2283,
      "퓌": 2284,
      "퓐": 2285,
      "퓔": 2286,
      "퓜": 2287,
      "퓟": 2288,
      "퓨": 2289,
      "퓬": 2290,
      "퓰": 2291,
      "퓸": 2292,
      "퓻": 2293,
      "퓽": 2294,
      "프": 2295,
      "픈": 2296,
      "플": 2297,
      "픔": 2298,
      "픕": 2299,
      "픗": 2300,
      "피": 2301,
      "픽": 2302,
      "핀": 2303,
      "필": 2304,
      "핌": 2305,
      "핍": 2306,
      "핏": 2307,
      "핑": 2308,
      "하": 2309,
      "학": 2310,
      "한": 2311,
      "할": 2312,
      "핥": 2313,
      "함": 2314,
      "합": 2315,
      "핫": 2316,
      "항": 2317,
      "해": 2318,
      "핵": 2319,
      "핸": 2320,
      "핼": 2321,
      "햄": 2322,
      "햅": 2323,
      "햇": 2324,
      "했": 2325,
      "행": 2326,
      "햐": 2327,
      "향": 2328,
      "허": 2329,
      "헉": 2330,
      "헌": 2331,
      "헐": 2332,
      "헒": 2333,
      "험": 2334,
      "헙": 2335,
      "헛": 2336,
      "헝": 2337,
      "헤": 2338,
      "헥": 2339,
      "헨": 2340,
      "헬": 2341,
      "헴": 2342,
      "헵": 2343,
      "헷": 2344,
      "헹": 2345,
      "혀": 2346,
      "혁": 2347,
      "현": 2348,
      "혈": 2349,
      "혐": 2350,
      "협": 2351,
      "혓": 2352,
      "혔": 2353,
      "형": 2354,
      "혜": 2355,
      "혠": 2356,
      "혤": 2357,
      "혭": 2358,
      "호": 2359,
      "혹": 2360,
      "혼": 2361,
      "홀": 2362,
      "홅": 2363,
      "홈": 2364,
      "홉": 2365,
      "홋": 2366,
      "홍": 2367,
      "홑": 2368,
      "화": 2369,
      "확": 2370,
      "환": 2371,
      "활": 2372,
      "홧": 2373,
      "황": 2374,
      "홰": 2375,
      "홱": 2376,
      "홴": 2377,
      "횃": 2378,
      "횅": 2379,
      "회": 2380,
      "획": 2381,
      "횐": 2382,
      "횔": 2383,
      "횝": 2384,
      "횟": 2385,
      "횡": 2386,
      "효": 2387,
      "횬": 2388,
      "횰": 2389,
      "횹": 2390,
      "횻": 2391,
      "후": 2392,
      "훅": 2393,
      "훈": 2394,
      "훌": 2395,
      "훑": 2396,
      "훔": 2397,
      "훗": 2398,
      "훙": 2399,
      "훠": 2400,
      "훤": 2401,
      "훨": 2402,
      "훰": 2403,
      "훵": 2404,
      "훼": 2405,
      "훽": 2406,
      "휀": 2407,
      "휄": 2408,
      "휑": 2409,
      "휘": 2410,
      "휙": 2411,
      "휜": 2412,
      "휠": 2413,
      "휨": 2414,
      "휩": 2415,
      "휫": 2416,
      "휭": 2417,
      "휴": 2418,
      "휵": 2419,
      "휸": 2420,
      "휼": 2421,
      "흄": 2422,
      "흇": 2423,
      "흉": 2424,
      "흐": 2425,
      "흑": 2426,
      "흔": 2427,
      "흖": 2428,
      "흗": 2429,
      "흘": 2430,
      "흙": 2431,
      "흠": 2432,
      "흡": 2433,
      "흣": 2434,
      "흥": 2435,
      "흩": 2436,
      "희": 2437,
      "흰": 2438,
      "흴": 2439,
      "흼": 2440,
      "흽": 2441,
      "힁": 2442,
      "히": 2443,
      "힉": 2444,
      "힌": 2445,
      "힐": 2446,
      "힘": 2447,
      "힙": 2448,
      "힛": 2449,
      "힝": 2450,
      "％": 2451,
      "##7": 2452,
      "##미": 2453,
      "##만": 2454,
      "##에": 2455,
      "##처": 2456,
      "##했": 2457,
      "##었": 2458,
      "##다": 2459,
      "##사": 2460,
      "##발": 2461,
      "##로": 2462,
      "##질": 2463,
      "##산": 2464,
      "##화": 2465,
      "##는": 2466,
      "##류": 2467,
      "##핵": 2468,
      "##고": 2469,
      "##너": 2470,
      "##무": 2471,
      "##타": 2472,
      "##스": 2473,
      "##그": 2474,
      "##라": 2475,
      "##시": 2476,
      "##아": 2477,
      "##럼": 2478,
      "##신": 2479,
      "##이": 2480,
      "##구": 2481,
      "##나": 2482,
      "##소": 2483,
      "##레": 2484,
      "##르": 2485,
      "##알": 2486,
      "##데": 2487,
      "##히": 2488,
      "##드": 2489,
      "##의": 2490,
      "##토": 2491,
      "##대": 2492,
      "##중": 2493,
      "##를": 2494,
      "##마": 2495,
      "##주": 2496,
      "##최": 2497,
      "##진": 2498,
      "##실": 2499,
      "##하": 2500,
      "##수": 2501,
      "##정": 2502,
      "##보": 2503,
      "##템": 2504,
      "##체": 2505,
      "##릴": 2506,
      "##계": 2507,
      "##성": 2508,
      "##되": 2509,
      "##어": 2510,
      "##있": 2511,
      "##서": 2512,
      "##피": 2513,
      "##털": 2514,
      "##까": 2515,
      "##지": 2516,
      "##트": 2517,
      "##먼": 2518,
      "##출": 2519,
      "##연": 2520,
      "##2": 2521,
      "##호": 2522,
      "##네": 2523,
      "##츠": 2524,
      "##일": 2525,
      "##자": 2526,
      "##급": 2527,
      "##4": 2528,
      "##부": 2529,
      "##기": 2530,
      "##상": 2531,
      "##여": 2532,
      "##을": 2533,
      "##술": 2534,
      "##용": 2535,
      "##역": 2536,
      "##k": 2537,
      "##t": 2538,
      "##o": 2539,
      "##d": 2540,
      "##e": 2541,
      "##c": 2542,
      "##i": 2543,
      "##l": 2544,
      "##n": 2545,
      "##물": 2546,
      "##틸": 2547,
      "##세": 2548,
      "##테": 2549,
      "##장": 2550,
      "##인": 2551,
      "##액": 2552,
      "##품": 2553,
      "##분": 2554,
      "##식": 2555,
      "##3": 2556,
      "##9": 2557,
      "##과": 2558,
      "##0": 2559,
      "##망": 2560,
      "##늑": 2561,
      "##티": 2562,
      "##킹": 2563,
      "##환": 2564,
      "##작": 2565,
      "##가": 2566,
      "##님": 2567,
      "##크": 2568,
      "##롤": 2569,
      "##션": 2570,
      "##평": 2571,
      "##파": 2572,
      "##센": 2573,
      "##H": 2574,
      "##O": 2575,
      "##W": 2576,
      "##T": 2577,
      "##I": 2578,
      "##M": 2579,
      "##E": 2580,
      "##왓": 2581,
      "##챠": 2582,
      "##확": 2583,
      "##명": 2584,
      "##임": 2585,
      "##백": 2586,
      "##십": 2587,
      "##코": 2588,
      "##찍": 2589,
      "##훈": 2590,
      "##해": 2591,
      "##병": 2592,
      "##개": 2593,
      "##배": 2594,
      "##면": 2595,
      "##터": 2596,
      "##점": 2597,
      "##방": 2598,
      "##카": 2599,
      "##메": 2600,
      "##비": 2601,
      "##플": 2602,
      "##우": 2603,
      "##렬": 2604,
      "##핀": 2605,
      "##으": 2606,
      "##잘": 2607,
      "##없": 2608,
      "##리": 2609,
      "##투": 2610,
      "##쉬": 2611,
      "##쿠": 2612,
      "##씨": 2613,
      "##며": 2614,
      "##감": 2615,
      "##한": 2616,
      "##단": 2617,
      "##J": 2618,
      "##y": 2619,
      "##g": 2620,
      "##N": 2621,
      "##Z": 2622,
      "##X": 2623,
      "##q": 2624,
      "##u": 2625,
      "##h": 2626,
      "##s": 2627,
      "##a": 2628,
      "##x": 2629,
      "##즉": 2630,
      "##렷": 2631,
      "##또": 2632,
      "##할": 2633,
      "##송": 2634,
      "##료": 2635,
      "##빡": 2636,
      "##냐": 2637,
      "##법": 2638,
      "##생": 2639,
      "##콩": 2640,
      "##째": 2641,
      "##균": 2642,
      "##8": 2643,
      "##1": 2644,
      "##행": 2645,
      "##은": 2646,
      "##천": 2647,
      "##억": 2648,
      "##원": 2649,
      "##운": 2650,
      "##통": 2651,
      "##도": 2652,
      "##커": 2653,
      "##녕": 2654,
      "##5": 2655,
      "##국": 2656,
      "##담": 2657,
      "##6": 2658,
      "##문": 2659,
      "##픽": 2660,
      "##슈": 2661,
      "##승": 2662,
      "##효": 2663,
      "##준": 2664,
      "##회": 2665,
      "##합": 2666,
      "##형": 2667,
      "##디": 2668,
      "##캠": 2669,
      "##란": 2670,
      "##콧": 2671,
      "##론": 2672,
      "##짱": 2673,
      "##포": 2674,
      "##켓": 2675,
      "##몬": 2676,
      "##m": 2677,
      "##C": 2678,
      "##p": 2679,
      "##헤": 2680,
      "##페": 2681,
      "##교": 2682,
      "##육": 2683,
      "##업": 2684,
      "##본": 2685,
      "##색": 2686,
      "##깔": 2687,
      "##밍": 2688,
      "##외": 2689,
      "##영": 2690,
      "##접": 2691,
      "##민": 2692,
      "##특": 2693,
      "##위": 2694,
      "##와": 2695,
      "##S": 2696,
      "##P": 2697,
      "##뫼": 2698,
      "##게": 2699,
      "##층": 2700,
      "##악": 2701,
      "##령": 2702,
      "##견": 2703,
      "##셨": 2704,
      "##더": 2705,
      "##니": 2706,
      "##길": 2707,
      "##치": 2708,
      "##험": 2709,
      "##입": 2710,
      "##북": 2711,
      "##금": 2712,
      "##들": 2713,
      "##목": 2714,
      "##∼": 2715,
      "##남": 2716,
      "##춘": 2717,
      "##전": 2718,
      "##강": 2719,
      "##존": 2720,
      "##것": 2721,
      "##징": 2722,
      "##워": 2723,
      "##재": 2724,
      "##렙": 2725,
      "##넬": 2726,
      "##r": 2727,
      "##z": 2728,
      "##복": 2729,
      "##협": 2730,
      "##동": 2731,
      "##조": 2732,
      "##슴": 2733,
      "##버": 2734,
      "##클": 2735,
      "##책": 2736,
      "##바": 2737,
      "##탄": 2738,
      "##공": 2739,
      "##F": 2740,
      "##판": 2741,
      "##유": 2742,
      "##선": 2743,
      "##경": 2744,
      "##제": 2745,
      "##향": 2746,
      "##년": 2747,
      "##칭": 2748,
      "##끼": 2749,
      "##홈": 2750,
      "##졸": 2751,
      "##안": 2752,
      "##요": 2753,
      "##등": 2754,
      "##A": 2755,
      "##왕": 2756,
      "##펜": 2757,
      "##박": 2758,
      "##차": 2759,
      "##결": 2760,
      "##함": 2761,
      "##두": 2762,
      "##붓": 2763,
      "##팟": 2764,
      "##켜": 2765,
      "##학": 2766,
      "##좌": 2767,
      "##내": 2768,
      "##듯": 2769,
      "##딸": 2770,
      "##설": 2771,
      "##휴": 2772,
      "##래": 2773,
      "##컴": 2774,
      "##퓨": 2775,
      "##종": 2776,
      "##간": 2777,
      "##납": 2778,
      "##저": 2779,
      "##Y": 2780,
      "##노": 2781,
      "##케": 2782,
      "##혔": 2783,
      "##때": 2784,
      "##관": 2785,
      "##초": 2786,
      "##획": 2787,
      "##편": 2788,
      "##당": 2789,
      "##려": 2790,
      "##G": 2791,
      "##럴": 2792,
      "##브": 2793,
      "##맥": 2794,
      "##쟁": 2795,
      "##적": 2796,
      "##착": 2797,
      "##취": 2798,
      "##림": 2799,
      "##K": 2800,
      "##력": 2801,
      "##였": 2802,
      "##겠": 2803,
      "##블": 2804,
      "##릿": 2805,
      "##건": 2806,
      "##달": 2807,
      "##러": 2808,
      "##반": 2809,
      "##탐": 2810,
      "##욕": 2811,
      "##움": 2812,
      "##옥": 2813,
      "##잎": 2814,
      "##퍼": 2815,
      "##휘": 2816,
      "##던": 2817,
      "##격": 2818,
      "##머": 2819,
      "##능": 2820,
      "##철": 2821,
      "##R": 2822,
      "##B": 2823,
      "##항": 2824,
      "##풍": 2825,
      "##텍": 2826,
      "##순": 2827,
      "##빈": 2828,
      "##릭": 2829,
      "##b": 2830,
      "##불": 2831,
      "##륜": 2832,
      "##셈": 2833,
      "##펌": 2834,
      "##루": 2835,
      "##쥬": 2836,
      "##오": 2837,
      "##증": 2838,
      "##폭": 2839,
      "##듬": 2840,
      "##야": 2841,
      "##칼": 2842,
      "##맨": 2843,
      "##석": 2844,
      "##된": 2845,
      "##음": 2846,
      "##U": 2847,
      "##량": 2848,
      "##잠": 2849,
      "##앞": 2850,
      "##뮤": 2851,
      "##직": 2852,
      "##족": 2853,
      "##충": 2854,
      "##념": 2855,
      "##써": 2856,
      "##짤": 2857,
      "##탈": 2858,
      "##튜": 2859,
      "##립": 2860,
      "##온": 2861,
      "##참": 2862,
      "##예": 2863,
      "##각": 2864,
      "##록": 2865,
      "##힘": 2866,
      "##절": 2867,
      "##V": 2868,
      "##태": 2869,
      "##양": 2870,
      "##광": 2871,
      "##D": 2872,
      "##매": 2873,
      "##독": 2874,
      "##집": 2875,
      "##슨": 2876,
      "##변": 2877,
      "##키": 2878,
      "##쇼": 2879,
      "##맞": 2880,
      "##춤": 2881,
      "##속": 2882,
      "##언": 2883,
      "##앉": 2884,
      "##숲": 2885,
      "##모": 2886,
      "##글": 2887,
      "##벌": 2888,
      "##람": 2889,
      "##켄": 2890,
      "##뿐": 2891,
      "##습": 2892,
      "##축": 2893,
      "##닌": 2894,
      "##희": 2895,
      "##푸": 2896,
      "##농": 2897,
      "##받": 2898,
      "##런": 2899,
      "##곳": 2900,
      "##싸": 2901,
      "##애": 2902,
      "##빌": 2903,
      "##패": 2904,
      "##름": 2905,
      "##칠": 2906,
      "##댔": 2907,
      "##규": 2908,
      "##캔": 2909,
      "##빙": 2910,
      "##락": 2911,
      "##봉": 2912,
      "##콘": 2913,
      "##텐": 2914,
      "##누": 2915,
      "##겐": 2916,
      "##약": 2917,
      "##프": 2918,
      "##L": 2919,
      "##녀": 2920,
      "##완": 2921,
      "##될": 2922,
      "##쪽": 2923,
      "##윤": 2924,
      "##례": 2925,
      "##청": 2926,
      "##긴": 2927,
      "##넷": 2928,
      "##f": 2929,
      "##젠": 2930,
      "##엔": 2931,
      "##렉": 2932,
      "##척": 2933,
      "##헥": 2934,
      "##짓": 2935,
      "##찰": 2936,
      "##열": 2937,
      "##린": 2938,
      "##팅": 2939,
      "##염": 2940,
      "##앨": 2941,
      "##즈": 2942,
      "##검": 2943,
      "##슬": 2944,
      "##줘": 2945,
      "##랄": 2946,
      "##권": 2947,
      "##월": 2948,
      "##채": 2949,
      "##묘": 2950,
      "##쌍": 2951,
      "##앙": 2952,
      "##굴": 2953,
      "##걸": 2954,
      "##측": 2955,
      "##곡": 2956,
      "##웨": 2957,
      "##얀": 2958,
      "##베": 2959,
      "##므": 2960,
      "##궁": 2961,
      "##궐": 2962,
      "##믹": 2963,
      "##톨": 2964,
      "##활": 2965,
      "##별": 2966,
      "##탁": 2967,
      "##덱": 2968,
      "##값": 2969,
      "##울": 2970,
      "##표": 2971,
      "##현": 2972,
      "##극": 2973,
      "##택": 2974,
      "##씬": 2975,
      "##푼": 2976,
      "##붙": 2977,
      "##귀": 2978,
      "##끝": 2979,
      "##딘": 2980,
      "##룩": 2981,
      "##거": 2982,
      "##혜": 2983,
      "##놓": 2984,
      "##필": 2985,
      "##느": 2986,
      "##삭": 2987,
      "##셰": 2988,
      "##빵": 2989,
      "##풋": 2990,
      "##굿": 2991,
      "##혈": 2992,
      "##렌": 2993,
      "##링": 2994,
      "##핑": 2995,
      "##황": 2996,
      "##쫄": 2997,
      "##엣": 2998,
      "##범": 2999,
      "##율": 3000,
      "##잉": 3001,
      "##밀": 3002,
      "##뜰": 3003,
      "##략": 3004,
      "##럽": 3005,
      "##닐": 3006,
      "##덴": 3007,
      "##깐": 3008,
      "##딪": 3009,
      "##침": 3010,
      "##벽": 3011,
      "##겟": 3012,
      "##추": 3013,
      "##촌": 3014,
      "##같": 3015,
      "##홍": 3016,
      "##섬": 3017,
      "##듈": 3018,
      "##뿜": 3019,
      "##든": 3020,
      "##난": 3021,
      "##봐": 3022,
      "##걱": 3023,
      "##랜": 3024,
      "##득": 3025,
      "##혁": 3026,
      "##v": 3027,
      "##틀": 3028,
      "##졌": 3029,
      "##률": 3030,
      "##흥": 3031,
      "##펀": 3032,
      "##섯": 3033,
      "##팜": 3034,
      "##셀": 3035,
      "##왔": 3036,
      "##j": 3037,
      "##살": 3038,
      "##찌": 3039,
      "##룹": 3040,
      "##른": 3041,
      "##웃": 3042,
      "##뻥": 3043,
      "##김": 3044,
      "##겼": 3045,
      "##흰": 3046,
      "##냥": 3047,
      "##맹": 3048,
      "##찬": 3049,
      "##말": 3050,
      "##몰": 3051,
      "##윌": 3052,
      "##엄": 3053,
      "##멍": 3054,
      "##련": 3055,
      "##심": 3056,
      "##퀴": 3057,
      "##닛": 3058,
      "##헌": 3059,
      "##및": 3060,
      "##갑": 3061,
      "##압": 3062,
      "##툼": 3063,
      "##았": 3064,
      "##융": 3065,
      "##팀": 3066,
      "##총": 3067,
      "##죽": 3068,
      "##폰": 3069,
      "##컨": 3070,
      "##꼬": 3071,
      "##군": 3072,
      "##랑": 3073,
      "##펼": 3074,
      "##칙": 3075,
      "##돌": 3076,
      "##렇": 3077,
      "##팁": 3078,
      "##쯤": 3079,
      "##멧": 3080,
      "##막": 3081,
      "##캡": 3082,
      "##엑": 3083,
      "##암": 3084,
      "##새": 3085,
      "##렸": 3086,
      "##켈": 3087,
      "##놨": 3088,
      "##친": 3089,
      "##늘": 3090,
      "##빛": 3091,
      "##덥": 3092,
      "##룬": 3093,
      "##손": 3094,
      "##낙": 3095,
      "##w": 3096,
      "##밖": 3097,
      "##싱": 3098,
      "##혹": 3099,
      "##객": 3100,
      "##톤": 3101,
      "##톡": 3102,
      "##쇄": 3103,
      "##숙": 3104,
      "##륙": 3105,
      "##냉": 3106,
      "##웹": 3107,
      "##킬": 3108,
      "##쳐": 3109,
      "##줄": 3110,
      "##랙": 3111,
      "##븐": 3112,
      "##궈": 3113,
      "##괴": 3114,
      "##옵": 3115,
      "##혀": 3116,
      "##뽑": 3117,
      "##챈": 3118,
      "##탱": 3119,
      "##컷": 3120,
      "##혼": 3121,
      "##닥": 3122,
      "##쿨": 3123,
      "##혐": 3124,
      "##붕": 3125,
      "##허": 3126,
      "##롱": 3127,
      "##잡": 3128,
      "##널": 3129,
      "##웠": 3130,
      "##룔": 3131,
      "##곤": 3132,
      "##킷": 3133,
      "##응": 3134,
      "##번": 3135,
      "##홀": 3136,
      "##엠": 3137,
      "##뤄": 3138,
      "##덜": 3139,
      "##죄": 3140,
      "##탭": 3141,
      "##꾼": 3142,
      "##답": 3143,
      "##쑥": 3144,
      "##논": 3145,
      "##빔": 3146,
      "##닝": 3147,
      "##츄": 3148,
      "##촉": 3149,
      "##욱": 3150,
      "##왈": 3151,
      "##엌": 3152,
      "##횡": 3153,
      "##뷔": 3154,
      "##봤": 3155,
      "##갤": 3156,
      "##괄": 3157,
      "##놈": 3158,
      "##창": 3159,
      "##셔": 3160,
      "##촬": 3161,
      "##날": 3162,
      "##짜": 3163,
      "##닷": 3164,
      "##랐": 3165,
      "##잔": 3166,
      "##뼈": 3167,
      "##깨": 3168,
      "##룡": 3169,
      "##벤": 3170,
      "##떨": 3171,
      "##펠": 3172,
      "##툴": 3173,
      "##킨": 3174,
      "##찮": 3175,
      "##골": 3176,
      "##몽": 3177,
      "##딜": 3178,
      "##후": 3179,
      "##퀘": 3180,
      "##꼴": 3181,
      "##팔": 3182,
      "##듐": 3183,
      "##덕": 3184,
      "##둥": 3185,
      "##델": 3186,
      "##밸": 3187,
      "##많": 3188,
      "##웅": 3189,
      "##뱃": 3190,
      "##윈": 3191,
      "##풀": 3192,
      "##믿": 3193,
      "##탕": 3194,
      "##솔": 3195,
      "##앰": 3196,
      "##쾌": 3197,
      "##몸": 3198,
      "##앤": 3199,
      "##끈": 3200,
      "##둑": 3201,
      "##뒤": 3202,
      "##께": 3203,
      "##짐": 3204,
      "##쿄": 3205,
      "##뱅": 3206,
      "##삼": 3207,
      "##뿌": 3208,
      "##겨": 3209,
      "##올": 3210,
      "##갈": 3211,
      "##벼": 3212,
      "##놀": 3213,
      "##콕": 3214,
      "##져": 3215,
      "##줬": 3216,
      "##럿": 3217,
      "##맵": 3218,
      "##휠": 3219,
      "##튼": 3220,
      "##욘": 3221,
      "##흔": 3222,
      "##썩": 3223,
      "##닉": 3224,
      "##텔": 3225,
      "##젼": 3226,
      "##엇": 3227,
      "##듣": 3228,
      "##뀌": 3229,
      "##섭": 3230,
      "##근": 3231,
      "##죠": 3232,
      "##헝": 3233,
      "##즌": 3234,
      "##셜": 3235,
      "##벡": 3236,
      "##흙": 3237,
      "##삽": 3238,
      "##않": 3239,
      "##눈": 3240,
      "##쫌": 3241,
      "##됩": 3242,
      "##콜": 3243,
      "##셋": 3244,
      "##탑": 3245,
      "##큼": 3246,
      "##렵": 3247,
      "##큐": 3248,
      "##따": 3249,
      "##얼": 3250,
      "##왜": 3251,
      "##곱": 3252,
      "##됨": 3253,
      "##핸": 3254,
      "##뢰": 3255,
      "##렴": 3256,
      "##텀": 3257,
      "##밴": 3258,
      "##녹": 3259,
      "##밟": 3260,
      "##늬": 3261,
      "##펙": 3262,
      "##훼": 3263,
      "##퐁": 3264,
      "##틱": 3265,
      "##됐": 3266,
      "##큰": 3267,
      "##맛": 3268,
      "##밤": 3269,
      "##칸": 3270,
      "##땐": 3271,
      "##읍": 3272,
      "##볼": 3273,
      "##멘": 3274,
      "##잖": 3275,
      "##싶": 3276,
      "##벳": 3277,
      "##흡": 3278,
      "##럭": 3279,
      "##폐": 3280,
      "##흠": 3281,
      "##턴": 3282,
      "##쳰": 3283,
      "##톰": 3284,
      "##캣": 3285,
      "##캐": 3286,
      "##힐": 3287,
      "##좀": 3288,
      "##뱀": 3289,
      "##돼": 3290,
      "##잇": 3291,
      "##칩": 3292,
      "##긋": 3293,
      "##쫑": 3294,
      "##얘": 3295,
      "##쵸": 3296,
      "##렛": 3297,
      "##켰": 3298,
      "##뜨": 3299,
      "##픈": 3300,
      "##춰": 3301,
      "##못": 3302,
      "##쎄": 3303,
      "##폴": 3304,
      "##둔": 3305,
      "##렁": 3306,
      "##헬": 3307,
      "##쁘": 3308,
      "##띠": 3309,
      "##떠": 3310,
      "##랭": 3311,
      "##낮": 3312,
      "##탬": 3313,
      "##엘": 3314,
      "##꽃": 3315,
      "##흐": 3316,
      "##봇": 3317,
      "##캘": 3318,
      "##튬": 3319,
      "##롯": 3320,
      "##첸": 3321,
      "##틴": 3322,
      "##넛": 3323,
      "##넘": 3324,
      "##뭔": 3325,
      "##벨": 3326,
      "##딩": 3327,
      "##넌": 3328,
      "##갓": 3329,
      "##쟈": 3330,
      "##큘": 3331,
      "##봄": 3332,
      "##쁜": 3333,
      "##꾀": 3334,
      "##쿤": 3335,
      "##꾸": 3336,
      "##쉐": 3337,
      "##즘": 3338,
      "##쓰": 3339,
      "##밥": 3340,
      "##뤼": 3341,
      "##뎅": 3342,
      "##멸": 3343,
      "##샘": 3344,
      "##첩": 3345,
      "##펄": 3346,
      "##놔": 3347,
      "##랩": 3348,
      "##캅": 3349,
      "##둘": 3350,
      "##팽": 3351,
      "##엽": 3352,
      "##붉": 3353,
      "##찜": 3354,
      "##먹": 3355,
      "##캇": 3356,
      "##뷰": 3357,
      "##뿔": 3358,
      "##낸": 3359,
      "##뚜": 3360,
      "##껑": 3361,
      "##랬": 3362,
      "##윳": 3363,
      "##냈": 3364,
      "##갔": 3365,
      "##떡": 3366,
      "##옹": 3367,
      "##즐": 3368,
      "##샤": 3369,
      "##읽": 3370,
      "##익": 3371,
      "##땡": 3372,
      "##톱": 3373,
      "##퀀": 3374,
      "##떼": 3375,
      "##겸": 3376,
      "##놋": 3377,
      "##Q": 3378,
      "##댄": 3379,
      "##맘": 3380,
      "##뎌": 3381,
      "##긔": 3382,
      "##팩": 3383,
      "##퇴": 3384,
      "##쨉": 3385,
      "##냄": 3386,
      "##밭": 3387,
      "##뉴": 3388,
      "##뇌": 3389,
      "##눔": 3390,
      "##램": 3391,
      "##귤": 3392,
      "##냅": 3393,
      "##밋": 3394,
      "##밑": 3395,
      "##끔": 3396,
      "##닦": 3397,
      "##넣": 3398,
      "##벗": 3399,
      "##늄": 3400,
      "##칫": 3401,
      "##돈": 3402,
      "##빼": 3403,
      "##앗": 3404,
      "##흑": 3405,
      "##켐": 3406,
      "##랫": 3407,
      "##폼": 3408,
      "##팝": 3409,
      "##롭": 3410,
      "##룸": 3411,
      "##씌": 3412,
      "##덤": 3413,
      "##좋": 3414,
      "##릉": 3415,
      "##옷": 3416,
      "##랴": 3417,
      "##씩": 3418,
      "##슷": 3419,
      "##쥐": 3420,
      "##꺼": 3421,
      "##삿": 3422,
      "##띨": 3423,
      "##턱": 3424,
      "##힌": 3425,
      "##렝": 3426,
      "##빠": 3427,
      "##륨": 3428,
      "##곰": 3429,
      "##샨": 3430,
      "##닭": 3431,
      "##렘": 3432,
      "##컵": 3433,
      "##멜": 3434,
      "##믄": 3435,
      "##팰": 3436,
      "##멥": 3437,
      "##샵": 3438,
      "##갖": 3439,
      "##팡": 3440,
      "##돔": 3441,
      "##낌": 3442,
      "##콤": 3443,
      "##뚝": 3444,
      "##륵": 3445,
      "##댓": 3446,
      "##덩": 3447,
      "##숭": 3448,
      "##낼": 3449,
      "##넥": 3450,
      "##끄": 3451,
      "##랍": 3452,
      "##챘": 3453,
      "##윅": 3454,
      "##뻗": 3455,
      "##촨": 3456,
      "##툰": 3457,
      "##꽂": 3458,
      "##컬": 3459,
      "##껏": 3460,
      "##젝": 3461,
      "##뀨": 3462,
      "##빅": 3463,
      "##뭄": 3464,
      "##흘": 3465,
      "##웰": 3466,
      "##꼼": 3467,
      "##짝": 3468,
      "##끗": 3469,
      "##샷": 3470,
      "##렐": 3471,
      "##얗": 3472,
      "##팬": 3473,
      "##났": 3474,
      "##딱": 3475,
      "##꿨": 3476,
      "##깁": 3477,
      "##첫": 3478,
      "##벅": 3479,
      "##겅": 3480,
      "##뮬": 3481,
      "##찔": 3482,
      "##젤": 3483,
      "##맴": 3484,
      "##놉": 3485,
      "##눠": 3486,
      "##삘": 3487,
      "##킴": 3488,
      "##겔": 3489,
      "##덮": 3490,
      "##몇": 3491,
      "##됴": 3492,
      "##옌": 3493,
      "##첨": 3494,
      "##귄": 3495,
      "##킁": 3496,
      "##뭐": 3497,
      "##볏": 3498,
      "##땅": 3499,
      "##멱": 3500,
      "##렀": 3501,
      "##찾": 3502,
      "##숴": 3503,
      "##헨": 3504,
      "##뵤": 3505,
      "##싹": 3506,
      "##킥": 3507,
      "##룻": 3508,
      "##캉": 3509,
      "##딕": 3510,
      "##벙": 3511,
      "##닫": 3512,
      "##잃": 3513,
      "##꼭": 3514,
      "##숩": 3515,
      "##틈": 3516,
      "##챔": 3517,
      "##닿": 3518,
      "##셍": 3519,
      "##엉": 3520,
      "##찐": 3521,
      "##눅": 3522,
      "##펑": 3523,
      "##슘": 3524,
      "##뒀": 3525,
      "##잣": 3526,
      "##댐": 3527,
      "##흉": 3528,
      "##쇠": 3529,
      "##숍": 3530,
      "##둠": 3531,
      "##듦": 3532,
      "##깽": 3533,
      "##롄": 3534,
      "##뎀": 3535,
      "##맷": 3536,
      "##텝": 3537,
      "##딧": 3538,
      "##끌": 3539,
      "##뻬": 3540,
      "##셸": 3541,
      "##높": 3542,
      "##옻": 3543,
      "##몹": 3544,
      "##륭": 3545,
      "##넉": 3546,
      "##쨩": 3547,
      "##땀": 3548,
      "##뻣": 3549,
      "##젬": 3550,
      "##퓌": 3551,
      "##괜": 3552,
      "##쫓": 3553,
      "##뽈": 3554,
      "##엿": 3555,
      "##꿀": 3556,
      "##숫": 3557,
      "##돐": 3558,
      "##횟": 3559,
      "##깅": 3560,
      "##겁": 3561,
      "##숨": 3562,
      "##뜩": 3563,
      "##쌓": 3564,
      "##긍": 3565,
      "##퀼": 3566,
      "##씽": 3567,
      "##줌": 3568,
      "##랏": 3569,
      "##깥": 3570,
      "##껄": 3571,
      "##둡": 3572,
      "##쉼": 3573,
      "##봅": 3574,
      "##헐": 3575,
      "##뎡": 3576,
      "##잼": 3577,
      "##솥": 3578,
      "##듀": 3579,
      "##멋": 3580,
      "##뜸": 3581,
      "##멀": 3582,
      "##섹": 3583,
      "##낭": 3584,
      "##멤": 3585,
      "##뜯": 3586,
      "##롬": 3587,
      "##쎈": 3588,
      "##젊": 3589,
      "##뭉": 3590,
      "##큔": 3591,
      "##쑤": 3592,
      "##갱": 3593,
      "##궤": 3594,
      "##겻": 3595,
      "##햄": 3596,
      "##펭": 3597,
      "##룽": 3598,
      "##촛": 3599,
      "##떤": 3600,
      "##잤": 3601,
      "##윽": 3602,
      "##댁": 3603,
      "##셧": 3604,
      "##낍": 3605,
      "##볕": 3606,
      "##믈": 3607,
      "##뎨": 3608,
      "##슛": 3609,
      "##쩌": 3610,
      "##쑹": 3611,
      "##텁": 3612,
      "##랗": 3613,
      "##벚": 3614,
      "##쁨": 3615,
      "##싼": 3616,
      "##웁": 3617,
      "##쌀": 3618,
      "##씰": 3619,
      "##땜": 3620,
      "##괭": 3621,
      "##쳤": 3622,
      "##뙈": 3623,
      "##뻤": 3624,
      "##쓴": 3625,
      "##홉": 3626,
      "##햇": 3627,
      "##쉽": 3628,
      "##볶": 3629,
      "##듭": 3630,
      "##씀": 3631,
      "##갸": 3632,
      "##헴": 3633,
      "##묵": 3634,
      "##탠": 3635,
      "##곁": 3636,
      "##꿈": 3637,
      "##썸": 3638,
      "##곽": 3639,
      "##빨": 3640,
      "##츨": 3641,
      "##쪼": 3642,
      "##젱": 3643,
      "##췄": 3644,
      "##떻": 3645,
      "##옐": 3646,
      "##갭": 3647,
      "##팍": 3648,
      "##셉": 3649,
      "##슐": 3650,
      "##쩡": 3651,
      "##묻": 3652,
      "##윕": 3653,
      "##깊": 3654,
      "##셴": 3655,
      "##틔": 3656,
      "##튤": 3657,
      "##썹": 3658,
      "##샌": 3659,
      "##갹": 3660,
      "##쉴": 3661,
      "##짬": 3662,
      "##뽕": 3663,
      "##쿡": 3664,
      "##쉘": 3665,
      "##삐": 3666,
      "##삶": 3667,
      "##쩐": 3668,
      "##컫": 3669,
      "##폿": 3670,
      "##녔": 3671,
      "##푀": 3672,
      "##뉘": 3673,
      "##헉": 3674,
      "##잭": 3675,
      "##옛": 3676,
      "##쉰": 3677,
      "##켠": 3678,
      "##꿔": 3679,
      "##닮": 3680,
      "##낚": 3681,
      "##깝": 3682,
      "##뷸": 3683,
      "##뺀": 3684,
      "##뚱": 3685,
      "##탯": 3686,
      "##깃": 3687,
      "##끽": 3688,
      "##쿵": 3689,
      "##굽": 3690,
      "##핫": 3691,
      "##잊": 3692,
      "##섞": 3693,
      "##댕": 3694,
      "##콥": 3695,
      "##랠": 3696,
      "##츈": 3697,
      "##즛": 3698,
      "##웍": 3699,
      "##뇨": 3700,
      "##펴": 3701,
      "##먀": 3702,
      "##꽈": 3703,
      "##햅": 3704,
      "##싫": 3705,
      "##밧": 3706,
      "##썬": 3707,
      "##챙": 3708,
      "##쥴": 3709,
      "##릇": 3710,
      "##힉": 3711,
      "##딨": 3712,
      "##힙": 3713,
      "##뷜": 3714,
      "##굵": 3715,
      "##줍": 3716,
      "##윗": 3717,
      "##튀": 3718,
      "##젓": 3719,
      "##죤": 3720,
      "##샬": 3721,
      "##왑": 3722,
      "##읊": 3723,
      "##쩨": 3724,
      "##똘": 3725,
      "##껴": 3726,
      "##텅": 3727,
      "##쏘": 3728,
      "##눌": 3729,
      "##룰": 3730,
      "##옮": 3731,
      "##굳": 3732,
      "##옆": 3733,
      "##얽": 3734,
      "##뻐": 3735,
      "##켤": 3736,
      "##췌": 3737,
      "##뜬": 3738,
      "##힛": 3739,
      "##쟀": 3740,
      "##릅": 3741,
      "##뜻": 3742,
      "##싯": 3743,
      "##쨍": 3744,
      "##쿼": 3745,
      "##얻": 3746,
      "##삯": 3747,
      "##헙": 3748,
      "##홋": 3749,
      "##쯔": 3750,
      "##뻔": 3751,
      "##뱌": 3752,
      "##윙": 3753,
      "##탓": 3754,
      "##녁": 3755,
      "##젯": 3756,
      "##갚": 3757,
      "##쓸": 3758,
      "##녜": 3759,
      "##콰": 3760,
      "##톈": 3761,
      "##떳": 3762,
      "##짙": 3763,
      "##뇽": 3764,
      "##횐": 3765,
      "##넨": 3766,
      "##똥": 3767,
      "##깎": 3768,
      "##씸": 3769,
      "##큭": 3770,
      "##헛": 3771,
      "##꽤": 3772,
      "##뛰": 3773,
      "##즙": 3774,
      "##쩍": 3775,
      "##궂": 3776,
      "##곧": 3777,
      "##탤": 3778,
      "##뎁": 3779,
      "##겄": 3780,
      "##첼": 3781,
      "##욧": 3782,
      "##닢": 3783,
      "##쌈": 3784,
      "##찼": 3785,
      "##깡": 3786,
      "##릎": 3787,
      "##펫": 3788,
      "##겹": 3789,
      "##픕": 3790,
      "##솜": 3791,
      "##슥": 3792,
      "##몃": 3793,
      "##굼": 3794,
      "##랸": 3795,
      "##잽": 3796,
      "##멕": 3797,
      "##끊": 3798,
      "##귓": 3799,
      "##꽝": 3800,
      "##쌉": 3801,
      "##쩔": 3802,
      "##왁": 3803,
      "##샹": 3804,
      "##똑": 3805,
      "##휨": 3806,
      "##챕": 3807,
      "##챌": 3808,
      "##눙": 3809,
      "##짠": 3810,
      "##훗": 3811,
      "##앱": 3812,
      "##핍": 3813,
      "##냑": 3814,
      "##쨌": 3815,
      "##딤": 3816,
      "##쭤": 3817,
      "##퉁": 3818,
      "##툽": 3819,
      "##닙": 3820,
      "##쌩": 3821,
      "##튠": 3822,
      "##뎃": 3823,
      "##섀": 3824,
      "##깜": 3825,
      "##껍": 3826,
      "##켁": 3827,
      "##겉": 3828,
      "##쭉": 3829,
      "##둬": 3830,
      "##묶": 3831,
      "##옴": 3832,
      "##솟": 3833,
      "##퀸": 3834,
      "##녘": 3835,
      "##딥": 3836,
      "##걀": 3837,
      "##걍": 3838,
      "##돤": 3839,
      "##챤": 3840,
      "##앵": 3841,
      "##맡": 3842,
      "##껀": 3843,
      "##낀": 3844,
      "##밝": 3845,
      "##돗": 3846,
      "##맏": 3847,
      "##숀": 3848,
      "##깍": 3849,
      "##곶": 3850,
      "##웜": 3851,
      "##늦": 3852,
      "##섰": 3853,
      "##꼿": 3854,
      "##쳔": 3855,
      "##얄": 3856,
      "##닯": 3857,
      "##엎": 3858,
      "##횬": 3859,
      "##캬": 3860,
      "##륄": 3861,
      "##샴": 3862,
      "##댈": 3863,
      "##뎬": 3864,
      "##넹": 3865,
      "##힝": 3866,
      "##묜": 3867,
      "##썰": 3868,
      "##랖": 3869,
      "##빗": 3870,
      "##뎠": 3871,
      "##끎": 3872,
      "##샀": 3873,
      "##뫄": 3874,
      "##뿡": 3875,
      "##줴": 3876,
      "##슭": 3877,
      "##쏟": 3878,
      "##낵": 3879,
      "##훠": 3880,
      "##걷": 3881,
      "##뱁": 3882,
      "##텟": 3883,
      "##팥": 3884,
      "##츤": 3885,
      "##빚": 3886,
      "##웬": 3887,
      "##멩": 3888,
      "##흣": 3889,
      "##슝": 3890,
      "##숏": 3891,
      "##켑": 3892,
      "##퍽": 3893,
      "##쭘": 3894,
      "##괘": 3895,
      "##얏": 3896,
      "##좆": 3897,
      "##덟": 3898,
      "##캄": 3899,
      "##퓰": 3900,
      "##찻": 3901,
      "##펍": 3902,
      "##딴": 3903,
      "##콸": 3904,
      "##퀄": 3905,
      "##컹": 3906,
      "##멈": 3907,
      "##끓": 3908,
      "##냘": 3909,
      "##댜": 3910,
      "##밉": 3911,
      "##퉜": 3912,
      "##푯": 3913,
      "##궉": 3914,
      "##낫": 3915,
      "##곈": 3916,
      "##큠": 3917,
      "##뱉": 3918,
      "##덧": 3919,
      "##넓": 3920,
      "##곪": 3921,
      "##쌘": 3922,
      "##뭇": 3923,
      "##뀐": 3924,
      "##뚤": 3925,
      "##쭐": 3926,
      "##갯": 3927,
      "##톳": 3928,
      "##륀": 3929,
      "##귐": 3930,
      "##꼇": 3931,
      "##햐": 3932,
      "##픔": 3933,
      "##뺐": 3934,
      "##꾹": 3935,
      "##펨": 3936,
      "##낡": 3937,
      "##굉": 3938,
      "##쭝": 3939,
      "##찹": 3940,
      "##킵": 3941,
      "##꼰": 3942,
      "##핏": 3943,
      "##섕": 3944,
      "##쳇": 3945,
      "##눕": 3946,
      "##훌": 3947,
      "##돕": 3948,
      "##뎐": 3949,
      "##꼈": 3950,
      "##짖": 3951,
      "##졍": 3952,
      "##눗": 3953,
      "##춧": 3954,
      "##싻": 3955,
      "##짭": 3956,
      "##밌": 3957,
      "##맑": 3958,
      "##얌": 3959,
      "##쉈": 3960,
      "##뽀": 3961,
      "##옇": 3962,
      "##엥": 3963,
      "##띄": 3964,
      "##켱": 3965,
      "##끅": 3966,
      "##짚": 3967,
      "##뻑": 3968,
      "##슉": 3969,
      "##팸": 3970,
      "##훤": 3971,
      "##젖": 3972,
      "##꺽": 3973,
      "##샐": 3974,
      "##틋": 3975,
      "##넴": 3976,
      "##앓": 3977,
      "##왼": 3978,
      "##얇": 3979,
      "##뮌": 3980,
      "##쌔": 3981,
      "##쭈": 3982,
      "##썼": 3983,
      "##꿍": 3984,
      "##붐": 3985,
      "##띵": 3986,
      "##뮐": 3987,
      "##뀝": 3988,
      "##돋": 3989,
      "##겡": 3990,
      "##겜": 3991,
      "##룐": 3992,
      "##걘": 3993,
      "##넝": 3994,
      "##똬": 3995,
      "##댑": 3996,
      "##뮴": 3997,
      "##쾨": 3998,
      "##뚫": 3999,
      "##뵈": 4000,
      "##쥔": 4001,
      "##늪": 4002,
      "##휼": 4003,
      "##쳄": 4004,
      "##꿉": 4005,
      "##갇": 4006,
      "##욤": 4007,
      "##볍": 4008,
      "##듸": 4009,
      "##칵": 4010,
      "##첵": 4011,
      "##왠": 4012,
      "##펩": 4013,
      "##늙": 4014,
      "##욜": 4015,
      "##텨": 4016,
      "##꿇": 4017,
      "##뿟": 4018,
      "##폈": 4019,
      "##줏": 4020,
      "##팻": 4021,
      "##뿅": 4022,
      "##핥": 4023,
      "##옘": 4024,
      "##컥": 4025,
      "##씻": 4026,
      "##짹": 4027,
      "##녈": 4028,
      "##죈": 4029,
      "##뇰": 4030,
      "##쌤": 4031,
      "##쮸": 4032,
      "##끙": 4033,
      "##뗀": 4034,
      "##쟝": 4035,
      "##넙": 4036,
      "##쳉": 4037,
      "##훙": 4038,
      "##쑨": 4039,
      "##쨔": 4040,
      "##숑": 4041,
      "##꽁": 4042,
      "##띳": 4043,
      "##짇": 4044,
      "##헷": 4045,
      "##뺨": 4046,
      "##폽": 4047,
      "##뤘": 4048,
      "##쒸": 4049,
      "##읏": 4050,
      "##뾰": 4051,
      "##훅": 4052,
      "##휀": 4053,
      "##쏜": 4054,
      "##쪄": 4055,
      "##헵": 4056,
      "##훨": 4057,
      "##숯": 4058,
      "##딛": 4059,
      "##붸": 4060,
      "##쿰": 4061,
      "##돛": 4062,
      "##땃": 4063,
      "##껨": 4064,
      "##낳": 4065,
      "##춥": 4066,
      "##풉": 4067,
      "##찡": 4068,
      "##씹": 4069,
      "##윔": 4070,
      "##뗄": 4071,
      "##귈": 4072,
      "##웡": 4073,
      "##뒷": 4074,
      "##맙": 4075,
      "##탸": 4076,
      "##낑": 4077,
      "##뉼": 4078,
      "##쐰": 4079,
      "##썽": 4080,
      "##몫": 4081,
      "##긁": 4082,
      "##풂": 4083,
      "##둣": 4084,
      "##좡": 4085,
      "##낏": 4086,
      "##텃": 4087,
      "##셩": 4088,
      "##겊": 4089,
      "##찧": 4090,
      "##뇬": 4091,
      "##팎": 4092,
      "##밈": 4093,
      "##쩝": 4094,
      "##땟": 4095,
      "##쏙": 4096,
      "##짢": 4097,
      "##꼐": 4098,
      "##쏭": 4099,
      "##쭙": 4100,
      "##룟": 4101,
      "##냔": 4102,
      "##튕": 4103,
      "##얹": 4104,
      "##궜": 4105,
      "##붑": 4106,
      "##쨋": 4107,
      "##쐐": 4108,
      "##욥": 4109,
      "##벰": 4110,
      "##븀": 4111,
      "##빤": 4112,
      "##낱": 4113,
      "##잦": 4114,
      "##췻": 4115,
      "##묠": 4116,
      "##훔": 4117,
      "##샛": 4118,
      "##퉈": 4119,
      "##콴": 4120,
      "##엡": 4121,
      "##떴": 4122,
      "##탉": 4123,
      "##씁": 4124,
      "##짧": 4125,
      "##팹": 4126,
      "##돠": 4127,
      "##푹": 4128,
      "##썅": 4129,
      "##뱐": 4130,
      "##넋": 4131,
      "##샥": 4132,
      "##깼": 4133,
      "##쁑": 4134,
      "##횅": 4135,
      "##웩": 4136,
      "##펐": 4137,
      "##쓩": 4138,
      "##괵": 4139,
      "##늠": 4140,
      "##꼽": 4141,
      "##쉿": 4142,
      "##겪": 4143,
      "##쾀": 4144,
      "##뭘": 4145,
      "##쟎": 4146,
      "##헹": 4147,
      "##쿱": 4148,
      "##쥰": 4149,
      "##좁": 4150,
      "##졔": 4151,
      "##뤽": 4152,
      "##횃": 4153,
      "##옙": 4154,
      "##쑈": 4155,
      "##켯": 4156,
      "##횔": 4157,
      "##뒨": 4158,
      "##뀔": 4159,
      "##뻘": 4160,
      "##갰": 4161,
      "##핌": 4162,
      "##옅": 4163,
      "##췐": 4164,
      "##큅": 4165,
      "##팠": 4166,
      "##컸": 4167,
      "##탔": 4168,
      "##늉": 4169,
      "##뛸": 4170,
      "##갠": 4171,
      "##앍": 4172,
      "##꿰": 4173,
      "##퀵": 4174,
      "##튿": 4175,
      "##냠": 4176,
      "##됫": 4177,
      "##껌": 4178,
      "##툭": 4179,
      "##삥": 4180,
      "##땔": 4181,
      "##휩": 4182,
      "##읜": 4183,
      "##걔": 4184,
      "##뺏": 4185,
      "##쾅": 4186,
      "##뚬": 4187,
      "##쩜": 4188,
      "##숄": 4189,
      "##엊": 4190,
      "##봔": 4191,
      "##옳": 4192,
      "##몄": 4193,
      "##쿳": 4194,
      "##챗": 4195,
      "##섣": 4196,
      "##껜": 4197,
      "##빻": 4198,
      "##탰": 4199,
      "##걋": 4200,
      "##쏠": 4201,
      "##롸": 4202,
      "##욀": 4203,
      "##캤": 4204,
      "##겯": 4205,
      "##닺": 4206,
      "##쟌": 4207,
      "##뵐": 4208,
      "##빴": 4209,
      "##왱": 4210,
      "##굶": 4211,
      "##뗌": 4212,
      "##갗": 4213,
      "##폄": 4214,
      "##꽥": 4215,
      "##삔": 4216,
      "##갬": 4217,
      "##웽": 4218,
      "##짊": 4219,
      "##찢": 4220,
      "##뿍": 4221,
      "##긱": 4222,
      "##맬": 4223,
      "##냇": 4224,
      "##볐": 4225,
      "##췬": 4226,
      "##꿩": 4227,
      "##텼": 4228,
      "##꺾": 4229,
      "##툐": 4230,
      "##흗": 4231,
      "##쁠": 4232,
      "##낯": 4233,
      "##벧": 4234,
      "##뵙": 4235,
      "##촹": 4236,
      "##얍": 4237,
      "##깬": 4238,
      "##퐝": 4239,
      "##튄": 4240,
      "##뛴": 4241,
      "##짼": 4242,
      "##쌌": 4243,
      "##곗": 4244,
      "##휄": 4245,
      "##럇": 4246,
      "##맣": 4247,
      "##돝": 4248,
      "##쵠": 4249,
      "##퐈": 4250,
      "##넸": 4251,
      "##늅": 4252,
      "##띤": 4253,
      "##캥": 4254,
      "##뽄": 4255,
      "##깩": 4256,
      "##짯": 4257,
      "##뉜": 4258,
      "##쒀": 4259,
      "##뮈": 4260,
      "##텡": 4261,
      "##먕": 4262,
      "##낄": 4263,
      "##셌": 4264,
      "##읠": 4265,
      "##챵": 4266,
      "##멨": 4267,
      "##굘": 4268,
      "##셤": 4269,
      "##젭": 4270,
      "##뒹": 4271,
      "##펏": 4272,
      "##윰": 4273,
      "##흄": 4274,
      "##쯧": 4275,
      "##촘": 4276,
      "##솨": 4277,
      "##빽": 4278,
      "##갉": 4279,
      "##쫀": 4280,
      "##엾": 4281,
      "##넵": 4282,
      "##앴": 4283,
      "##켭": 4284,
      "##쾰": 4285,
      "##뼘": 4286,
      "##띰": 4287,
      "##벵": 4288,
      "##놜": 4289,
      "##뮨": 4290,
      "##쭸": 4291,
      "##쇽": 4292,
      "##홰": 4293,
      "##묀": 4294,
      "##뙤": 4295,
      "##돨": 4296,
      "##맺": 4297,
      "##뷴": 4298,
      "##덫": 4299,
      "##맸": 4300,
      "##붇": 4301,
      "##쓱": 4302,
      "##땁": 4303,
      "##잴": 4304,
      "##잿": 4305,
      "##숟": 4306,
      "##귿": 4307,
      "##낢": 4308,
      "##믐": 4309,
      "##샙": 4310,
      "##퍄": 4311,
      "##엮": 4312,
      "##떽": 4313,
      "##촐": 4314,
      "##땍": 4315,
      "##뺄": 4316,
      "##쉔": 4317,
      "##핼": 4318,
      "##띔": 4319,
      "##튁": 4320,
      "##츙": 4321,
      "##얕": 4322,
      "##갛": 4323,
      "##웸": 4324,
      "##닳": 4325,
      "##앝": 4326,
      "##롼": 4327,
      "##츳": 4328,
      "##쥘": 4329,
      "##땠": 4330,
      "##횹": 4331,
      "##괸": 4332,
      "##솽": 4333,
      "##죵": 4334,
      "##뺑": 4335,
      "##꺄": 4336,
      "##혓": 4337,
      "##뀜": 4338,
      "##챰": 4339,
      "##뼛": 4340,
      "##쀼": 4341,
      "##삡": 4342,
      "##읨": 4343,
      "##욋": 4344,
      "##삑": 4345,
      "##츰": 4346,
      "##쟤": 4347,
      "##잰": 4348,
      "##휙": 4349,
      "##뤠": 4350,
      "##츌": 4351,
      "##륌": 4352,
      "##웝": 4353,
      "##쭌": 4354,
      "##팼": 4355,
      "##닻": 4356,
      "##눴": 4357,
      "##캑": 4358,
      "##넜": 4359,
      "##룅": 4360,
      "##뺌": 4361,
      "##믓": 4362,
      "##툿": 4363,
      "##굣": 4364,
      "##솝": 4365,
      "##떰": 4366,
      "##빰": 4367,
      "##깟": 4368,
      "##졈": 4369,
      "##꽹": 4370,
      "##뽐": 4371,
      "##앳": 4372,
      "##빕": 4373,
      "##쎌": 4374,
      "##쫏": 4375,
      "##볜": 4376,
      "##뭍": 4377,
      "##촤": 4378,
      "##쬐": 4379,
      "##찝": 4380,
      "##깻": 4381,
      "##꾜": 4382,
      "##쉑": 4383,
      "##쨈": 4384,
      "##좃": 4385,
      "##쐬": 4386,
      "##죌": 4387,
      "##졀": 4388,
      "##묏": 4389,
      "##녑": 4390,
      "##챦": 4391,
      "##겋": 4392,
      "##샜": 4393,
      "##텄": 4394,
      "##껫": 4395,
      "##왐": 4396,
      "##왬": 4397,
      "##괌": 4398,
      "##윷": 4399,
      "##쐈": 4400,
      "##퇘": 4401,
      "##꽉": 4402,
      "##뚠": 4403,
      "##췰": 4404,
      "##퓻": 4405,
      "##쏨": 4406,
      "##쾡": 4407,
      "##죙": 4408,
      "##빱": 4409,
      "##텬": 4410,
      "##좇": 4411,
      "##굔": 4412,
      "##쏴": 4413,
      "##얜": 4414,
      "##읕": 4415,
      "##끕": 4416,
      "##뭬": 4417,
      "##퍅": 4418,
      "##죡": 4419,
      "##묄": 4420,
      "##옭": 4421,
      "##쯩": 4422,
      "##쟉": 4423,
      "##쫘": 4424,
      "##빳": 4425,
      "##팃": 4426,
      "##늣": 4427,
      "##퓸": 4428,
      "##떵": 4429,
      "##촙": 4430,
      "##볘": 4431,
      "##콱": 4432,
      "##틂": 4433,
      "##똔": 4434,
      "##늴": 4435,
      "##톼": 4436,
      "##졉": 4437,
      "##숱": 4438,
      "##읓": 4439,
      "##뼉": 4440,
      "##땄": 4441,
      "##룀": 4442,
      "##휜": 4443,
      "##쫙": 4444,
      "##흩": 4445,
      "##셥": 4446,
      "##싣": 4447,
      "##훑": 4448,
      "##셕": 4449,
      "##홧": 4450,
      "##챨": 4451,
      "##잗": 4452,
      "##묫": 4453,
      "##붜": 4454,
      "##쁩": 4455,
      "##땝": 4456,
      "##뭡": 4457,
      "##깰": 4458,
      "##뷕": 4459,
      "##듄": 4460,
      "##껭": 4461,
      "##뼁": 4462,
      "##퓐": 4463,
      "##뒈": 4464,
      "##븍": 4465,
      "##깠": 4466,
      "##귁": 4467,
      "##롓": 4468,
      "##홑": 4469,
      "##읗": 4470,
      "##뗏": 4471,
      "##삳": 4472,
      "##왝": 4473,
      "##삣": 4474,
      "##쇳": 4475,
      "##껼": 4476,
      "##눋": 4477,
      "##듕": 4478,
      "##쑴": 4479,
      "##꿎": 4480,
      "##뷘": 4481,
      "##샅": 4482,
      "##껐": 4483,
      "##뇜": 4484,
      "##솎": 4485,
      "##뵨": 4486,
      "##녠": 4487,
      "##뺘": 4488,
      "##첬": 4489,
      "##섶": 4490,
      "##큄": 4491,
      "##섐": 4492,
      "##좍": 4493,
      "##룁": 4494,
      "##쉠": 4495,
      "##퉤": 4496,
      "##쳬": 4497,
      "##늰": 4498,
      "##씜": 4499,
      "##뢴": 4500,
      "##랒": 4501,
      "##륫": 4502,
      "##쨀": 4503,
      "##릍": 4504,
      "##쉥": 4505,
      "##떫": 4506,
      "##먈": 4507,
      "##큇": 4508,
      "##퓔": 4509,
      "##롑": 4510,
      "##덞": 4511,
      "##칡": 4512,
      "##묽": 4513,
      "##왯": 4514,
      "##츔": 4515,
      "##춈": 4516,
      "##칟": 4517,
      "##쨘": 4518,
      "##쑬": 4519,
      "##솬": 4520,
      "##껸": 4521,
      "##뭅": 4522,
      "##짰": 4523,
      "##솅": 4524,
      "##갼": 4525,
      "##좨": 4526,
      "##봬": 4527,
      "##횰": 4528,
      "##쳅": 4529,
      "##꿋": 4530,
      "##겝": 4531,
      "##븜": 4532,
      "##뜀": 4533,
      "##슁": 4534,
      "##곯": 4535,
      "##톄": 4536,
      "##옜": 4537,
      "##솰": 4538,
      "##튐": 4539,
      "##큽": 4540,
      "##뗑": 4541,
      "##몌": 4542,
      "##휑": 4543,
      "##귑": 4544,
      "##묾": 4545,
      "##괏": 4546,
      "##뵌": 4547,
      "##꽐": 4548,
      "##곬": 4549,
      "##켕": 4550,
      "##뜹": 4551,
      "##섦": 4552,
      "##튈": 4553,
      "##줆": 4554,
      "##뗐": 4555,
      "##푠": 4556,
      "##푤": 4557,
      "##룝": 4558,
      "##괍": 4559,
      "##솩": 4560,
      "##쟐": 4561,
      "##멎": 4562,
      "##눼": 4563,
      "##읫": 4564,
      "##섈": 4565,
      "##륩": 4566,
      "##쪘": 4567,
      "##툇": 4568,
      "##왹": 4569,
      "##욺": 4570,
      "##뗍": 4571,
      "##읖": 4572,
      "##낟": 4573,
      "##쥼": 4574,
      "##떱": 4575,
      "##쌕": 4576,
      "##컁": 4577,
      "##췸": 4578,
      "##멓": 4579,
      "##씐": 4580,
      "##쥠": 4581,
      "##읒": 4582,
      "##혠": 4583,
      "##쒜": 4584,
      "##엷": 4585,
      "##쇤": 4586,
      "##궝": 4587,
      "##륏": 4588,
      "##뽁": 4589,
      "##벱": 4590,
      "##꼍": 4591,
      "##좝": 4592,
      "##켸": 4593,
      "##퇀": 4594,
      "##곌": 4595,
      "##욹": 4596,
      "##틉": 4597,
      "##땋": 4598,
      "##륑": 4599,
      "##횝": 4600,
      "##팖": 4601,
      "##깸": 4602,
      "##횻": 4603,
      "##퀑": 4604,
      "##쉭": 4605,
      "##굡": 4606,
      "##쩽": 4607,
      "##뭣": 4608,
      "##픗": 4609,
      "##뒬": 4610,
      "##뉨": 4611,
      "##퀭": 4612,
      "##큉": 4613,
      "##뢸": 4614,
      "##쬠": 4615,
      "##깹": 4616,
      "##꺅": 4617,
      "##뇻": 4618,
      "##덖": 4619,
      "##쥑": 4620,
      "##삵": 4621,
      "##띱": 4622,
      "##죔": 4623,
      "##휵": 4624,
      "##캭": 4625,
      "##쩠": 4626,
      "##폘": 4627,
      "##뉩": 4628,
      "##휸": 4629,
      "##뗘": 4630,
      "##좔": 4631,
      "##쥡": 4632,
      "##뫙": 4633,
      "##뇩": 4634,
      "##먁": 4635,
      "##뉵": 4636,
      "##툉": 4637,
      "##폅": 4638,
      "##븅": 4639,
      "##흽": 4640,
      "##쫍": 4641,
      "##넒": 4642,
      "##뢍": 4643,
      "##멂": 4644,
      "##뛔": 4645,
      "##겆": 4646,
      "##퇸": 4647,
      "##뵉": 4648,
      "##섧": 4649,
      "##쬘": 4650,
      "##홴": 4651,
      "##풔": 4652,
      "##뵀": 4653,
      "##굇": 4654,
      "##윱": 4655,
      "##턍": 4656,
      "##쫴": 4657,
      "##틜": 4658,
      "##켬": 4659,
      "##푭": 4660,
      "##읔": 4661,
      "##쇱": 4662,
      "##룃": 4663,
      "##굻": 4664,
      "##꾐": 4665,
      "##븝": 4666,
      "##꺌": 4667,
      "##꿸": 4668,
      "##뇐": 4669,
      "##벋": 4670,
      "##톺": 4671,
      "##뼝": 4672,
      "##쏩": 4673,
      "##뭏": 4674,
      "##굄": 4675,
      "##섟": 4676,
      "##앎": 4677,
      "##긷": 4678,
      "##띈": 4679,
      "##혤": 4680,
      "##밞": 4681,
      "##흴": 4682,
      "##휭": 4683,
      "##퓬": 4684,
      "##뇔": 4685,
      "##븃": 4686,
      "##닸": 4687,
      "##멉": 4688,
      "##흇": 4689,
      "##줅": 4690,
      "##뎔": 4691,
      "##놘": 4692,
      "##쑵": 4693,
      "##숌": 4694,
      "##괠": 4695,
      "##쌨": 4696,
      "##궷": 4697,
      "##튱": 4698,
      "##뜁": 4699,
      "##곕": 4700,
      "##묑": 4701,
      "##뱝": 4702,
      "##뉠": 4703,
      "##죗": 4704,
      "##븟": 4705,
      "##깆": 4706,
      "##쮜": 4707,
      "##뱄": 4708,
      "##쭁": 4709,
      "##뒝": 4710,
      "##쵤": 4711,
      "##좼": 4712,
      "##쩟": 4713,
      "##쥣": 4714,
      "##늡": 4715,
      "##뵘": 4716,
      "##쒔": 4717,
      "##밗": 4718,
      "##츱": 4719,
      "##쟘": 4720,
      "##얩": 4721,
      "##욍": 4722,
      "##쬔": 4723,
      "##괼": 4724,
      "##삠": 4725,
      "##풩": 4726,
      "##퓜": 4727,
      "##퓟": 4728,
      "##퓽": 4729,
      "##릊": 4730,
      "##푿": 4731,
      "##쇨": 4732,
      "##껙": 4733,
      "##섄": 4734,
      "##쏀": 4735,
      "##뺍": 4736,
      "##뎄": 4737,
      "##휫": 4738,
      "##굅": 4739,
      "##몲": 4740,
      "##꾕": 4741,
      "##밂": 4742,
      "##뢨": 4743,
      "##돎": 4744,
      "##닒": 4745,
      "##쌥": 4746,
      "##묍": 4747,
      "##묩": 4748,
      "##쟨": 4749,
      "##꿴": 4750,
      "##쒼": 4751,
      "##뙨": 4752,
      "##잚": 4753,
      "##훽": 4754,
      "##혭": 4755,
      "##긺": 4756,
      "##푄": 4757,
      "##튑": 4758,
      "##갊": 4759,
      "##솖": 4760,
      "##턺": 4761,
      "##좟": 4762,
      "##뀀": 4763,
      "##뺙": 4764,
      "##꿱": 4765,
      "##벴": 4766,
      "##췽": 4767,
      "##훰": 4768,
      "##띌": 4769,
      "##쓿": 4770,
      "##뼜": 4771,
      "##훵": 4772,
      "##빪": 4773,
      "##꿜": 4774,
      "##쓺": 4775,
      "##뻠": 4776,
      "##틘": 4777,
      "##쐼": 4778,
      "##뗬": 4779,
      "##뀄": 4780,
      "##빎": 4781,
      "##쇈": 4782,
      "##늚": 4783,
      "##쫬": 4784,
      "##걜": 4785,
      "##뇟": 4786,
      "##힁": 4787,
      "##뱍": 4788,
      "##홱": 4789,
      "##꽜": 4790,
      "##흖": 4791,
      "##죕": 4792,
      "##욉": 4793,
      "##뇹": 4794,
      "##얠": 4795,
      "##쏵": 4796,
      "##쵭": 4797,
      "##놂": 4798,
      "##쌜": 4799,
      "##꾄": 4800,
      "##덛": 4801,
      "##쟬": 4802,
      "##붚": 4803,
      "##꾈": 4804,
      "##맒": 4805,
      "##걺": 4806,
      "##쬈": 4807,
      "##쇌": 4808,
      "##쇔": 4809,
      "##쇗": 4810,
      "##붤": 4811,
      "##졺": 4812,
      "##뫈": 4813,
      "##욈": 4814,
      "##붊": 4815,
      "##쏸": 4816,
      "##췹": 4817,
      "##흼": 4818,
      "##뮷": 4819,
      "##붰": 4820,
      "##뇝": 4821,
      "##쫠": 4822,
      "##좽": 4823,
      "##뾔": 4824,
      "##쐴": 4825,
      "##엶": 4826,
      "##폡": 4827,
      "##틥": 4828,
      "##벎": 4829,
      "##씔": 4830,
      "##틤": 4831,
      "##괬": 4832,
      "##홅": 4833,
      "##쇰": 4834,
      "##폣": 4835,
      "##뼙": 4836,
      "##쵱": 4837,
      "##떪": 4838,
      "##쵬": 4839,
      "##뫘": 4840,
      "##뷩": 4841,
      "##쬡": 4842,
      "##옰": 4843,
      "##뒵": 4844,
      "##뜅": 4845,
      "##읾": 4846,
      "##쵯": 4847,
      "##깖": 4848,
      "##헒": 4849,
      "##꼲": 4850,
      "##쏢": 4851,
      "##썲": 4852,
      "##괆": 4853,
      "##괩": 4854,
      "##촁": 4855,
      "##얾": 4856,
      "##똴": 4857,
      "##쐤": 4858,
      "##으로": 4859,
      "##에서": 4860,
      "##하는": 4861,
      "있다": 4862,
      "상기": 4863,
      "##이다": 4864,
      "##하고": 4865,
      "##했다": 4866,
      "##00": 4867,
      "##었다": 4868,
      "있는": 4869,
      "##하여": 4870,
      "##한다": 4871,
      "##지만": 4872,
      "20": 4873,
      "##적으로": 4874,
      "##되는": 4875,
      "##에게": 4876,
      "##하게": 4877,
      "##적인": 4878,
      "##니다": 4879,
      "##들이": 4880,
      "##부터": 4881,
      "##에는": 4882,
      "대한": 4883,
      "##하기": 4884,
      "##이라": 4885,
      "##까지": 4886,
      "한다": 4887,
      "##면서": 4888,
      "10": 4889,
      "사용": 4890,
      "경우": 4891,
      "하는": 4892,
      "위해": 4893,
      "##다는": 4894,
      "포함": 4895,
      "있어": 4896,
      "##들은": 4897,
      "##였다": 4898,
      "때문": 4899,
      "사람": 4900,
      "또는": 4901,
      "##들의": 4902,
      "##다고": 4903,
      "따라": 4904,
      "19": 4905,
      "것이": 4906,
      "제1": 4907,
      "201": 4908,
      "##도록": 4909,
      "것이다": 4910,
      "##되어": 4911,
      "##된다": 4912,
      "위한": 4913,
      "##으며": 4914,
      "통해": 4915,
      "아니": 4916,
      "하나": 4917,
      "##리고": 4918,
      "것으로": 4919,
      "##레이": 4920,
      "11": 4921,
      "##들을": 4922,
      "##에서는": 4923,
      "다른": 4924,
      "이상": 4925,
      "##하다": 4926,
      "12": 4927,
      "한국": 4928,
      "지난": 4929,
      "##하지": 4930,
      "그러": 4931,
      "200": 4932,
      "가능": 4933,
      "같은": 4934,
      "##기를": 4935,
      "##았다": 4936,
      "이용": 4937,
      "실시": 4938,
      "##지는": 4939,
      "우리": 4940,
      "들어": 4941,
      "있어서": 4942,
      "제2": 4943,
      "것을": 4944,
      "##er": 4945,
      "자신": 4946,
      "또한": 4947,
      "형성": 4948,
      "개발": 4949,
      "문제": 4950,
      "##라고": 4951,
      "기술": 4952,
      "##이나": 4953,
      "프로": 4954,
      "발명": 4955,
      "연구": 4956,
      "대해": 4957,
      "##하면": 4958,
      "때문에": 4959,
      "##되고": 4960,
      "생각": 4961,
      "##하며": 4962,
      "##에도": 4963,
      "정보": 4964,
      "##성을": 4965,
      "##보다": 4966,
      "##는데": 4967,
      "것은": 4968,
      "##대로": 4969,
      "##in": 4970,
      "##습니다": 4971,
      "사이": 4972,
      "함께": 4973,
      "했다": 4974,
      "##리를": 4975,
      "##이터": 4976,
      "##스트": 4977,
      "##on": 4978,
      "나타": 4979,
      "구성": 4980,
      "##스템": 4981,
      "장치": 4982,
      "지역": 4983,
      "필요": 4984,
      "##리는": 4985,
      "##라는": 4986,
      "##거나": 4987,
      "방법": 4988,
      "의해": 4989,
      "##지를": 4990,
      "그리고": 4991,
      "15": 4992,
      "100": 4993,
      "##이스": 4994,
      "이후": 4995,
      "말했다": 4996,
      "##자는": 4997,
      "##기에": 4998,
      "관련": 4999,
      "된다": 5000,
      "##시키": 5001,
      "아이": 5002,
      "시간": 5003,
      "않는": 5004,
      "30": 5005,
      "가장": 5006,
      "제공": 5007,
      "##력을": 5008,
      "시작": 5009,
      "##서는": 5010,
      "하지만": 5011,
      "##자가": 5012,
      "정도": 5013,
      "##이트": 5014,
      "13": 5015,
      "##자의": 5016,
      "##이고": 5017,
      "제어": 5018,
      "있었다": 5019,
      "그러나": 5020,
      "##하였다": 5021,
      "##이라고": 5022,
      "미국": 5023,
      "##사를": 5024,
      "##기도": 5025,
      "##장은": 5026,
      "발생": 5027,
      "설명": 5028,
      "따른": 5029,
      "만들": 5030,
      "시스템": 5031,
      "##지고": 5032,
      "위치": 5033,
      "관계": 5034,
      "세계": 5035,
      "##처럼": 5036,
      "하고": 5037,
      "사업": 5038,
      "##기가": 5039,
      "결과": 5040,
      "데이터": 5041,
      "##성이": 5042,
      "##20": 5043,
      "사실": 5044,
      "모두": 5045,
      "##at": 5046,
      "사회": 5047,
      "##해야": 5048,
      "##장을": 5049,
      "일본": 5050,
      "상태": 5051,
      "정부": 5052,
      "현재": 5053,
      "다양": 5054,
      "없는": 5055,
      "14": 5056,
      "신호": 5057,
      "등을": 5058,
      "##an": 5059,
      "대표": 5060,
      "특히": 5061,
      "없다": 5062,
      "서울": 5063,
      "연결": 5064,
      "##en": 5065,
      "이어": 5066,
      "지원": 5067,
      "##상을": 5068,
      "다음": 5069,
      "##로부터": 5070,
      "도시": 5071,
      "많은": 5072,
      "##정을": 5073,
      "그는": 5074,
      "##or": 5075,
      "다시": 5076,
      "아니라": 5077,
      "모든": 5078,
      "##비스": 5079,
      "##이었다": 5080,
      "그런": 5081,
      "진행": 5082,
      "18": 5083,
      "상황": 5084,
      "기업": 5085,
      "##졌다": 5086,
      "##수의": 5087,
      "##하면서": 5088,
      "##기는": 5089,
      "실시예": 5090,
      "구조": 5091,
      "이러": 5092,
      "이미": 5093,
      "같이": 5094,
      "##이라는": 5095,
      "중국": 5096,
      "교육": 5097,
      "16": 5098,
      "##화를": 5099,
      "이번": 5100,
      "발명의": 5101,
      "선택": 5102,
      "##으나": 5103,
      "각각": 5104,
      "제조": 5105,
      "분석": 5106,
      "##al": 5107,
      "##리가": 5108,
      "이러한": 5109,
      "##혔다": 5110,
      "이를": 5111,
      "##들에게": 5112,
      "##로운": 5113,
      "다양한": 5114,
      "##주의": 5115,
      "국내": 5116,
      "결정": 5117,
      "이동": 5118,
      "##자를": 5119,
      "효과": 5120,
      "##해서": 5121,
      "바람": 5122,
      "##이는": 5123,
      "단계": 5124,
      "국가": 5125,
      "21": 5126,
      "##도를": 5127,
      "이루": 5128,
      "##통령": 5129,
      "등의": 5130,
      "##부를": 5131,
      "##으면": 5132,
      "경제": 5133,
      "##징으로": 5134,
      "있을": 5135,
      "수도": 5136,
      "평가": 5137,
      "##ar": 5138,
      "그렇": 5139,
      "대통령": 5140,
      "부분": 5141,
      "##이드": 5142,
      "##되었다": 5143,
      "##위원": 5144,
      "밝혔다": 5145,
      "이런": 5146,
      "있었": 5147,
      "모습": 5148,
      "25": 5149,
      "##스터": 5150,
      "대상": 5151,
      "##학교": 5152,
      "증가": 5153,
      "##ic": 5154,
      "있고": 5155,
      "##에서도": 5156,
      "##됐다": 5157,
      "설치": 5158,
      "이에": 5159,
      "방향": 5160,
      "50": 5161,
      "일반": 5162,
      "##장이": 5163,
      "##로서": 5164,
      "기준": 5165,
      "지금": 5166,
      "##으로써": 5167,
      "##장치": 5168,
      "있으며": 5169,
      "그래": 5170,
      "##어진": 5171,
      "##어도": 5172,
      "##원을": 5173,
      "##부에": 5174,
      "동안": 5175,
      "17": 5176,
      "포함하는": 5177,
      "##항에": 5178,
      "않고": 5179,
      "최근": 5180,
      "##이며": 5181,
      "##사가": 5182,
      "##물을": 5183,
      "기능": 5184,
      "##하도록": 5185,
      "처리": 5186,
      "##가는": 5187,
      "의미": 5188,
      "예를": 5189,
      "적용": 5190,
      "영역": 5191,
      "운영": 5192,
      "##es": 5193,
      "중요": 5194,
      "##력이": 5195,
      "##0년": 5196,
      "##므로": 5197,
      "내지": 5198,
      "국민": 5199,
      "서비스": 5200,
      "기록": 5201,
      "##들과": 5202,
      "##시간": 5203,
      "##이지": 5204,
      "##기의": 5205,
      "공격": 5206,
      "공급": 5207,
      "##기술": 5208,
      "존재": 5209,
      "어느": 5210,
      "확인": 5211,
      "해당": 5212,
      "내용": 5213,
      "추가": 5214,
      "##기업": 5215,
      "자신의": 5216,
      "##되지": 5217,
      "##그램": 5218,
      "이유": 5219,
      "##사업": 5220,
      "당시": 5221,
      "많이": 5222,
      "여러": 5223,
      "일부": 5224,
      "계획": 5225,
      "##리에": 5226,
      "생산": 5227,
      "수행": 5228,
      "##것을": 5229,
      "##시아": 5230,
      "##어나": 5231,
      "##ol": 5232,
      "보고": 5233,
      "##it": 5234,
      "활용": 5235,
      "##인이": 5236,
      "새로운": 5237,
      "마음": 5238,
      "지난해": 5239,
      "결합": 5240,
      "##도가": 5241,
      "인터": 5242,
      "않은": 5243,
      "에서": 5244,
      "##는다": 5245,
      "##렸다": 5246,
      "##회의": 5247,
      "전체": 5248,
      "##식을": 5249,
      "##기로": 5250,
      "##라이": 5251,
      "##ion": 5252,
      "##라도": 5253,
      "40": 5254,
      "중심": 5255,
      "따르": 5256,
      "수신": 5257,
      "형태": 5258,
      "정치": 5259,
      "나는": 5260,
      "환경": 5261,
      "따라서": 5262,
      "있다는": 5263,
      "##사는": 5264,
      "높은": 5265,
      "제품": 5266,
      "##시에": 5267,
      "인간": 5268,
      "어떤": 5269,
      "올해": 5270,
      "전문": 5271,
      "학생": 5272,
      "##다가": 5273,
      "직접": 5274,
      "##부는": 5275,
      "##인의": 5276,
      "보여": 5277,
      "후보": 5278,
      "때문이다": 5279,
      "상대": 5280,
      "##사의": 5281,
      "물론": 5282,
      "24": 5283,
      "##입니다": 5284,
      "##원이": 5285,
      "22": 5286,
      "처음": 5287,
      "시장": 5288,
      "유지": 5289,
      "##스를": 5290,
      "23": 5291,
      "##원의": 5292,
      "##10": 5293,
      "바람직": 5294,
      "조성": 5295,
      "돌아": 5296,
      "이름": 5297,
      "##ing": 5298,
      "영향": 5299,
      "있도록": 5300,
      "##리아": 5301,
      "##수를": 5302,
      "##부의": 5303,
      "199": 5304,
      "요구": 5305,
      "되는": 5306,
      "그의": 5307,
      "바로": 5308,
      "##동을": 5309,
      "##지가": 5310,
      "경기": 5311,
      "##위를": 5312,
      "문화": 5313,
      "##했던": 5314,
      "이야": 5315,
      "생성": 5316,
      "##점을": 5317,
      "##제로": 5318,
      "여기": 5319,
      "방송": 5320,
      "##원은": 5321,
      "참여": 5322,
      "반응": 5323,
      "비교": 5324,
      "나오": 5325,
      "##가지": 5326,
      "관리": 5327,
      "##이어": 5328,
      "##상의": 5329,
      "최대": 5330,
      "##도체": 5331,
      "추진": 5332,
      "통신": 5333,
      "있다고": 5334,
      "##주는": 5335,
      "지지": 5336,
      "##000": 5337,
      "가지": 5338,
      "관한": 5339,
      "수준": 5340,
      "기판": 5341,
      "자동": 5342,
      "산업": 5343,
      "표시": 5344,
      "아닌": 5345,
      "서로": 5346,
      "한편": 5347,
      "없이": 5348,
      "마련": 5349,
      "##제를": 5350,
      "##인다": 5351,
      "##부분": 5352,
      "##개의": 5353,
      "전기": 5354,
      "이하": 5355,
      "좋은": 5356,
      "프로그램": 5357,
      "따르면": 5358,
      "##리스": 5359,
      "예정": 5360,
      "이는": 5361,
      "조사": 5362,
      "기존": 5363,
      "대응": 5364,
      "아무": 5365,
      "측정": 5366,
      "알려": 5367,
      "제작": 5368,
      "##is": 5369,
      "##체의": 5370,
      "설정": 5371,
      "##면에": 5372,
      "기반": 5373,
      "이상의": 5374,
      "게임": 5375,
      "사건": 5376,
      "기대": 5377,
      "더욱": 5378,
      "배치": 5379,
      "고정": 5380,
      "회전": 5381,
      "##시키는": 5382,
      "최고": 5383,
      "적어도": 5384,
      "과정": 5385,
      "이날": 5386,
      "##수가": 5387,
      "피해": 5388,
      "하나의": 5389,
      "##니까": 5390,
      "어려": 5391,
      "등이": 5392,
      "단말": 5393,
      "##에서의": 5394,
      "##드는": 5395,
      "##et": 5396,
      "등장": 5397,
      "자기": 5398,
      "투자": 5399,
      "출력": 5400,
      "##el": 5401,
      "학교": 5402,
      "이해": 5403,
      "계속": 5404,
      "그것": 5405,
      "##도로": 5406,
      "저장": 5407,
      "받아": 5408,
      "대학": 5409,
      "방식": 5410,
      "전극": 5411,
      "역시": 5412,
      "매우": 5413,
      "##이었": 5414,
      "찾아": 5415,
      "##으로부터": 5416,
      "##르는": 5417,
      "그녀": 5418,
      "변화": 5419,
      "동일": 5420,
      "되었다": 5421,
      "성공": 5422,
      "되어": 5423,
      "정책": 5424,
      "##트를": 5425,
      "##8년": 5426,
      "##ro": 5427,
      "보다": 5428,
      "##교육": 5429,
      "발전": 5430,
      "##운데": 5431,
      "##되며": 5432,
      "여성": 5433,
      "##치는": 5434,
      "안전": 5435,
      "결국": 5436,
      "정보를": 5437,
      "전자": 5438,
      "##하였": 5439,
      "##내는": 5440,
      "입력": 5441,
      "##체를": 5442,
      "##랜드": 5443,
      "##이션": 5444,
      "보면": 5445,
      "국제": 5446,
      "현대": 5447,
      "##7년": 5448,
      "영상": 5449,
      "지방": 5450,
      "사랑": 5451,
      "##이가": 5452,
      "않았다": 5453,
      "##되었": 5454,
      "##정보": 5455,
      "전송": 5456,
      "구비": 5457,
      "##왔다": 5458,
      "##스의": 5459,
      "##특징으로": 5460,
      "역할": 5461,
      "##회를": 5462,
      "##부가": 5463,
      "##9년": 5464,
      "##기관": 5465,
      "##연구": 5466,
      "확보": 5467,
      "않는다": 5468,
      "##개발": 5469,
      "##나라": 5470,
      "##음을": 5471,
      "않았": 5472,
      "##5년": 5473,
      "개선": 5474,
      "##마트": 5475,
      "##났다": 5476,
      "갖는": 5477,
      "##치를": 5478,
      "부산": 5479,
      "어떻": 5480,
      "분야": 5481,
      "관심": 5482,
      "##인을": 5483,
      "##시켜": 5484,
      "만들어": 5485,
      "##he": 5486,
      "##너지": 5487,
      "경쟁": 5488,
      "너무": 5489,
      "##레임": 5490,
      "영화": 5491,
      "선수": 5492,
      "내가": 5493,
      "기본": 5494,
      "##진다": 5495,
      "삼성": 5496,
      "가운데": 5497,
      "##지역": 5498,
      "##들에": 5499,
      "##le": 5500,
      "판단": 5501,
      "판매": 5502,
      "북한": 5503,
      "것도": 5504,
      "##인지": 5505,
      "강화": 5506,
      "##체가": 5507,
      "##장의": 5508,
      "##했고": 5509,
      "##드를": 5510,
      "자유": 5511,
      "제3": 5512,
      "어떻게": 5513,
      "이렇": 5514,
      "##도의": 5515,
      "##6년": 5516,
      "##하려": 5517,
      "공정": 5518,
      "공간": 5519,
      "감독": 5520,
      "##명을": 5521,
      "대부분": 5522,
      "##함으로써": 5523,
      "차량": 5524,
      "##억원": 5525,
      "##플레이": 5526,
      "##만원": 5527,
      "##겠다": 5528,
      "##가능": 5529,
      "##센터": 5530,
      "민주": 5531,
      "치료": 5532,
      "발표": 5533,
      "확대": 5534,
      "##마다": 5535,
      "##as": 5536,
      "라고": 5537,
      "작품": 5538,
      "##명이": 5539,
      "##머니": 5540,
      "아니다": 5541,
      "지속": 5542,
      "활동": 5543,
      "목표": 5544,
      "준비": 5545,
      "금융": 5546,
      "26": 5547,
      "감소": 5548,
      "크게": 5549,
      "플레이": 5550,
      "##로는": 5551,
      "전국": 5552,
      "이라고": 5553,
      "소비": 5554,
      "##없이": 5555,
      "##지의": 5556,
      "이제": 5557,
      "##하거나": 5558,
      "##수는": 5559,
      "##것을특징으로": 5560,
      "##전히": 5561,
      "해결": 5562,
      "##id": 5563,
      "이루어": 5564,
      "가지고": 5565,
      "대구": 5566,
      "##과의": 5567,
      "이용하여": 5568,
      "##물의": 5569,
      "##산업": 5570,
      "의한": 5571,
      "경찰": 5572,
      "주장": 5573,
      "고려": 5574,
      "이전": 5575,
      "상당": 5576,
      "##이를": 5577,
      "생활": 5578,
      "특정": 5579,
      "항에": 5580,
      "##4년": 5581,
      "##ed": 5582,
      "활성": 5583,
      "60": 5584,
      "주요": 5585,
      "##으로서": 5586,
      "##워크": 5587,
      "디스": 5588,
      "시민": 5589,
      "##거리": 5590,
      "기초": 5591,
      "공동": 5592,
      "이용한": 5593,
      "##2년": 5594,
      "가능한": 5595,
      "참조": 5596,
      "##스는": 5597,
      "성장": 5598,
      "개인": 5599,
      "보호": 5600,
      "통한": 5601,
      "나온": 5602,
      "##대를": 5603,
      "구체": 5604,
      "아직": 5605,
      "31": 5606,
      "공개": 5607,
      "전달": 5608,
      "모듈": 5609,
      "자연": 5610,
      "##ac": 5611,
      "##시장": 5612,
      "##지도": 5613,
      "가격": 5614,
      "##스로": 5615,
      "반도체": 5616,
      "관계자는": 5617,
      "이렇게": 5618,
      "무엇": 5619,
      "하지": 5620,
      "27": 5621,
      "화합": 5622,
      "##의를": 5623,
      "##인은": 5624,
      "##스가": 5625,
      "으로": 5626,
      "##전을": 5627,
      "조직": 5628,
      "고객": 5629,
      "사람이": 5630,
      "28": 5631,
      "##들도": 5632,
      "특별": 5633,
      "시즌": 5634,
      "##계를": 5635,
      "떨어": 5636,
      "지나": 5637,
      "주민": 5638,
      "##전자": 5639,
      "내부": 5640,
      "##인데": 5641,
      "##3년": 5642,
      "##선을": 5643,
      "없었다": 5644,
      "있지만": 5645,
      "##동안": 5646,
      "##1년": 5647,
      "##린다": 5648,
      "##지막": 5649,
      "금속": 5650,
      "##명의": 5651,
      "동작": 5652,
      "##상이": 5653,
      "사용자": 5654,
      "##re": 5655,
      "구축": 5656,
      "만큼": 5657,
      "스타": 5658,
      "다만": 5659,
      "복수의": 5660,
      "##지에": 5661,
      "표현": 5662,
      "##디오": 5663,
      "모델": 5664,
      "알고": 5665,
      "##트워크": 5666,
      "##했다고": 5667,
      "먼저": 5668,
      "기간": 5669,
      "지적": 5670,
      "달리": 5671,
      "규모": 5672,
      "인해": 5673,
      "사이에": 5674,
      "보인다": 5675,
      "작업": 5676,
      "그런데": 5677,
      "외부": 5678,
      "##안을": 5679,
      "##대의": 5680,
      "이와": 5681,
      "거의": 5682,
      "##이크": 5683,
      "동시에": 5684,
      "##om": 5685,
      "##라인": 5686,
      "미래": 5687,
      "##위원회": 5688,
      "말을": 5689,
      "##서를": 5690,
      "가족": 5691,
      "##금을": 5692,
      "등에": 5693,
      "##문화": 5694,
      "##어서": 5695,
      "중앙": 5696,
      "##소를": 5697,
      "상승": 5698,
      "##겠다고": 5699,
      "##국의": 5700,
      "주변": 5701,
      "안정": 5702,
      "평균": 5703,
      "##프트": 5704,
      "구동": 5705,
      "유닛": 5706,
      "강조": 5707,
      "필요한": 5708,
      "스트": 5709,
      "##자인": 5710,
      "##관리": 5711,
      "있는데": 5712,
      "조선": 5713,
      "##50": 5714,
      "##한다는": 5715,
      "110": 5716,
      "##도는": 5717,
      "스마트": 5718,
      "얼굴": 5719,
      "해외": 5720,
      "##ou": 5721,
      "##와의": 5722,
      "바이": 5723,
      "##임을": 5724,
      "대신": 5725,
      "바와": 5726,
      "일정": 5727,
      "##점이": 5728,
      "마지막": 5729,
      "이것": 5730,
      "패턴": 5731,
      "##은행": 5732,
      "일이": 5733,
      "##30": 5734,
      "하여": 5735,
      "제시": 5736,
      "조건": 5737,
      "예상": 5738,
      "##자로": 5739,
      "현실": 5740,
      "가진": 5741,
      "경험": 5742,
      "중요한": 5743,
      "모습을": 5744,
      "제한": 5745,
      "않을": 5746,
      "검출": 5747,
      "##리의": 5748,
      "300": 5749,
      "얼마": 5750,
      "것이라고": 5751,
      "##합니다": 5752,
      "##리지": 5753,
      "올라": 5754,
      "##료를": 5755,
      "무선": 5756,
      "라는": 5757,
      "비롯": 5758,
      "역사": 5759,
      "##하자": 5760,
      "앞으로": 5761,
      "인정": 5762,
      "##밖에": 5763,
      "건강": 5764,
      "##환경": 5765,
      "채널": 5766,
      "##르게": 5767,
      "사고": 5768,
      "살아": 5769,
      "정신": 5770,
      "##방향": 5771,
      "##시설": 5772,
      "##나는": 5773,
      "선거": 5774,
      "특성": 5775,
      "##디어": 5776,
      "##프로": 5777,
      "접속": 5778,
      "있게": 5779,
      "선정": 5780,
      "##면을": 5781,
      "##어요": 5782,
      "##nd": 5783,
      "인천": 5784,
      "##움을": 5785,
      "##하는데": 5786,
      "인식": 5787,
      "폴리": 5788,
      "##상에": 5789,
      "움직": 5790,
      "변경": 5791,
      "분리": 5792,
      "범위": 5793,
      "실시예에": 5794,
      "네트워크": 5795,
      "목적": 5796,
      "198": 5797,
      "그렇게": 5798,
      "세포": 5799,
      "##문을": 5800,
      "물질": 5801,
      "영향을": 5802,
      "##감을": 5803,
      "좋아": 5804,
      "어린": 5805,
      "##가를": 5806,
      "드러": 5807,
      "제거": 5808,
      "##물이": 5809,
      "##하지만": 5810,
      "수용": 5811,
      "상품": 5812,
      "혼합": 5813,
      "##시킨": 5814,
      "##다면": 5815,
      "##대에": 5816,
      "##있는": 5817,
      "수단": 5818,
      "최종": 5819,
      "조절": 5820,
      "위하여": 5821,
      "##장에서": 5822,
      "##학적": 5823,
      "##구를": 5824,
      "제외": 5825,
      "29": 5826,
      "그래서": 5827,
      "통합": 5828,
      "전망": 5829,
      "않아": 5830,
      "아버": 5831,
      "도입": 5832,
      "##권을": 5833,
      "##신호": 5834,
      "##am": 5835,
      "##어난": 5836,
      "120": 5837,
      "##방법": 5838,
      "##텐츠": 5839,
      "요청": 5840,
      "프레임": 5841,
      "광주": 5842,
      "같다": 5843,
      "비해": 5844,
      "##사에": 5845,
      "##도시": 5846,
      "설계": 5847,
      "##il": 5848,
      "특징으로": 5849,
      "##정이": 5850,
      "외국": 5851,
      "블록": 5852,
      "정도로": 5853,
      "##화된": 5854,
      "되고": 5855,
      "나라": 5856,
      "##량을": 5857,
      "대비": 5858,
      "노동": 5859,
      "과거": 5860,
      "적극": 5861,
      "##스크": 5862,
      "건설": 5863,
      "##성과": 5864,
      "##지지": 5865,
      "에너지": 5866,
      "아래": 5867,
      "우선": 5868,
      "문제가": 5869,
      "##바이스": 5870,
      "도전": 5871,
      "유기": 5872,
      "##시는": 5873,
      "##릭터": 5874,
      "소재": 5875,
      "오는": 5876,
      "70": 5877,
      "전략": 5878,
      "이때": 5879,
      "전력": 5880,
      "##ec": 5881,
      "갖고": 5882,
      "##한다고": 5883,
      "하기": 5884,
      "##ent": 5885,
      "##ation": 5886,
      "##더라도": 5887,
      "##원에": 5888,
      "하면": 5889,
      "##장에": 5890,
      "형성된": 5891,
      "위험": 5892,
      "##되면": 5893,
      "그룹": 5894,
      "행정": 5895,
      "집중": 5896,
      "작은": 5897,
      "##자들이": 5898,
      "하루": 5899,
      "##시킬": 5900,
      "##개월": 5901,
      "친구": 5902,
      "발견": 5903,
      "우수": 5904,
      "포함한다": 5905,
      "효율": 5906,
      "역할을": 5907,
      "있던": 5908,
      "포함할": 5909,
      "##트의": 5910,
      "사진": 5911,
      "레이": 5912,
      "특징": 5913,
      "당신": 5914,
      "##가가": 5915,
      "##부재": 5916,
      "전압": 5917,
      "디바이스": 5918,
      "경영": 5919,
      "오늘": 5920,
      "##겠다는": 5921,
      "차지": 5922,
      "내려": 5923,
      "오후": 5924,
      "회로": 5925,
      "그대로": 5926,
      "여기서": 5927,
      "캐릭터": 5928,
      "32": 5929,
      "배우": 5930,
      "##st": 5931,
      "핵심": 5932,
      "##자와": 5933,
      "부재": 5934,
      "구현": 5935,
      "부족": 5936,
      "##세를": 5937,
      "스위": 5938,
      "받고": 5939,
      "##제의": 5940,
      "대하여": 5941,
      "##전에": 5942,
      "조금": 5943,
      "##정의": 5944,
      "자동차": 5945,
      "정확": 5946,
      "##했지만": 5947,
      "##이기": 5948,
      "##드의": 5949,
      "##만큼": 5950,
      "##th": 5951,
      "##부와": 5952,
      "디스플레이": 5953,
      "##제가": 5954,
      "##위에": 5955,
      "##었던": 5956,
      "시험": 5957,
      "대한민": 5958,
      "##리어": 5959,
      "자신이": 5960,
      "측면": 5961,
      "##이지만": 5962,
      "센서": 5963,
      "##으로는": 5964,
      "있기": 5965,
      "최소": 5966,
      "정상": 5967,
      "받은": 5968,
      "업무": 5969,
      "표면": 5970,
      "80": 5971,
      "향상": 5972,
      "##사회": 5973,
      "제대로": 5974,
      "만든": 5975,
      "요소": 5976,
      "컴퓨": 5977,
      "충분": 5978,
      "##물질": 5979,
      "가까": 5980,
      "##시스템": 5981,
      "##인가": 5982,
      "등으로": 5983,
      "의견": 5984,
      "##으니": 5985,
      "어렵": 5986,
      "방문": 5987,
      "정말": 5988,
      "##ig": 5989,
      "글로": 5990,
      "##비를": 5991,
      "있습니다": 5992,
      "운동": 5993,
      "실제": 5994,
      "##르고": 5995,
      "의원": 5996,
      "예정이다": 5997,
      "조합": 5998,
      "신호를": 5999,
      "노력": 6000,
      "6월": 6001,
      "자리": 6002,
      "##량이": 6003,
      "##하던": 6004,
      "최초": 6005,
      "##체는": 6006,
      "만나": 6007,
      "##대가": 6008,
      "2차": 6009,
      "##리즈": 6010,
      "대상으로": 6011,
      "시행": 6012,
      "3월": 6013,
      "음악": 6014,
      "##라며": 6015,
      "수출": 6016,
      "메시": 6017,
      "기억": 6018,
      "##스타": 6019,
      "각종": 6020,
      "그가": 6021,
      "넘어": 6022,
      "4월": 6023,
      "사람들이": 6024,
      "##단계": 6025,
      "라이": 6026,
      "5월": 6027,
      "관광": 6028,
      "비판": 6029,
      "##기와": 6030,
      "##파트": 6031,
      "번째": 6032,
      "누구": 6033,
      "##었고": 6034,
      "500": 6035,
      "##갔다": 6036,
      "반대": 6037,
      "나타낸": 6038,
      "경우에는": 6039,
      "##성의": 6040,
      "다이": 6041,
      "언급": 6042,
      "##처리": 6043,
      "해도": 6044,
      "이들": 6045,
      "해야": 6046,
      "##약을": 6047,
      "##통신": 6048,
      "프리": 6049,
      "##도에": 6050,
      "##화가": 6051,
      "유럽": 6052,
      "##과는": 6053,
      "##수단": 6054,
      "##려고": 6055,
      "메모": 6056,
      "한다는": 6057,
      "##하다고": 6058,
      "9월": 6059,
      "전환": 6060,
      "##사와": 6061,
      "주인": 6062,
      "혹은": 6063,
      "전에": 6064,
      "##산을": 6065,
      "##인트": 6066,
      "됐다": 6067,
      "##구조": 6068,
      "인터넷": 6069,
      "##이블": 6070,
      "접촉": 6071,
      "7월": 6072,
      "비용": 6073,
      "##격을": 6074,
      "연장": 6075,
      "앞서": 6076,
      "일을": 6077,
      "전쟁": 6078,
      "하며": 6079,
      "10월": 6080,
      "우리는": 6081,
      "알아": 6082,
      "어디": 6083,
      "출신": 6084,
      "##냈다": 6085,
      "of": 6086,
      "##히려": 6087,
      "##는지": 6088,
      "두고": 6089,
      "##하다는": 6090,
      "추출": 6091,
      "중심으로": 6092,
      "12월": 6093,
      "연속": 6094,
      "##보다는": 6095,
      "유리": 6096,
      "##대한": 6097,
      "프로세": 6098,
      "##자에": 6099,
      "동일한": 6100,
      "말이": 6101,
      "##지로": 6102,
      "##간의": 6103,
      "비슷": 6104,
      "송신": 6105,
      "부담": 6106,
      "00": 6107,
      "카드": 6108,
      "중소": 6109,
      "위해서": 6110,
      "많다": 6111,
      "##수록": 6112,
      "전투": 6113,
      "개최": 6114,
      "##치가": 6115,
      "오히려": 6116,
      "글로벌": 6117,
      "마찬": 6118,
      "내에": 6119,
      "35": 6120,
      "8월": 6121,
      "방지": 6122,
      "한정": 6123,
      "변환": 6124,
      "##보고": 6125,
      "나노": 6126,
      "독일": 6127,
      "경우가": 6128,
      "등록": 6129,
      "한다고": 6130,
      "스스로": 6131,
      "##지원": 6132,
      "실제로": 6133,
      "##등학교": 6134,
      "트랜": 6135,
      "독립": 6136,
      "마찬가지": 6137,
      "000": 6138,
      "함유": 6139,
      "방향으로": 6140,
      "검찰": 6141,
      "못한": 6142,
      "성능": 6143,
      "국회": 6144,
      "##개를": 6145,
      "##11": 6146,
      "##경제": 6147,
      "이야기": 6148,
      "산화": 6149,
      "분위": 6150,
      "##스러": 6151,
      "서버": 6152,
      "전통": 6153,
      "정의": 6154,
      "##세요": 6155,
      "##체에": 6156,
      "프랑": 6157,
      "##했을": 6158,
      "화합물": 6159,
      "단순": 6160,
      "##ul": 6161,
      "##치고": 6162,
      "예측": 6163,
      "않다": 6164,
      "내년": 6165,
      "##에선": 6166,
      "상호": 6167,
      "1년": 6168,
      "##그룹": 6169,
      "##운동": 6170,
      "데이터를": 6171,
      "##되도록": 6172,
      "##성에": 6173,
      "여자": 6174,
      "##어를": 6175,
      "가능성이": 6176,
      "배출": 6177,
      "기관": 6178,
      "능력": 6179,
      "컴퓨터": 6180,
      "##BS": 6181,
      "##원에서": 6182,
      "디지": 6183,
      "공연": 6184,
      "1월": 6185,
      "발광": 6186,
      "열린": 6187,
      "대체": 6188,
      "의료": 6189,
      "##대표": 6190,
      "in": 6191,
      "없어": 6192,
      "##하기도": 6193,
      "반면": 6194,
      "사람은": 6195,
      "##40": 6196,
      "나서": 6197,
      "우려": 6198,
      "조정": 6199,
      "##관계": 6200,
      "##사로": 6201,
      "각각의": 6202,
      "획득": 6203,
      "##이자": 6204,
      "쉽게": 6205,
      "거래": 6206,
      "개념": 6207,
      "##오는": 6208,
      "##함을": 6209,
      "##움이": 6210,
      "##레스": 6211,
      "복합": 6212,
      "##되면서": 6213,
      "##일부터": 6214,
      "##자들의": 6215,
      "가능하다": 6216,
      "공공": 6217,
      "주로": 6218,
      "##od": 6219,
      "통과": 6220,
      "소속": 6221,
      "##가의": 6222,
      "시절": 6223,
      "##스럽": 6224,
      "목소": 6225,
      "순간": 6226,
      "타이": 6227,
      "개의": 6228,
      "##자들은": 6229,
      "상부": 6230,
      "그림": 6231,
      "지정": 6232,
      "이벤": 6233,
      "##성은": 6234,
      "어머니": 6235,
      "수가": 6236,
      "과학": 6237,
      "##제는": 6238,
      "##준다": 6239,
      "##운드": 6240,
      "##하기로": 6241,
      "브랜드": 6242,
      "주는": 6243,
      "##자리": 6244,
      "해석": 6245,
      "가스": 6246,
      "##iv": 6247,
      "##상으로": 6248,
      "부모": 6249,
      "규정": 6250,
      "##아가": 6251,
      "게이트": 6252,
      "##적이": 6253,
      "중간": 6254,
      "33": 6255,
      "레벨": 6256,
      "##하고자": 6257,
      "하다": 6258,
      "상에": 6259,
      "화학": 6260,
      "못하고": 6261,
      "문제를": 6262,
      "##른다": 6263,
      "##세포": 6264,
      "작용": 6265,
      "##리카": 6266,
      "재료": 6267,
      "삽입": 6268,
      "##씨는": 6269,
      "과정에서": 6270,
      "시설": 6271,
      "##소년": 6272,
      "참가": 6273,
      "낮은": 6274,
      "가져": 6275,
      "##정책": 6276,
      "대한민국": 6277,
      "전혀": 6278,
      "발명에": 6279,
      "##대는": 6280,
      "이뤄": 6281,
      "##메라": 6282,
      "우승": 6283,
      "특허": 6284,
      "##우는": 6285,
      "마을": 6286,
      "일단": 6287,
      "##일까지": 6288,
      "공식": 6289,
      "언론": 6290,
      "사라": 6291,
      "##ter": 6292,
      "##12": 6293,
      "##번째": 6294,
      "##지스터": 6295,
      "위해서는": 6296,
      "##만을": 6297,
      "##리그": 6298,
      "유명": 6299,
      "매출": 6300,
      "행동": 6301,
      "LG": 6302,
      "##일을": 6303,
      "##라마": 6304,
      "때는": 6305,
      "책임": 6306,
      "출시": 6307,
      "##내고": 6308,
      "11월": 6309,
      "통하여": 6310,
      "방법을": 6311,
      "##일에": 6312,
      "사례": 6313,
      "1차": 6314,
      "기재": 6315,
      "##시키고": 6316,
      "그리": 6317,
      "나타내는": 6318,
      "파악": 6319,
      "위에": 6320,
      "계획이다": 6321,
      "나가": 6322,
      "장애": 6323,
      "##생활": 6324,
      "높아": 6325,
      "반영": 6326,
      "##자에게": 6327,
      "##했다는": 6328,
      "제주": 6329,
      "##차를": 6330,
      "##느냐": 6331,
      "##중에": 6332,
      "##법을": 6333,
      "시간이": 6334,
      "##ad": 6335,
      "발명은": 6336,
      "플라": 6337,
      "##기간": 6338,
      "위원": 6339,
      "##em": 6340,
      "##로를": 6341,
      "##리로": 6342,
      "아주": 6343,
      "성분": 6344,
      "대해서": 6345,
      "결혼": 6346,
      "##과를": 6347,
      "것에": 6348,
      "길이": 6349,
      "130": 6350,
      "SK": 6351,
      "디지털": 6352,
      "36": 6353,
      "광고": 6354,
      "출연": 6355,
      "대형": 6356,
      "사망": 6357,
      "##회가": 6358,
      "사회적": 6359,
      "##학생": 6360,
      "##보는": 6361,
      "포함하고": 6362,
      "참고": 6363,
      "##구의": 6364,
      "90": 6365,
      "지도": 6366,
      "모드": 6367,
      "실험": 6368,
      "##하게는": 6369,
      "행복": 6370,
      "##어가": 6371,
      "##ch": 6372,
      "관련된": 6373,
      "태양": 6374,
      "##세대": 6375,
      "##어야": 6376,
      "##경기": 6377,
      "촬영": 6378,
      "대전": 6379,
      "##만이": 6380,
      "선발": 6381,
      "전해": 6382,
      "체결": 6383,
      "단위": 6384,
      "##계획": 6385,
      "수요": 6386,
      "개정": 6387,
      "사이의": 6388,
      "장착": 6389,
      "수익": 6390,
      "스테": 6391,
      "사용하는": 6392,
      "좋다": 6393,
      "신청": 6394,
      "우리나라": 6395,
      "2월": 6396,
      "신경": 6397,
      "달성": 6398,
      "##행을": 6399,
      "진출": 6400,
      "회복": 6401,
      "담당": 6402,
      "보유": 6403,
      "힘들": 6404,
      "197": 6405,
      "##구가": 6406,
      "##이란": 6407,
      "온도": 6408,
      "회사": 6409,
      "라인": 6410,
      "하이": 6411,
      "모양": 6412,
      "150": 6413,
      "노래": 6414,
      "400": 6415,
      "그냥": 6416,
      "교통": 6417,
      "##업을": 6418,
      "영국": 6419,
      "강력": 6420,
      "##랐다": 6421,
      "##장과": 6422,
      "##쳤다": 6423,
      "##um": 6424,
      "##롭게": 6425,
      "설명했다": 6426,
      "되면": 6427,
      "사실을": 6428,
      "잘못": 6429,
      "##주고": 6430,
      "유사": 6431,
      "##원으로": 6432,
      "##201": 6433,
      "절연": 6434,
      "접근": 6435,
      "롯데": 6436,
      "##적을": 6437,
      "하부": 6438,
      "예산": 6439,
      "##os": 6440,
      "주파": 6441,
      "결과를": 6442,
      "논의": 6443,
      "논란": 6444,
      "검토": 6445,
      "참석": 6446,
      "##포츠": 6447,
      "분명": 6448,
      "주목": 6449,
      "감지": 6450,
      "the": 6451,
      "도면": 6452,
      "효과를": 6453,
      "제안": 6454,
      "##으면서": 6455,
      "협력": 6456,
      "대회": 6457,
      "제공하는": 6458,
      "가입": 6459,
      "##해도": 6460,
      "##단을": 6461,
      "미리": 6462,
      "제기": 6463,
      "##케이션": 6464,
      "부정": 6465,
      "우리가": 6466,
      "언제": 6467,
      "인사": 6468,
      "##율이": 6469,
      "##액을": 6470,
      "##으므로": 6471,
      "##트는": 6472,
      "해서": 6473,
      "##0년대": 6474,
      "시리즈": 6475,
      "제4": 6476,
      "##ur": 6477,
      "사용할": 6478,
      "신뢰": 6479,
      "##ot": 6480,
      "불구": 6481,
      "받았다": 6482,
      "인물": 6483,
      "##산화": 6484,
      "실행": 6485,
      "만에": 6486,
      "소개": 6487,
      "힘을": 6488,
      "##트로": 6489,
      "유도": 6490,
      "##트가": 6491,
      "##관을": 6492,
      "##ag": 6493,
      "여전히": 6494,
      "중량": 6495,
      "종합": 6496,
      "주인공": 6497,
      "것과": 6498,
      "초기": 6499,
      "##업체": 6500,
      "기자": 6501,
      "서브": 6502,
      "##관이": 6503,
      "고용": 6504,
      "추정": 6505,
      "45": 6506,
      "활성화": 6507,
      "청구": 6508,
      "기능을": 6509,
      "경기도": 6510,
      "필터": 6511,
      "34": 6512,
      "아파트": 6513,
      "##도이다": 6514,
      "##us": 6515,
      "##달러": 6516,
      "##시의": 6517,
      "##라면": 6518,
      "보는": 6519,
      "##어들": 6520,
      "메모리": 6521,
      "한번": 6522,
      "저항": 6523,
      "상세": 6524,
      "##관은": 6525,
      "더불": 6526,
      "명령": 6527,
      "##식이": 6528,
      "##했으며": 6529,
      "수밖에": 6530,
      "##ay": 6531,
      "사무": 6532,
      "필름": 6533,
      "##ut": 6534,
      "부동": 6535,
      "자주": 6536,
      "##시켰": 6537,
      "주택": 6538,
      "들어가": 6539,
      "##바일": 6540,
      "자세": 6541,
      "##단체": 6542,
      "바라": 6543,
      "어려운": 6544,
      "TV": 6545,
      "전문가": 6546,
      "##드시": 6547,
      "이미지": 6548,
      "##계의": 6549,
      "받는": 6550,
      "작동": 6551,
      "##수로": 6552,
      "그동안": 6553,
      "시간을": 6554,
      "더불어": 6555,
      "충전": 6556,
      "들면": 6557,
      "반복": 6558,
      "##im": 6559,
      "설립": 6560,
      "적이": 6561,
      "유전": 6562,
      "물리": 6563,
      "##되기": 6564,
      "기다": 6565,
      "선보": 6566,
      "휴대": 6567,
      "이루어진": 6568,
      "##대학": 6569,
      "전류": 6570,
      "##상은": 6571,
      "실패": 6572,
      "지급": 6573,
      "수입": 6574,
      "투입": 6575,
      "직원": 6576,
      "##제품": 6577,
      "다음과": 6578,
      "42": 6579,
      "대해서는": 6580,
      "##상기": 6581,
      "##드가": 6582,
      "자체": 6583,
      "##러스": 6584,
      "나타났다": 6585,
      "시청": 6586,
      "##19": 6587,
      "말한다": 6588,
      "지하": 6589,
      "속에서": 6590,
      "계산": 6591,
      "살펴": 6592,
      "남아": 6593,
      "계약": 6594,
      "지난달": 6595,
      "인한": 6596,
      "도시된": 6597,
      "당연": 6598,
      "희망": 6599,
      "시작했다": 6600,
      "##규모": 6601,
      "##조사": 6602,
      "민주당": 6603,
      "학습": 6604,
      "수지": 6605,
      "나온다": 6606,
      "필요가": 6607,
      "보조": 6608,
      "무슨": 6609,
      "구매": 6610,
      "##위는": 6611,
      "스토": 6612,
      "##였던": 6613,
      "가는": 6614,
      "##컨대": 6615,
      "적절": 6616,
      "##이에": 6617,
      "종류": 6618,
      "무기": 6619,
      "분류": 6620,
      "2년": 6621,
      "부품": 6622,
      "가정": 6623,
      "얼마나": 6624,
      "탄소": 6625,
      "##장으로": 6626,
      "##평가": 6627,
      "마이크": 6628,
      "제1항에": 6629,
      "청년": 6630,
      "##어로": 6631,
      "바탕": 6632,
      "##단의": 6633,
      "스킬": 6634,
      "불과": 6635,
      "첨가": 6636,
      "##과학": 6637,
      "카메라": 6638,
      "본격": 6639,
      "수는": 6640,
      "영업": 6641,
      "##이면": 6642,
      "최적": 6643,
      "나오는": 6644,
      "형태로": 6645,
      "받을": 6646,
      "##스테": 6647,
      "혁신": 6648,
      "스크": 6649,
      "기준으로": 6650,
      "거쳐": 6651,
      "되었": 6652,
      "두께": 6653,
      "##같은": 6654,
      "일으": 6655,
      "모바일": 6656,
      "##위가": 6657,
      "예술": 6658,
      "완전히": 6659,
      "기계": 6660,
      "행사": 6661,
      "##려는": 6662,
      "##ow": 6663,
      "이끌": 6664,
      "자료": 6665,
      "##시가": 6666,
      "울산": 6667,
      "달라": 6668,
      "선생": 6669,
      "반드시": 6670,
      "은행": 6671,
      "오전": 6672,
      "##두고": 6673,
      "##tr": 6674,
      "신규": 6675,
      "있지": 6676,
      "콘텐츠": 6677,
      "3년": 6678,
      "만족": 6679,
      "장기": 6680,
      "교수": 6681,
      "##물은": 6682,
      "##들로": 6683,
      "##보면": 6684,
      "보험": 6685,
      "다수의": 6686,
      "##림픽": 6687,
      "##대회": 6688,
      "##이의": 6689,
      "##페이스": 6690,
      "##리와": 6691,
      "##ED": 6692,
      "러시아": 6693,
      "응답": 6694,
      "##실을": 6695,
      "장비": 6696,
      "##단에": 6697,
      "##만의": 6698,
      "##점에서": 6699,
      "부여": 6700,
      "##리기": 6701,
      "##없는": 6702,
      "엄마": 6703,
      "특수": 6704,
      "##로의": 6705,
      "근거": 6706,
      "##심을": 6707,
      "일어나": 6708,
      "중에": 6709,
      "정부가": 6710,
      "젊은": 6711,
      "후에": 6712,
      "점을": 6713,
      "하였다": 6714,
      "못했다": 6715,
      "##적이고": 6716,
      "합성": 6717,
      "인증": 6718,
      "이라는": 6719,
      "##무를": 6720,
      "##더니": 6721,
      "체험": 6722,
      "나머": 6723,
      "##형을": 6724,
      "##고를": 6725,
      "중소기업": 6726,
      "이들은": 6727,
      "검사": 6728,
      "##형의": 6729,
      "##질을": 6730,
      "합니다": 6731,
      "경우에": 6732,
      "##우스": 6733,
      "개시": 6734,
      "없고": 6735,
      "유일": 6736,
      "보였다": 6737,
      "##별로": 6738,
      "아름": 6739,
      "이곳": 6740,
      "##미터": 6741,
      "기획": 6742,
      "기타": 6743,
      "청와": 6744,
      "현장": 6745,
      "없다는": 6746,
      "오래": 6747,
      "없을": 6748,
      "##분을": 6749,
      "##문에": 6750,
      "##드로": 6751,
      "기술을": 6752,
      "의하여": 6753,
      "예컨대": 6754,
      "전원": 6755,
      "흐름": 6756,
      "2020": 6757,
      "로부터": 6758,
      "그것은": 6759,
      "공유": 6760,
      "미세": 6761,
      "불구하고": 6762,
      "바람직하게는": 6763,
      "건조": 6764,
      "가이드": 6765,
      "##자기": 6766,
      "원래": 6767,
      "##NA": 6768,
      "##학년": 6769,
      "보통": 6770,
      "나와": 6771,
      "속에": 6772,
      "항공": 6773,
      "##조차": 6774,
      "가공": 6775,
      "##군의": 6776,
      "상당히": 6777,
      "##화에": 6778,
      "그때": 6779,
      "##정부": 6780,
      "트랜지스터": 6781,
      "여행": 6782,
      "##oc": 6783,
      "##니아": 6784,
      "일반적으로": 6785,
      "남자": 6786,
      "오른": 6787,
      "방식으로": 6788,
      "##율을": 6789,
      "모르": 6790,
      "아시아": 6791,
      "냉각": 6792,
      "##겼다": 6793,
      "##과정": 6794,
      "##무원": 6795,
      "표준": 6796,
      "수직": 6797,
      "##화의": 6798,
      "다르": 6799,
      "구성된": 6800,
      "훈련": 6801,
      "보내": 6802,
      "지켜": 6803,
      "있었던": 6804,
      "##터리": 6805,
      "사용하여": 6806,
      "허용": 6807,
      "전시": 6808,
      "##우징": 6809,
      "##단이": 6810,
      "기여": 6811,
      "전반": 6812,
      "##ap": 6813,
      "예시": 6814,
      "민간": 6815,
      "##스코": 6816,
      "둘러": 6817,
      "##지와": 6818,
      "##이프": 6819,
      "##분에": 6820,
      "단일": 6821,
      "사람들은": 6822,
      "##이라도": 6823,
      "시각": 6824,
      "관심을": 6825,
      "없다고": 6826,
      "느낌": 6827,
      "대중": 6828,
      "사실상": 6829,
      "##조건": 6830,
      "##클로": 6831,
      "조작": 6832,
      "느끼": 6833,
      "엄청": 6834,
      "차단": 6835,
      "##술한": 6836,
      "노출": 6837,
      "프랑스": 6838,
      "확정": 6839,
      "자신을": 6840,
      "경남": 6841,
      "중에서": 6842,
      "내에서": 6843,
      "안에": 6844,
      "강조했다": 6845,
      "##활동": 6846,
      "확산": 6847,
      "2015년": 6848,
      "아마": 6849,
      "건축": 6850,
      "소자": 6851,
      "41": 6852,
      "##이라며": 6853,
      "밝혀": 6854,
      "부동산": 6855,
      "##주를": 6856,
      "196": 6857,
      "##하나": 6858,
      "38": 6859,
      "문제는": 6860,
      "되지": 6861,
      "##발전": 6862,
      "##아서": 6863,
      "##주택": 6864,
      "내의": 6865,
      "##웠다": 6866,
      "보이는": 6867,
      "##ir": 6868,
      "37": 6869,
      "적합": 6870,
      "##ess": 6871,
      "효과가": 6872,
      "것처럼": 6873,
      "바람직하다": 6874,
      "##웨어": 6875,
      "향후": 6876,
      "훨씬": 6877,
      "식별": 6878,
      "##플리": 6879,
      "불가능": 6880,
      "예방": 6881,
      "1만": 6882,
      "뿐만": 6883,
      "드라마": 6884,
      "절대": 6885,
      "##물에": 6886,
      "방사": 6887,
      "##도와": 6888,
      "and": 6889,
      "가지는": 6890,
      "##BC": 6891,
      "멤버": 6892,
      "정당": 6893,
      "방어": 6894,
      "내용을": 6895,
      "불법": 6896,
      "홍보": 6897,
      "##민주": 6898,
      "개방": 6899,
      "구체적으로": 6900,
      "##이한": 6901,
      "하는데": 6902,
      "##률이": 6903,
      "##구는": 6904,
      "수상": 6905,
      "전화": 6906,
      "청소년": 6907,
      "##보험": 6908,
      "만드는": 6909,
      "단백": 6910,
      "연계": 6911,
      "##감이": 6912,
      "지식": 6913,
      "##론을": 6914,
      "복수": 6915,
      "구분": 6916,
      "소설": 6917,
      "In": 6918,
      "강한": 6919,
      "포인트": 6920,
      "의원은": 6921,
      "##TA": 6922,
      "##제어": 6923,
      "불안": 6924,
      "##지게": 6925,
      "터치": 6926,
      "##종의": 6927,
      "##정은": 6928,
      "주식": 6929,
      "##다운": 6930,
      "배경": 6931,
      "##같이": 6932,
      "이야기를": 6933,
      "정부의": 6934,
      "##전에서": 6935,
      "전용": 6936,
      "못하는": 6937,
      "##회는": 6938,
      "돈을": 6939,
      "##일이": 6940,
      "##량의": 6941,
      "감사": 6942,
      "음식": 6943,
      "##선이": 6944,
      "52": 6945,
      "##선의": 6946,
      "입장": 6947,
      "##섰다": 6948,
      "이유로": 6949,
      "##op": 6950,
      "바닥": 6951,
      "받았": 6952,
      "##이라면": 6953,
      "시도": 6954,
      "##테나": 6955,
      "부착": 6956,
      "140": 6957,
      "##측에": 6958,
      "##리오": 6959,
      "변형": 6960,
      "패널": 6961,
      "도로": 6962,
      "바뀌": 6963,
      "실질": 6964,
      "사용되는": 6965,
      "공기": 6966,
      "그를": 6967,
      "수사": 6968,
      "##트라": 6969,
      "##서비스": 6970,
      "코팅": 6971,
      "##번호": 6972,
      "##전이": 6973,
      "하늘": 6974,
      "방안": 6975,
      "서비스를": 6976,
      "보니": 6977,
      "##해진": 6978,
      "##학과": 6979,
      "2014년": 6980,
      "확실": 6981,
      "2017년": 6982,
      "##위의": 6983,
      "2016년": 6984,
      "##공간": 6985,
      "##력의": 6986,
      "중인": 6987,
      "고민": 6988,
      "필요하다": 6989,
      "간의": 6990,
      "##에게는": 6991,
      "##하는것을특징으로": 6992,
      "나타나": 6993,
      "1000": 6994,
      "##ce": 6995,
      "디자인": 6996,
      "##스와": 6997,
      "엔진": 6998,
      "상황에서": 6999,
      "##서에": 7000,
      "##하려는": 7001,
      "현지": 7002,
      "##회로": 7003,
      "##거래": 7004,
      "사람의": 7005,
      "주파수": 7006,
      "##정한": 7007,
      "심각": 7008,
      "##기능": 7009,
      "##티브": 7010,
      "유치": 7011,
      "1일": 7012,
      "항상": 7013,
      "분양": 7014,
      "수집": 7015,
      "미국의": 7016,
      "##아야": 7017,
      "왔다": 7018,
      "베이스": 7019,
      "관통": 7020,
      "커버": 7021,
      "대책": 7022,
      "바탕으로": 7023,
      "성격": 7024,
      "##소가": 7025,
      "##력은": 7026,
      "하면서": 7027,
      "##상태": 7028,
      "정부는": 7029,
      "검증": 7030,
      "##비가": 7031,
      "##대학교": 7032,
      "있으나": 7033,
      "이외": 7034,
      "##선거": 7035,
      "브라": 7036,
      "##스러운": 7037,
      "이유는": 7038,
      "주고": 7039,
      "##유의": 7040,
      "인도": 7041,
      "이르": 7042,
      "##리콘": 7043,
      "어린이": 7044,
      "##겠지만": 7045,
      "화장": 7046,
      "##층의": 7047,
      "##나무": 7048,
      "원하는": 7049,
      "임의": 7050,
      "##간다": 7051,
      "##CT": 7052,
      "##포함": 7053,
      "억제": 7054,
      "##소에": 7055,
      "자원": 7056,
      "##인과": 7057,
      "법률": 7058,
      "##작용": 7059,
      "가치": 7060,
      "마법": 7061,
      "지금까지": 7062,
      "의사": 7063,
      "##층을": 7064,
      "범죄": 7065,
      "##트에": 7066,
      "재판": 7067,
      "##듯이": 7068,
      "##60": 7069,
      "##점으로": 7070,
      "##기고": 7071,
      "대표는": 7072,
      "##세가": 7073,
      "방법은": 7074,
      "않으면": 7075,
      "##시키기": 7076,
      "스포츠": 7077,
      "후반": 7078,
      "상태에서": 7079,
      "가슴": 7080,
      "2012년": 7081,
      "비중": 7082,
      "전했다": 7083,
      "가열": 7084,
      "##크릴": 7085,
      "##되어야": 7086,
      "이다": 7087,
      "##했는데": 7088,
      "##ct": 7089,
      "차례": 7090,
      "확장": 7091,
      "##un": 7092,
      "단말기": 7093,
      "##세기": 7094,
      "씨는": 7095,
      "##방송": 7096,
      "##이퍼": 7097,
      "만약": 7098,
      "43": 7099,
      "유입": 7100,
      "타고": 7101,
      "보도": 7102,
      "이름을": 7103,
      "##한다면": 7104,
      "기존의": 7105,
      "여기에": 7106,
      "프로젝": 7107,
      "##투자": 7108,
      "##이기도": 7109,
      "갈등": 7110,
      "점에서": 7111,
      "사는": 7112,
      "피부": 7113,
      "하락": 7114,
      "유통": 7115,
      "연료": 7116,
      "##명은": 7117,
      "온라인": 7118,
      "업체": 7119,
      "기념": 7120,
      "과정을": 7121,
      "##인으로": 7122,
      "##소의": 7123,
      "파괴": 7124,
      "##단은": 7125,
      "##이로": 7126,
      "아이템": 7127,
      "PC": 7128,
      "종래": 7129,
      "대응하는": 7130,
      "##위로": 7131,
      "##권의": 7132,
      "마음을": 7133,
      "완성": 7134,
      "비슷한": 7135,
      "경북": 7136,
      "합의": 7137,
      "국회의": 7138,
      "나누": 7139,
      "##플리케이션": 7140,
      "구간": 7141,
      "제출": 7142,
      "빠져": 7143,
      "형성되는": 7144,
      "혼자": 7145,
      "그녀는": 7146,
      "거리": 7147,
      "사람을": 7148,
      "2010년": 7149,
      "##재를": 7150,
      "##받은": 7151,
      "##지어": 7152,
      "졸업": 7153,
      "마이크로": 7154,
      "스마트폰": 7155,
      "전남": 7156,
      "##신을": 7157,
      "달러": 7158,
      "했지만": 7159,
      "##미노": 7160,
      "##공사": 7161,
      "##복지": 7162,
      "##만으로": 7163,
      "남편": 7164,
      "##레인": 7165,
      "반사": 7166,
      "나머지": 7167,
      "근로": 7168,
      "지배": 7169,
      "##지면서": 7170,
      "나왔다": 7171,
      "충분히": 7172,
      "##터를": 7173,
      "이탈": 7174,
      "##있다": 7175,
      "남북": 7176,
      "##제에": 7177,
      "약속": 7178,
      "소유": 7179,
      "##세계": 7180,
      "발생하는": 7181,
      "##키는": 7182,
      "소리": 7183,
      "것입니다": 7184,
      "나무": 7185,
      "월드": 7186,
      "##분석": 7187,
      "투명": 7188,
      "돌출": 7189,
      "55": 7190,
      "민족": 7191,
      "바이오": 7192,
      "이것은": 7193,
      "불러": 7194,
      "##명으로": 7195,
      "2013년": 7196,
      "##금융": 7197,
      "안내": 7198,
      "##회사": 7199,
      "##나가": 7200,
      "손을": 7201,
      "중합": 7202,
      "진단": 7203,
      "##문이": 7204,
      "압축": 7205,
      "##분이": 7206,
      "##놓고": 7207,
      "멀티": 7208,
      "제공한다": 7209,
      "##레이트": 7210,
      "단지": 7211,
      "놓고": 7212,
      "제어부": 7213,
      "있음": 7214,
      "걸쳐": 7215,
      "스페": 7216,
      "10년": 7217,
      "51": 7218,
      "소득": 7219,
      "3차": 7220,
      "재정": 7221,
      "여름": 7222,
      "그럼": 7223,
      "채용": 7224,
      "##조의": 7225,
      "##점은": 7226,
      "종교": 7227,
      "사업을": 7228,
      "작성": 7229,
      "##품을": 7230,
      "운전": 7231,
      "##차가": 7232,
      "인생": 7233,
      "게다가": 7234,
      "나를": 7235,
      "방침": 7236,
      "마치": 7237,
      "##ip": 7238,
      "치환": 7239,
      "조립": 7240,
      "이사": 7241,
      "품질": 7242,
      "트리": 7243,
      "##구에": 7244,
      "그들은": 7245,
      "##적이다": 7246,
      "타입": 7247,
      "완료": 7248,
      "##ab": 7249,
      "##력과": 7250,
      "##역을": 7251,
      "##한테": 7252,
      "하우징": 7253,
      "들고": 7254,
      "44": 7255,
      "##건설": 7256,
      "한국의": 7257,
      "##계가": 7258,
      "기지": 7259,
      "동물": 7260,
      "##스럽게": 7261,
      "장면": 7262,
      "##지기": 7263,
      "재생": 7264,
      "##하라": 7265,
      "우리의": 7266,
      "대출": 7267,
      "초반": 7268,
      "흡수": 7269,
      "##mm": 7270,
      "##함에": 7271,
      "대기": 7272,
      "가르": 7273,
      "혐의": 7274,
      "##니터": 7275,
      "포함한": 7276,
      "향해": 7277,
      "이익": 7278,
      "마찬가지로": 7279,
      "수정": 7280,
      "이라며": 7281,
      "##시를": 7282,
      "##히는": 7283,
      "48": 7284,
      "개별": 7285,
      "##분야": 7286,
      "수술": 7287,
      "사항": 7288,
      "없었": 7289,
      "##바이": 7290,
      "영어": 7291,
      "파일": 7292,
      "210": 7293,
      "외국인": 7294,
      "##스에": 7295,
      "메인": 7296,
      "5년": 7297,
      "자본": 7298,
      "##누리": 7299,
      "것이라는": 7300,
      "2011년": 7301,
      "##량은": 7302,
      "회의": 7303,
      "등과": 7304,
      "이론": 7305,
      "##전지": 7306,
      "비롯한": 7307,
      "##해주": 7308,
      "공통": 7309,
      "시대": 7310,
      "단백질": 7311,
      "##리며": 7312,
      "2018년": 7313,
      "구조를": 7314,
      "오프": 7315,
      "전부": 7316,
      "레이저": 7317,
      "그들의": 7318,
      "##점에": 7319,
      "분산": 7320,
      "##진을": 7321,
      "##안전": 7322,
      "인터페이스": 7323,
      "##정에": 7324,
      "##메틸": 7325,
      "추천": 7326,
      "건물": 7327,
      "고통": 7328,
      "##랫폼": 7329,
      "최고의": 7330,
      "떠나": 7331,
      "정리": 7332,
      "##케팅": 7333,
      "출발": 7334,
      "취업": 7335,
      "도움이": 7336,
      "##형태": 7337,
      "##시켰다": 7338,
      "것이었다": 7339,
      "수소": 7340,
      "원칙": 7341,
      "모터": 7342,
      "소프트": 7343,
      "싶은": 7344,
      "때까지": 7345,
      "이들의": 7346,
      "##와는": 7347,
      "의혹": 7348,
      "아내": 7349,
      "##ate": 7350,
      "근무": 7351,
      "##당한": 7352,
      "##전극": 7353,
      "##기기": 7354,
      "##건을": 7355,
      "국정": 7356,
      "벗어나": 7357,
      "로봇": 7358,
      "창출": 7359,
      "##뿐만": 7360,
      "그래도": 7361,
      "활동을": 7362,
      "아침": 7363,
      "대통령은": 7364,
      "##관의": 7365,
      "문학": 7366,
      "##고는": 7367,
      "검색": 7368,
      "군사": 7369,
      "##체로": 7370,
      "안테나": 7371,
      "##하겠다고": 7372,
      "##구나": 7373,
      "##호화": 7374,
      "인근": 7375,
      "상대로": 7376,
      "사전": 7377,
      "사상": 7378,
      "덧붙": 7379,
      "3일": 7380,
      "##CC": 7381,
      "있다면": 7382,
      "상태로": 7383,
      "발굴": 7384,
      "명의": 7385,
      "다니": 7386,
      "##마을": 7387,
      "몸을": 7388,
      "슈퍼": 7389,
      "마무": 7390,
      "처음으로": 7391,
      "다가": 7392,
      "리그": 7393,
      "##이즈": 7394,
      "##니스": 7395,
      "##연합": 7396,
      "##력에": 7397,
      "##우고": 7398,
      "강원": 7399,
      "##이너": 7400,
      "제도": 7401,
      "이벤트": 7402,
      "비디오": 7403,
      "##난다": 7404,
      "보장": 7405,
      "##받는": 7406,
      "생명": 7407,
      "체계": 7408,
      "앞에": 7409,
      "인간의": 7410,
      "39": 7411,
      "중단": 7412,
      "성형": 7413,
      "##인들이": 7414,
      "해양": 7415,
      "##어버": 7416,
      "주도": 7417,
      "##드에": 7418,
      "얘기": 7419,
      "원자": 7420,
      "바꾸": 7421,
      "애니": 7422,
      "차별": 7423,
      "##시험": 7424,
      "2008년": 7425,
      "대답": 7426,
      "차이가": 7427,
      "등은": 7428,
      "##해를": 7429,
      "##지면": 7430,
      "재미": 7431,
      "여부를": 7432,
      "##경을": 7433,
      "실현": 7434,
      "리더": 7435,
      "연기": 7436,
      "발언": 7437,
      "기울": 7438,
      "모니터": 7439,
      "갑자기": 7440,
      "맞는": 7441,
      "이로": 7442,
      "##았던": 7443,
      "늘어": 7444,
      "##반기": 7445,
      "유전자": 7446,
      "신고": 7447,
      "그것을": 7448,
      "##율은": 7449,
      "##식으로": 7450,
      "눈에": 7451,
      "202": 7452,
      "##부로": 7453,
      "포기": 7454,
      "사태": 7455,
      "외교": 7456,
      "##지요": 7457,
      "접착": 7458,
      "달려": 7459,
      "75": 7460,
      "나의": 7461,
      "강력한": 7462,
      "예비": 7463,
      "미디어": 7464,
      "추가로": 7465,
      "##소득": 7466,
      "##주가": 7467,
      "상관": 7468,
      "알려졌다": 7469,
      "서열": 7470,
      "##어의": 7471,
      "##금이": 7472,
      "특성을": 7473,
      "겨울": 7474,
      "##이익": 7475,
      "##전의": 7476,
      "##비용": 7477,
      "유저": 7478,
      "##ell": 7479,
      "적은": 7480,
      "자녀": 7481,
      "이송": 7482,
      "##기준": 7483,
      "중이다": 7484,
      "##15": 7485,
      "비트": 7486,
      "보여주": 7487,
      "전지": 7488,
      "##군이": 7489,
      "##근혜": 7490,
      "인접": 7491,
      "대부분의": 7492,
      "자체가": 7493,
      "자리를": 7494,
      "##판을": 7495,
      "밖에": 7496,
      "축구": 7497,
      "많아": 7498,
      "보수": 7499,
      "바다": 7500,
      "##시킨다": 7501,
      "식품": 7502,
      "공중": 7503,
      "성과": 7504,
      "승리": 7505,
      "실리콘": 7506,
      "끌어": 7507,
      "##계에": 7508,
      "음성": 7509,
      "##어지는": 7510,
      "##트롤": 7511,
      "2009년": 7512,
      "##분기": 7513,
      "새로": 7514,
      "케이스": 7515,
      "버스": 7516,
      "2020년": 7517,
      "대통령이": 7518,
      "쓰는": 7519,
      "산출": 7520,
      "남성": 7521,
      "메틸": 7522,
      "통일": 7523,
      "형성되어": 7524,
      "앞에서": 7525,
      "##서의": 7526,
      "##ity": 7527,
      "국민의": 7528,
      "계열": 7529,
      "##사고": 7530,
      "##조합": 7531,
      "대화": 7532,
      "##원과": 7533,
      "종료": 7534,
      "아프": 7535,
      "##재인": 7536,
      "##분의": 7537,
      "##씨가": 7538,
      "시스템을": 7539,
      "##데이터": 7540,
      "잠시": 7541,
      "밸브": 7542,
      "65": 7543,
      "새누리": 7544,
      "우수한": 7545,
      "고속": 7546,
      "인가": 7547,
      "인터뷰": 7548,
      "그녀의": 7549,
      "##먼트": 7550,
      "눈을": 7551,
      "##당은": 7552,
      "얻을": 7553,
      "잡아": 7554,
      "파라": 7555,
      "##했으나": 7556,
      "가상": 7557,
      "##13": 7558,
      "수평": 7559,
      "형태의": 7560,
      "##효과": 7561,
      "보상": 7562,
      "나선": 7563,
      "##당이": 7564,
      "##렀다": 7565,
      "회장": 7566,
      "##자치": 7567,
      "##회에": 7568,
      "작가": 7569,
      "변호": 7570,
      "장치의": 7571,
      "상대적으로": 7572,
      "##ine": 7573,
      "거부": 7574,
      "##어는": 7575,
      "##하였고": 7576,
      "블랙": 7577,
      "피해를": 7578,
      "가로": 7579,
      "##류를": 7580,
      "창업": 7581,
      "##70": 7582,
      "##영상": 7583,
      "내부에": 7584,
      "##군은": 7585,
      "심지어": 7586,
      "##페이지": 7587,
      "##목을": 7588,
      "위치한": 7589,
      "높다": 7590,
      "##말로": 7591,
      "직업": 7592,
      "매년": 7593,
      "빠른": 7594,
      "##권이": 7595,
      "내놓": 7596,
      "했던": 7597,
      "수립": 7598,
      "적층": 7599,
      "##TE": 7600,
      "방법으로": 7601,
      "공부": 7602,
      "그에": 7603,
      "##받고": 7604,
      "##문의": 7605,
      "연출": 7606,
      "스피": 7607,
      "통해서": 7608,
      "보안": 7609,
      "통상": 7610,
      "##카드": 7611,
      "경우도": 7612,
      "##려면": 7613,
      "##if": 7614,
      "완전": 7615,
      "지구": 7616,
      "박근혜": 7617,
      "단체": 7618,
      "동기": 7619,
      "##자동": 7620,
      "하게": 7621,
      "##즈마": 7622,
      "플랫폼": 7623,
      "##시오": 7624,
      "그리스": 7625,
      "인공": 7626,
      "##님이": 7627,
      "5일": 7628,
      "##이었던": 7629,
      "투표": 7630,
      "구속": 7631,
      "포함된": 7632,
      "제5": 7633,
      "연관": 7634,
      "촉매": 7635,
      "##og": 7636,
      "##만에": 7637,
      "위반": 7638,
      "생각해": 7639,
      "비롯해": 7640,
      "무시": 7641,
      "진입": 7642,
      "상태를": 7643,
      "아예": 7644,
      "발현": 7645,
      "##프라": 7646,
      "걱정": 7647,
      "상황을": 7648,
      "##님의": 7649,
      "규제": 7650,
      "St": 7651,
      "생각이": 7652,
      "기사": 7653,
      "##모듈": 7654,
      "##yl": 7655,
      "IT": 7656,
      "##프레임": 7657,
      "펼쳐": 7658,
      "맞아": 7659,
      "개혁": 7660,
      "엘리": 7661,
      "가까운": 7662,
      "가능하게": 7663,
      "##버스": 7664,
      "청와대": 7665,
      "도착": 7666,
      "에는": 7667,
      "##에만": 7668,
      "꾸준": 7669,
      "작년": 7670,
      "일본의": 7671,
      "이용해": 7672,
      "매일": 7673,
      "나타낸다": 7674,
      "있으면": 7675,
      "친환경": 7676,
      "대선": 7677,
      "빨리": 7678,
      "관심이": 7679,
      "##리드": 7680,
      "주의": 7681,
      "2019년": 7682,
      "##까지는": 7683,
      "전면": 7684,
      "링크": 7685,
      "##교통": 7686,
      "53": 7687,
      "유동": 7688,
      "생각을": 7689,
      "##200": 7690,
      "관계를": 7691,
      "생존": 7692,
      "195": 7693,
      "##률을": 7694,
      "일은": 7695,
      "맞춰": 7696,
      "##루미": 7697,
      "##션을": 7698,
      "인상": 7699,
      "비행": 7700,
      "##80": 7701,
      "요즘": 7702,
      "##치의": 7703,
      "섬유": 7704,
      "불편": 7705,
      "속도": 7706,
      "긍정": 7707,
      "##and": 7708,
      "이중": 7709,
      "이온": 7710,
      "##화와": 7711,
      "길을": 7712,
      "##스토": 7713,
      "46": 7714,
      "지속적으로": 7715,
      "##받아": 7716,
      "국토": 7717,
      "미치는": 7718,
      "비밀": 7719,
      "제가": 7720,
      "교수는": 7721,
      "전개": 7722,
      "유효": 7723,
      "변화를": 7724,
      "##틸렌": 7725,
      "##시즌": 7726,
      "크로": 7727,
      "##14": 7728,
      "이내": 7729,
      "정도의": 7730,
      "인수": 7731,
      "만한": 7732,
      "질환": 7733,
      "##나마": 7734,
      "구체적인": 7735,
      "##국이": 7736,
      "극복": 7737,
      "10일": 7738,
      "소통": 7739,
      "##가스": 7740,
      "그린": 7741,
      "정규": 7742,
      "때마다": 7743,
      "##영역": 7744,
      "자랑": 7745,
      "마무리": 7746,
      "응용": 7747,
      "62": 7748,
      "##많은": 7749,
      "복지": 7750,
      "앞두고": 7751,
      "불가": 7752,
      "KT": 7753,
      "##구성": 7754,
      "높이": 7755,
      "거야": 7756,
      "아르": 7757,
      "##보호": 7758,
      "기초하여": 7759,
      "알킬": 7760,
      "194": 7761,
      "필수": 7762,
      "##회에서": 7763,
      "출전": 7764,
      "간단": 7765,
      "배터리": 7766,
      "그것이": 7767,
      "중의": 7768,
      "##하겠다": 7769,
      "도시한": 7770,
      "##물로": 7771,
      "##게임": 7772,
      "##식의": 7773,
      "듣고": 7774,
      "##마저": 7775,
      "##증을": 7776,
      "마케팅": 7777,
      "##상에서": 7778,
      "##라운드": 7779,
      "##보니": 7780,
      "##분자": 7781,
      "융합": 7782,
      "코스": 7783,
      "The": 7784,
      "복잡": 7785,
      "초과": 7786,
      "선언": 7787,
      "##당의": 7788,
      "움직임": 7789,
      "##관광": 7790,
      "기회를": 7791,
      "일자리": 7792,
      "있음을": 7793,
      "끝나": 7794,
      "형성하는": 7795,
      "수원": 7796,
      "방법에": 7797,
      "##단지": 7798,
      "##법에": 7799,
      "폭발": 7800,
      "말씀": 7801,
      "세월": 7802,
      "정치적": 7803,
      "##만한": 7804,
      "##치지": 7805,
      "##ers": 7806,
      "##되게": 7807,
      "##음이": 7808,
      "오랜": 7809,
      "진짜": 7810,
      "않게": 7811,
      "##그래": 7812,
      "최초로": 7813,
      "##방을": 7814,
      "54": 7815,
      "##피언": 7816,
      "3개": 7817,
      "파워": 7818,
      "##되거나": 7819,
      "본체": 7820,
      "지역의": 7821,
      "지시": 7822,
      "운용": 7823,
      "신용": 7824,
      "##공항": 7825,
      "##리게": 7826,
      "경우는": 7827,
      "##했습니다": 7828,
      "증폭": 7829,
      "그러한": 7830,
      "15일": 7831,
      "않도록": 7832,
      "##든지": 7833,
      "##력으로": 7834,
      "교체": 7835,
      "##igh": 7836,
      "대표적인": 7837,
      "수학": 7838,
      "소스": 7839,
      "광학": 7840,
      "떨어진": 7841,
      "##ep": 7842,
      "##주시": 7843,
      "220": 7844,
      "능력을": 7845,
      "2개": 7846,
      "대기업": 7847,
      "아버지": 7848,
      "실천": 7849,
      "상황이": 7850,
      "##하여야": 7851,
      "에어": 7852,
      "농업": 7853,
      "알려져": 7854,
      "20일": 7855,
      "##선에": 7856,
      "회원": 7857,
      "##리즘": 7858,
      "위협": 7859,
      "문재인": 7860,
      "데뷔": 7861,
      "단면": 7862,
      "점점": 7863,
      "패키": 7864,
      "경향": 7865,
      "혜택": 7866,
      "상징": 7867,
      "2일": 7868,
      "##거운": 7869,
      "기업의": 7870,
      "상하": 7871,
      "삶의": 7872,
      "##다른": 7873,
      "명칭": 7874,
      "교환": 7875,
      "##산의": 7876,
      "7일": 7877,
      "있다며": 7878,
      "용이": 7879,
      "프로그램을": 7880,
      "구입": 7881,
      "수많은": 7882,
      "##길을": 7883,
      "가질": 7884,
      "렌즈": 7885,
      "패킷": 7886,
      "샘플": 7887,
      "##터의": 7888,
      "2007년": 7889,
      "다중": 7890,
      "아니면": 7891,
      "##경찰": 7892,
      "해당하는": 7893,
      "##사항": 7894,
      "##진이": 7895,
      "##모델": 7896,
      "##자들": 7897,
      "##체육": 7898,
      "충격": 7899,
      "##가고": 7900,
      "도움을": 7901,
      "의견을": 7902,
      "스프": 7903,
      "##세스": 7904,
      "다소": 7905,
      "for": 7906,
      "##이야": 7907,
      "##호를": 7908,
      "##쪽으로": 7909,
      "우주": 7910,
      "기반으로": 7911,
      "관찰": 7912,
      "##서가": 7913,
      "금지": 7914,
      "머리": 7915,
      "##화는": 7916,
      "주장했다": 7917,
      "아무리": 7918,
      "일어": 7919,
      "창조": 7920,
      "공무원": 7921,
      "단계를": 7922,
      "하자": 7923,
      "누가": 7924,
      "집단": 7925,
      "##전압": 7926,
      "600": 7927,
      "4일": 7928,
      "기록했다": 7929,
      "흔들": 7930,
      "갖추": 7931,
      "지키": 7932,
      "##트리": 7933,
      "스케": 7934,
      "##레이드": 7935,
      "철저": 7936,
      "##IN": 7937,
      "실시간": 7938,
      "##로드": 7939,
      "있어야": 7940,
      "지연": 7941,
      "##구역": 7942,
      "연결된": 7943,
      "나아가": 7944,
      "##소재": 7945,
      "의하면": 7946,
      "챔버": 7947,
      "##문학": 7948,
      "도와": 7949,
      "사용자의": 7950,
      "편의": 7951,
      "이처럼": 7952,
      "지금은": 7953,
      "##식품": 7954,
      "##기판": 7955,
      "의미를": 7956,
      "조명": 7957,
      "부하": 7958,
      "##증권": 7959,
      "세종": 7960,
      "##16": 7961,
      "바람직한": 7962,
      "##수에": 7963,
      "의무": 7964,
      "##리티": 7965,
      "화면": 7966,
      "##면서도": 7967,
      "관련해": 7968,
      "동료": 7969,
      "##소는": 7970,
      "대사": 7971,
      "##실시": 7972,
      "##부장": 7973,
      "어떠": 7974,
      "분할": 7975,
      "##부에서": 7976,
      "##심히": 7977,
      "대통령의": 7978,
      "##IC": 7979,
      "##대상": 7980,
      "스위치": 7981,
      "##활성": 7982,
      "생긴": 7983,
      "발매": 7984,
      "47": 7985,
      "위치를": 7986,
      "아울": 7987,
      "##가락": 7988,
      "국방": 7989,
      "무엇보다": 7990,
      "##일까": 7991,
      "확인할": 7992,
      "##비는": 7993,
      "이른": 7994,
      "분자": 7995,
      "빠르게": 7996,
      "말하는": 7997,
      "인쇄": 7998,
      "자극": 7999,
      "올려": 8000,
      "##ev": 8001,
      "##세트": 8002,
      "##기지": 8003,
      "메이": 8004,
      "존재하는": 8005,
      "뛰어": 8006,
      "골프": 8007,
      "강남": 8008,
      "최저": 8009,
      "대규모": 8010,
      "여론": 8011,
      "호텔": 8012,
      "증거": 8013,
      "2000": 8014,
      "고양": 8015,
      "사용될": 8016,
      "구성요": 8017,
      "자율": 8018,
      "연구는": 8019,
      "##스티": 8020,
      "##일의": 8021,
      "저는": 8022,
      "1위": 8023,
      "##다니": 8024,
      "##었지만": 8025,
      "방안을": 8026,
      "##표를": 8027,
      "선박": 8028,
      "선진": 8029,
      "소환": 8030,
      "제외한": 8031,
      "지상": 8032,
      "하나를": 8033,
      "##주로": 8034,
      "육성": 8035,
      "인지": 8036,
      "보기": 8037,
      "받지": 8038,
      "##로서의": 8039,
      "판결": 8040,
      "들었다": 8041,
      "##예술": 8042,
      "##타를": 8043,
      "##억원을": 8044,
      "이루어지는": 8045,
      "끝에": 8046,
      "희생": 8047,
      "##가에": 8048,
      "##NS": 8049,
      "목적으로": 8050,
      "49": 8051,
      "느껴": 8052,
      "##로그": 8053,
      "덧붙였다": 8054,
      "생물": 8055,
      "개구": 8056,
      "위치에": 8057,
      "면역": 8058,
      "포함하여": 8059,
      "평가를": 8060,
      "##리적": 8061,
      "가득": 8062,
      "##코딩": 8063,
      "오르": 8064,
      "오브": 8065,
      "환자": 8066,
      "늘어나": 8067,
      "부탁": 8068,
      "절반": 8069,
      "64": 8070,
      "##병원": 8071,
      "테스트": 8072,
      "3D": 8073,
      "아니고": 8074,
      "##튜브": 8075,
      "##성장": 8076,
      "##자원": 8077,
      "탄성": 8078,
      "##치로": 8079,
      "##노동": 8080,
      "인구": 8081,
      "생태": 8082,
      "현상": 8083,
      "##라우": 8084,
      "오염": 8085,
      "임대": 8086,
      "쏟아": 8087,
      "##결정": 8088,
      "대로": 8089,
      "##선수": 8090,
      "당선": 8091,
      "동아": 8092,
      "##형성": 8093,
      "주문": 8094,
      "56": 8095,
      "부르": 8096,
      "주입": 8097,
      "보이고": 8098,
      "의존": 8099,
      "8일": 8100,
      "##IS": 8101,
      "포함하며": 8102,
      "장치는": 8103,
      "확립": 8104,
      "크리스": 8105,
      "들여": 8106,
      "1천": 8107,
      "##ect": 8108,
      "엄청난": 8109,
      "유니": 8110,
      "전도": 8111,
      "의미한다": 8112,
      "언어": 8113,
      "국립": 8114,
      "##화학": 8115,
      "토론": 8116,
      "##네이트": 8117,
      "상담": 8118,
      "##항공": 8119,
      "##보를": 8120,
      "보이": 8121,
      "맞추": 8122,
      "헌법": 8123,
      "14일": 8124,
      "25일": 8125,
      "##요일": 8126,
      "이란": 8127,
      "##방향으로": 8128,
      "##안이": 8129,
      "##적으로는": 8130,
      "##RA": 8131,
      "면서": 8132,
      "##어져": 8133,
      "취득": 8134,
      "준다": 8135,
      "받아들": 8136,
      "1에": 8137,
      "선택된": 8138,
      "모습이": 8139,
      "##사용": 8140,
      "평화": 8141,
      "1의": 8142,
      "사이에서": 8143,
      "조성물": 8144,
      "올림픽": 8145,
      "하나로": 8146,
      "협의": 8147,
      "##링크": 8148,
      "적절한": 8149,
      "특별한": 8150,
      "##인에": 8151,
      "##사에서": 8152,
      "천연": 8153,
      "112": 8154,
      "깊은": 8155,
      "아동": 8156,
      "##협회": 8157,
      "##PS": 8158,
      "11일": 8159,
      "다운": 8160,
      "상위": 8161,
      "인기": 8162,
      "12일": 8163,
      "##정으로": 8164,
      "발생한": 8165,
      "비상": 8166,
      "입장을": 8167,
      "죽음": 8168,
      "시작한": 8169,
      "##가능한": 8170,
      "##유닛": 8171,
      "전년": 8172,
      "측은": 8173,
      "al": 8174,
      "장치를": 8175,
      "명세": 8176,
      "아울러": 8177,
      "아들": 8178,
      "몬스터": 8179,
      "가서": 8180,
      "병원": 8181,
      "감안": 8182,
      "지적했다": 8183,
      "Ch": 8184,
      "경로": 8185,
      "##idth": 8186,
      "##하겠다는": 8187,
      "연구를": 8188,
      "남은": 8189,
      "케이블": 8190,
      "6일": 8191,
      "무료": 8192,
      "##였고": 8193,
      "맞춤": 8194,
      "##조를": 8195,
      "##ia": 8196,
      "##값을": 8197,
      "말해": 8198,
      "##전문": 8199,
      "160": 8200,
      "9일": 8201,
      "##정보를": 8202,
      "##막을": 8203,
      "LED": 8204,
      "문을": 8205,
      "180": 8206,
      "웨이퍼": 8207,
      "##제1": 8208,
      "이웃": 8209,
      "알게": 8210,
      "##인들의": 8211,
      "할인": 8212,
      "감독은": 8213,
      "수도권": 8214,
      "지원을": 8215,
      "##문은": 8216,
      "완벽": 8217,
      "18일": 8218,
      "경제적": 8219,
      "1인": 8220,
      "##비아": 8221,
      "제일": 8222,
      "감염": 8223,
      "##겠습니다": 8224,
      "보이지": 8225,
      "##프를": 8226,
      "양성": 8227,
      "제품을": 8228,
      "사용한": 8229,
      "05": 8230,
      "컬러": 8231,
      "4년": 8232,
      "형상": 8233,
      "##드와": 8234,
      "덕분에": 8235,
      "형성될": 8236,
      "유용": 8237,
      "챔피언": 8238,
      "저녁": 8239,
      "당연히": 8240,
      "문서": 8241,
      "교과": 8242,
      "CD": 8243,
      "아크릴": 8244,
      "방향을": 8245,
      "17일": 8246,
      "##부모": 8247,
      "##함이": 8248,
      "##레이션": 8249,
      "항목": 8250,
      "나타내": 8251,
      "Al": 8252,
      "단독": 8253,
      "소비자": 8254,
      "16일": 8255,
      "셈이다": 8256,
      "넘는": 8257,
      "##신호를": 8258,
      "##을까": 8259,
      "##크로": 8260,
      "부분을": 8261,
      "뒤에": 8262,
      "1H": 8263,
      "21일": 8264,
      "##지며": 8265,
      "사람들": 8266,
      "가동": 8267,
      "##메이션": 8268,
      "비정": 8269,
      "72": 8270,
      "##경영": 8271,
      "22일": 8272,
      "말고": 8273,
      "지자": 8274,
      "별로": 8275,
      "나왔": 8276,
      "책을": 8277,
      "##산이": 8278,
      "##국은": 8279,
      "배열": 8280,
      "27일": 8281,
      "##치게": 8282,
      "##는가": 8283,
      "##들어": 8284,
      "것이며": 8285,
      "26일": 8286,
      "까지": 8287,
      "##금은": 8288,
      "##신이": 8289,
      "복귀": 8290,
      "하드": 8291,
      "홈페이지": 8292,
      "주차": 8293,
      "19일": 8294,
      "유형": 8295,
      "##지방": 8296,
      "둘째": 8297,
      "수업": 8298,
      "영상을": 8299,
      "##ive": 8300,
      "점검": 8301,
      "진동": 8302,
      "##18": 8303,
      "23일": 8304,
      "직후": 8305,
      "삶을": 8306,
      "컨트롤": 8307,
      "어렵다": 8308,
      "28일": 8309,
      "운행": 8310,
      "용액": 8311,
      "앨범": 8312,
      "말에": 8313,
      "영웅": 8314,
      "시스템의": 8315,
      "CO": 8316,
      "열심히": 8317,
      "24일": 8318,
      "패배": 8319,
      "거주": 8320,
      "장관": 8321,
      "##뮤니": 8322,
      "압력": 8323,
      "시기": 8324,
      "활약": 8325,
      "명확": 8326,
      "##선은": 8327,
      "##되었고": 8328,
      "나이": 8329,
      "13일": 8330,
      "##등급": 8331,
      "임시": 8332,
      "참조하면": 8333,
      "임의의": 8334,
      "제조방법": 8335,
      "##간에": 8336,
      "고개를": 8337,
      "##크를": 8338,
      "##명에": 8339,
      "다루": 8340,
      "방법이": 8341,
      "##ER": 8342,
      "중국의": 8343,
      "99": 8344,
      "##어링": 8345,
      "##수도": 8346,
      "저하": 8347,
      "집행": 8348,
      "처벌": 8349,
      "##GA": 8350,
      "등에서": 8351,
      "##석을": 8352,
      "사장": 8353,
      "st": 8354,
      "##차는": 8355,
      "##대에서": 8356,
      "데미": 8357,
      "모니터링": 8358,
      "##00만": 8359,
      "250": 8360,
      "돌아가": 8361,
      "##안에": 8362,
      "한반": 8363,
      "사용자가": 8364,
      "제공할": 8365,
      "##av": 8366,
      "##조직": 8367,
      "주관": 8368,
      "전망이다": 8369,
      "##했기": 8370,
      "먹고": 8371,
      "02": 8372,
      "102": 8373,
      "거기": 8374,
      "아닐": 8375,
      "사람들의": 8376,
      "##성도": 8377,
      "대법": 8378,
      "반발": 8379,
      "##제한": 8380,
      "도출": 8381,
      "라며": 8382,
      "##식에": 8383,
      "질병": 8384,
      "##미를": 8385,
      "##각을": 8386,
      "벌어": 8387,
      "##심이": 8388,
      "가수": 8389,
      "##실에서": 8390,
      "상처": 8391,
      "성적": 8392,
      "공사": 8393,
      "##보자": 8394,
      "값을": 8395,
      "##라이드": 8396,
      "설치된": 8397,
      "마음이": 8398,
      "##하였으며": 8399,
      "전북": 8400,
      "목표로": 8401,
      "지휘": 8402,
      "컨텐츠": 8403,
      "##km": 8404,
      "그만": 8405,
      "보건": 8406,
      "적극적으로": 8407,
      "열어": 8408,
      "##수신": 8409,
      "##트남": 8410,
      "있는지": 8411,
      "##류의": 8412,
      "아는": 8413,
      "##협의": 8414,
      "뛰어난": 8415,
      "85": 8416,
      "##제도": 8417,
      "연간": 8418,
      "말이다": 8419,
      "마스크": 8420,
      "크다": 8421,
      "##기구": 8422,
      "모르는": 8423,
      "고급": 8424,
      "PD": 8425,
      "##기반": 8426,
      "##진은": 8427,
      "근접": 8428,
      "##학을": 8429,
      "돌려": 8430,
      "##제와": 8431,
      "##화에서": 8432,
      "커피": 8433,
      "##아버": 8434,
      "##사이": 8435,
      "살고": 8436,
      "주기": 8437,
      "##주년": 8438,
      "수비": 8439,
      "이달": 8440,
      "지닌": 8441,
      "##공급": 8442,
      "##대책": 8443,
      "베이": 8444,
      "##호는": 8445,
      "##하려고": 8446,
      "자격": 8447,
      "설정된": 8448,
      "메시지를": 8449,
      "상의": 8450,
      "회장은": 8451,
      "액정": 8452,
      "노인": 8453,
      "코드": 8454,
      "좌우": 8455,
      "소정의": 8456,
      "다수": 8457,
      "##ov": 8458,
      "경계": 8459,
      "활용한": 8460,
      "적합한": 8461,
      "찾는": 8462,
      "따로": 8463,
      "##당을": 8464,
      "취급": 8465,
      "2개의": 8466,
      "59": 8467,
      "##하므로": 8468,
      "반응을": 8469,
      "보여주는": 8470,
      "드래": 8471,
      "아름다운": 8472,
      "##부터는": 8473,
      "방출": 8474,
      "mm": 8475,
      "##럼프": 8476,
      "##리면": 8477,
      "##PC": 8478,
      "한나라": 8479,
      "##지에서": 8480,
      "##TV": 8481,
      "있었고": 8482,
      "to": 8483,
      "입주": 8484,
      "KBS": 8485,
      "교사": 8486,
      "##체와": 8487,
      "평소": 8488,
      "힘든": 8489,
      "연결되어": 8490,
      "이상을": 8491,
      "##민의": 8492,
      "있으므로": 8493,
      "물을": 8494,
      "기술적": 8495,
      "##패시": 8496,
      "선호": 8497,
      "193": 8498,
      "##화로": 8499,
      "드라이": 8500,
      "##수와": 8501,
      "의해서": 8502,
      "발달": 8503,
      "누군": 8504,
      "##잖아": 8505,
      "분노": 8506,
      "##청은": 8507,
      "발휘": 8508,
      "적응": 8509,
      "##레벨": 8510,
      "생체": 8511,
      "센터": 8512,
      "##생을": 8513,
      "##MA": 8514,
      "위로": 8515,
      "아미노": 8516,
      "실시예에서": 8517,
      "설명한다": 8518,
      "디자": 8519,
      "##시대": 8520,
      "크기": 8521,
      "##식은": 8522,
      "청구항": 8523,
      "보급": 8524,
      "어떠한": 8525,
      "##질환": 8526,
      "비교적": 8527,
      "차이": 8528,
      "알려진": 8529,
      "열고": 8530,
      "신속": 8531,
      "에피": 8532,
      "##결과": 8533,
      "비난": 8534,
      "구멍": 8535,
      "##미드": 8536,
      "놀라": 8537,
      "시트": 8538,
      "##었다고": 8539,
      "해소": 8540,
      "##수한": 8541,
      "노조": 8542,
      "##자들을": 8543,
      "##위치": 8544,
      "충돌": 8545,
      "##개로": 8546,
      "연습": 8547,
      "명이": 8548,
      "테이블": 8549,
      "제6": 8550,
      "이의": 8551,
      "관객": 8552,
      "중요하다": 8553,
      "규모의": 8554,
      "미술": 8555,
      "강제": 8556,
      "정확한": 8557,
      "##았고": 8558,
      "활발": 8559,
      "결코": 8560,
      "소송": 8561,
      "##습니까": 8562,
      "참고로": 8563,
      "듯한": 8564,
      "직장": 8565,
      "##망을": 8566,
      "전방": 8567,
      "이용하는": 8568,
      "63": 8569,
      "##리트": 8570,
      "마스터": 8571,
      "몇몇": 8572,
      "규명": 8573,
      "스위칭": 8574,
      "실내": 8575,
      "##화하는": 8576,
      "95": 8577,
      "##군을": 8578,
      "뉴욕": 8579,
      "나올": 8580,
      "충남": 8581,
      "야구": 8582,
      "형성되고": 8583,
      "##서관": 8584,
      "##루오": 8585,
      "탑재": 8586,
      "##장애": 8587,
      "##여서": 8588,
      "글을": 8589,
      "이라": 8590,
      "간격": 8591,
      "갖춘": 8592,
      "굉장": 8593,
      "마주": 8594,
      "진공": 8595,
      "##가로": 8596,
      "##스틱": 8597,
      "이용할": 8598,
      "30일": 8599,
      "##회담": 8600,
      "꾸준히": 8601,
      "클래": 8602,
      "이들이": 8603,
      "박막": 8604,
      "점이": 8605,
      "발사": 8606,
      "##ak": 8607,
      "다르게": 8608,
      "산화물": 8609,
      "원내": 8610,
      "근본": 8611,
      "행위": 8612,
      "##실시예": 8613,
      "힘이": 8614,
      "##르크": 8615,
      "##ide": 8616,
      "것이고": 8617,
      "역대": 8618,
      "##비의": 8619,
      "그러므로": 8620,
      "메타": 8621,
      "##일보": 8622,
      "떠올": 8623,
      "##히고": 8624,
      "부문": 8625,
      "추구": 8626,
      "창의": 8627,
      "소프트웨어": 8628,
      "##ub": 8629,
      "##전은": 8630,
      "알루미": 8631,
      "거짓": 8632,
      "흘러": 8633,
      "##상품": 8634,
      "검은": 8635,
      "모아": 8636,
      "##석이": 8637,
      "##시고": 8638,
      "집에": 8639,
      "발행": 8640,
      "2006년": 8641,
      "기지국": 8642,
      "##들에서": 8643,
      "무역": 8644,
      "##액은": 8645,
      "##지구": 8646,
      "화학식": 8647,
      "좋지": 8648,
      "배양": 8649,
      "곳에": 8650,
      "열리는": 8651,
      "대역": 8652,
      "정지": 8653,
      "번역": 8654,
      "수준의": 8655,
      "##ist": 8656,
      "단순히": 8657,
      "##층은": 8658,
      "그럴": 8659,
      "도면이다": 8660,
      "유발": 8661,
      "##계약": 8662,
      "대변": 8663,
      "경사": 8664,
      "괜찮": 8665,
      "그렇지": 8666,
      "화상": 8667,
      "쓰고": 8668,
      "전형": 8669,
      "두려": 8670,
      "베트남": 8671,
      "##보았다": 8672,
      "걸어": 8673,
      "##전략": 8674,
      "자가": 8675,
      "01": 8676,
      "장소": 8677,
      "짧은": 8678,
      "재배": 8679,
      "접합": 8680,
      "아니었다": 8681,
      "가압": 8682,
      "58": 8683,
      "##ran": 8684,
      "##시티": 8685,
      "모집": 8686,
      "##AC": 8687,
      "신설": 8688,
      "당장": 8689,
      "마침": 8690,
      "주거": 8691,
      "##었는데": 8692,
      "마이": 8693,
      "입을": 8694,
      "명예": 8695,
      "그곳": 8696,
      "일상": 8697,
      "얼굴을": 8698,
      "시점": 8699,
      "이것이": 8700,
      "때에는": 8701,
      "##로우": 8702,
      "##로가": 8703,
      "부분이": 8704,
      "동의": 8705,
      "의심": 8706,
      "일반적인": 8707,
      "화소": 8708,
      "안에서": 8709,
      "##cm": 8710,
      "앉아": 8711,
      "영역을": 8712,
      "이하의": 8713,
      "##한국": 8714,
      "못할": 8715,
      "용매": 8716,
      "최대한": 8717,
      "선물": 8718,
      "##호가": 8719,
      "나섰다": 8720,
      "본다": 8721,
      "##ib": 8722,
      "오픈": 8723,
      "##률은": 8724,
      "상황에": 8725,
      "감시": 8726,
      "플레이트": 8727,
      "##권에": 8728,
      "안타": 8729,
      "주행": 8730,
      "이미지를": 8731,
      "##하면서도": 8732,
      "##공원": 8733,
      "것인": 8734,
      "소형": 8735,
      "소리를": 8736,
      "##승을": 8737,
      "##이브": 8738,
      "##면의": 8739,
      "깊이": 8740,
      "제목": 8741,
      "이명": 8742,
      "##호의": 8743,
      "약간": 8744,
      "자금": 8745,
      "블루": 8746,
      "57": 8747,
      "공모": 8748,
      "이탈리아": 8749,
      "트럼프": 8750,
      "소녀": 8751,
      "월드컵": 8752,
      "##바로": 8753,
      "신체": 8754,
      "그나마": 8755,
      "로드": 8756,
      "4개": 8757,
      "점차": 8758,
      "새롭게": 8759,
      "일이다": 8760,
      "부가": 8761,
      "때도": 8762,
      "사과": 8763,
      "##25": 8764,
      "MBC": 8765,
      "##IA": 8766,
      "대단": 8767,
      "신문": 8768,
      "##중량": 8769,
      "뿐이다": 8770,
      "상당한": 8771,
      "유명한": 8772,
      "첫째": 8773,
      "내측": 8774,
      "가까이": 8775,
      "커뮤니": 8776,
      "##중한": 8777,
      "수록": 8778,
      "애플리케이션": 8779,
      "도달": 8780,
      "자산": 8781,
      "기기": 8782,
      "예에": 8783,
      "갖는다": 8784,
      "분야에서": 8785,
      "수행하는": 8786,
      "##신의": 8787,
      "비록": 8788,
      "연결되는": 8789,
      "##est": 8790,
      "##포를": 8791,
      "쓰러": 8792,
      "##OS": 8793,
      "보관": 8794,
      "유사한": 8795,
      "임금": 8796,
      "거듭": 8797,
      "그들이": 8798,
      "##세의": 8799,
      "##이동": 8800,
      "##라의": 8801,
      "##아이": 8802,
      "헤드": 8803,
      "##센서": 8804,
      "##하다가": 8805,
      "##본부": 8806,
      "폐쇄": 8807,
      "##생물": 8808,
      "66": 8809,
      "##중앙": 8810,
      "떨어져": 8811,
      "##이버": 8812,
      "가을": 8813,
      "저지": 8814,
      "##질의": 8815,
      "플라즈마": 8816,
      "##외선": 8817,
      "광역": 8818,
      "새누리당": 8819,
      "1회": 8820,
      "##공을": 8821,
      "03": 8822,
      "보완": 8823,
      "그려": 8824,
      "교류": 8825,
      "못해": 8826,
      "생각한다": 8827,
      "지니": 8828,
      "##21": 8829,
      "인력": 8830,
      "##냐는": 8831,
      "##인에게": 8832,
      "개발을": 8833,
      "식물": 8834,
      "##조정": 8835,
      "서울시": 8836,
      "##베이스": 8837,
      "##리한": 8838,
      "계획을": 8839,
      "매체": 8840,
      "##MS": 8841,
      "순환": 8842,
      "전사": 8843,
      "가속": 8844,
      "29일": 8845,
      "출마": 8846,
      "의식": 8847,
      "사실이": 8848,
      "업계": 8849,
      "클로": 8850,
      "상상": 8851,
      "하나는": 8852,
      "줄어들": 8853,
      "만난": 8854,
      "##대와": 8855,
      "녹색": 8856,
      "뜻을": 8857,
      "평면": 8858,
      "##ob": 8859,
      "##ill": 8860,
      "양자": 8861,
      "##데이트": 8862,
      "바란": 8863,
      "생각하는": 8864,
      "가능성을": 8865,
      "상이한": 8866,
      "##형으로": 8867,
      "만들고": 8868,
      "심각한": 8869,
      "카운": 8870,
      "##연을": 8871,
      "##향을": 8872,
      "##qu": 8873,
      "##자들에게": 8874,
      "고유": 8875,
      "북한의": 8876,
      "할당": 8877,
      "얻어": 8878,
      "세부": 8879,
      "관광객": 8880,
      "##액이": 8881,
      "등급": 8882,
      "나도": 8883,
      "##협력": 8884,
      "통계": 8885,
      "##all": 8886,
      "정기": 8887,
      "국회의원": 8888,
      "##생산": 8889,
      "##해져": 8890,
      "어깨": 8891,
      "##경이": 8892,
      "에너": 8893,
      "111": 8894,
      "2만": 8895,
      "내용은": 8896,
      "식으로": 8897,
      "김영": 8898,
      "##ack": 8899,
      "스크린": 8900,
      "##금속": 8901,
      "##테르": 8902,
      "com": 8903,
      "##가구": 8904,
      "##치료": 8905,
      "5개": 8906,
      "분위기": 8907,
      "##등록": 8908,
      "무게": 8909,
      "##산물": 8910,
      "애니메이션": 8911,
      "정밀": 8912,
      "##술을": 8913,
      "반대로": 8914,
      "권한": 8915,
      "##쪽에": 8916,
      "##실에": 8917,
      "이제는": 8918,
      "잡고": 8919,
      "임상": 8920,
      "##능력": 8921,
      "width": 8922,
      "분해": 8923,
      "소모": 8924,
      "폐지": 8925,
      "감정": 8926,
      "제1항": 8927,
      "현재의": 8928,
      "##인들은": 8929,
      "이격": 8930,
      "외측": 8931,
      "창원": 8932,
      "전후": 8933,
      "##말을": 8934,
      "위상": 8935,
      "##art": 8936,
      "싶다": 8937,
      "가치를": 8938,
      "##전거": 8939,
      "##스케": 8940,
      "플래": 8941,
      "세트": 8942,
      "##아의": 8943,
      "##법은": 8944,
      "유래": 8945,
      "##eg": 8946,
      "편집": 8947,
      "입자": 8948,
      "파라미터": 8949,
      "##피스": 8950,
      "표면에": 8951,
      "##국을": 8952,
      "아무런": 8953,
      "프로세서": 8954,
      "스타일": 8955,
      "AP": 8956,
      "공격을": 8957,
      "카르": 8958,
      "2019": 8959,
      "나오고": 8960,
      "쉽지": 8961,
      "논란이": 8962,
      "결승": 8963,
      "보스": 8964,
      "1개": 8965,
      "영양": 8966,
      "시는": 8967,
      "스펙": 8968,
      "선고": 8969,
      "##17": 8970,
      "비율": 8971,
      "촉진": 8972,
      "1은": 8973,
      "230": 8974,
      "##함과": 8975,
      "구성되는": 8976,
      "##공업": 8977,
      "##었을": 8978,
      "##CD": 8979,
      "##국제": 8980,
      "##섬유": 8981,
      "근처": 8982,
      "##실이": 8983,
      "190": 8984,
      "내용이": 8985,
      "##크의": 8986,
      "미사": 8987,
      "최소화": 8988,
      "##씨의": 8989,
      "##해지는": 8990,
      "올랐다": 8991,
      "할머니": 8992,
      "##3c": 8993,
      "성과를": 8994,
      "연합": 8995,
      "만들었다": 8996,
      "부활": 8997,
      "##ight": 8998,
      "원료": 8999,
      "##받을": 9000,
      "th": 9001,
      "프리미": 9002,
      "pro": 9003,
      "코어": 9004,
      "책임을": 9005,
      "그저": 9006,
      "말할": 9007,
      "단자": 9008,
      "스프링": 9009,
      "투여": 9010,
      "2005년": 9011,
      "관람": 9012,
      "대안": 9013,
      "일치": 9014,
      "어울": 9015,
      "죽은": 9016,
      "##pp": 9017,
      "##냐고": 9018,
      "과연": 9019,
      "##재의": 9020,
      "##판의": 9021,
      "코일": 9022,
      "실시형태": 9023,
      "아직도": 9024,
      "이상이": 9025,
      "많았다": 9026,
      "경기를": 9027,
      "편이다": 9028,
      "##에너지": 9029,
      "수치": 9030,
      "##지자": 9031,
      "##메달": 9032,
      "##방의": 9033,
      "##시기": 9034,
      "##AN": 9035,
      "로마": 9036,
      "압박": 9037,
      "말은": 9038,
      "싶어": 9039,
      "나중에": 9040,
      "모두가": 9041,
      "도망": 9042,
      "유일한": 9043,
      "##진의": 9044,
      "##하되": 9045,
      "했고": 9046,
      "##사건": 9047,
      "##22": 9048,
      "##ET": 9049,
      "##이도": 9050,
      "310": 9051,
      "##감독": 9052,
      "##들이다": 9053,
      "외에": 9054,
      "해주": 9055,
      "##린더": 9056,
      "선생님": 9057,
      "경화": 9058,
      "##스테르": 9059,
      "어찌": 9060,
      "##소자": 9061,
      "키워": 9062,
      "##이상": 9063,
      "##방에": 9064,
      "##페닐": 9065,
      "##자료": 9066,
      "##전쟁": 9067,
      "방침이다": 9068,
      "##법이": 9069,
      "되도록": 9070,
      "채권": 9071,
      "모른다": 9072,
      "##ard": 9073,
      "고분자": 9074,
      "제어하는": 9075,
      "재산": 9076,
      "조기": 9077,
      "인기를": 9078,
      "국무": 9079,
      "개편": 9080,
      "업데이트": 9081,
      "철도": 9082,
      "위기": 9083,
      "메시지": 9084,
      "인권": 9085,
      "101": 9086,
      "쪽으로": 9087,
      "##재가": 9088,
      "##공정": 9089,
      "기술이": 9090,
      "##었습니다": 9091,
      "그게": 9092,
      "하나가": 9093,
      "##전도": 9094,
      "패션": 9095,
      "##자동차": 9096,
      "원을": 9097,
      "유출": 9098,
      "회수": 9099,
      "기능성": 9100,
      "##조절": 9101,
      "절차": 9102,
      "##친다": 9103,
      "##것도": 9104,
      "##낸다": 9105,
      "##특허": 9106,
      "1억": 9107,
      "##야말로": 9108,
      "영역에": 9109,
      "양극": 9110,
      "소정": 9111,
      "굉장히": 9112,
      "##성으로": 9113,
      "##층이": 9114,
      "KB": 9115,
      "##독교": 9116,
      "보여준다": 9117,
      "##드러": 9118,
      "##일러": 9119,
      "아빠": 9120,
      "##결합": 9121,
      "이전에": 9122,
      "했는데": 9123,
      "##하니": 9124,
      "84": 9125,
      "커넥": 9126,
      "모여": 9127,
      "##제2": 9128,
      "##OR": 9129,
      "##층에": 9130,
      "통화": 9131,
      "##만은": 9132,
      "##act": 9133,
      "세워": 9134,
      "노드": 9135,
      "부상": 9136,
      "##시와": 9137,
      "##효율": 9138,
      "외에도": 9139,
      "##액의": 9140,
      "무려": 9141,
      "그만큼": 9142,
      "예상된다": 9143,
      "누구나": 9144,
      "##해졌다": 9145,
      "체육": 9146,
      "con": 9147,
      "61": 9148,
      "캐리어": 9149,
      "위의": 9150,
      "이재": 9151,
      "있었지만": 9152,
      "##채널": 9153,
      "입고": 9154,
      "절감": 9155,
      "오늘날": 9156,
      "텔레": 9157,
      "##동이": 9158,
      "그렇다면": 9159,
      "분사": 9160,
      "##락을": 9161,
      "머물": 9162,
      "일정한": 9163,
      "판독": 9164,
      "##ase": 9165,
      "AI": 9166,
      "멀리": 9167,
      "내세": 9168,
      "진보": 9169,
      "돌파": 9170,
      "##AS": 9171,
      "낮아": 9172,
      "가끔": 9173,
      "다행": 9174,
      "촉구": 9175,
      "##라가": 9176,
      "구성하는": 9177,
      "소방": 9178,
      "보존": 9179,
      "##FC": 9180,
      "자료를": 9181,
      "쇼핑": 9182,
      "주력": 9183,
      "##이온": 9184,
      "가리": 9185,
      "오디오": 9186,
      "위에서": 9187,
      "머리를": 9188,
      "##마자": 9189,
      "##eth": 9190,
      "하더라도": 9191,
      "##주에": 9192,
      "초대": 9193,
      "따뜻": 9194,
      "##께서": 9195,
      "해제": 9196,
      "##반도체": 9197,
      "##시민": 9198,
      "같아": 9199,
      "취소": 9200,
      "장치에": 9201,
      "##파크": 9202,
      "취임": 9203,
      "의미가": 9204,
      "발효": 9205,
      "##영화": 9206,
      "잠재": 9207,
      "##기까지": 9208,
      "시의": 9209,
      "##형이": 9210,
      "소년": 9211,
      "들어서": 9212,
      "된다는": 9213,
      "##화점": 9214,
      "국내외": 9215,
      "신호의": 9216,
      "물건": 9217,
      "삭제": 9218,
      "카페": 9219,
      "##레이터": 9220,
      "교반": 9221,
      "##나게": 9222,
      "이유가": 9223,
      "상술한": 9224,
      "30분": 9225,
      "##ure": 9226,
      "대해서도": 9227,
      "알루미늄": 9228,
      "착용": 9229,
      "소화": 9230,
      "US": 9231,
      "##미가": 9232,
      "받는다": 9233,
      "##24": 9234,
      "입학": 9235,
      "도포": 9236,
      "##진흥": 9237,
      "##ew": 9238,
      "가변": 9239,
      "등장하는": 9240,
      "얻은": 9241,
      "CE": 9242,
      "##질이": 9243,
      "##고속": 9244,
      "정보가": 9245,
      "봉사": 9246,
      "형성된다": 9247,
      "임명": 9248,
      "##졌고": 9249,
      "##관에": 9250,
      "배치된": 9251,
      "유로": 9252,
      "없지만": 9253,
      "증권": 9254,
      "설득": 9255,
      "동원": 9256,
      "##훈련": 9257,
      "##개혁": 9258,
      "좋아하는": 9259,
      "##사인": 9260,
      "의도": 9261,
      "전기적으로": 9262,
      "##리스트": 9263,
      "보인": 9264,
      "조용": 9265,
      "1조": 9266,
      "바람에": 9267,
      "가면": 9268,
      "##석은": 9269,
      "##웨이": 9270,
      "보아": 9271,
      "##체계": 9272,
      "공장": 9273,
      "##활동을": 9274,
      "탄생": 9275,
      "170": 9276,
      "##관련": 9277,
      "##음에도": 9278,
      "지역에": 9279,
      "##ain": 9280,
      "건립": 9281,
      "트레이": 9282,
      "절단": 9283,
      "노즐": 9284,
      "##오드": 9285,
      "##교환": 9286,
      "종목": 9287,
      "기어": 9288,
      "물러": 9289,
      "고위": 9290,
      "##상황": 9291,
      "부인": 9292,
      "혼란": 9293,
      "##해진다": 9294,
      "##미디어": 9295,
      "대우": 9296,
      "정책을": 9297,
      "74": 9298,
      "후속": 9299,
      "취약": 9300,
      "주말": 9301,
      "##조에": 9302,
      "리튬": 9303,
      "승강": 9304,
      "동작을": 9305,
      "##AR": 9306,
      "특이": 9307,
      "폴리에": 9308,
      "교육을": 9309,
      "나름": 9310,
      "바꿔": 9311,
      "방식을": 9312,
      "공포": 9313,
      "먹는": 9314,
      "당해": 9315,
      "주지": 9316,
      "##주기": 9317,
      "##차례": 9318,
      "##되는것을특징으로": 9319,
      "아쉬": 9320,
      "점이다": 9321,
      "##트와": 9322,
      "##군요": 9323,
      "기술의": 9324,
      "CH": 9325,
      "##재료": 9326,
      "##ical": 9327,
      "현황": 9328,
      "불리는": 9329,
      "사유": 9330,
      "화려": 9331,
      "출범": 9332,
      "73": 9333,
      "최초의": 9334,
      "자살": 9335,
      "##동에": 9336,
      "옮겨": 9337,
      "동생": 9338,
      "때의": 9339,
      "목숨": 9340,
      "##전기": 9341,
      "##시로": 9342,
      "진정한": 9343,
      "##사무": 9344,
      "액세스": 9345,
      "물어": 9346,
      "와이어": 9347,
      "##국가": 9348,
      "않지만": 9349,
      "것인가": 9350,
      "원인": 9351,
      "##가족": 9352,
      "제10": 9353,
      "정비": 9354,
      "손에": 9355,
      "##ri": 9356,
      "##정치": 9357,
      "만들기": 9358,
      "기부": 9359,
      "##국에": 9360,
      "나갈": 9361,
      "##면적": 9362,
      "제7": 9363,
      "축소": 9364,
      "연구개발": 9365,
      "학부모": 9366,
      "##라이언": 9367,
      "폐기": 9368,
      "##보다도": 9369,
      "##미널": 9370,
      "IP": 9371,
      "고향": 9372,
      "참조하여": 9373,
      "##범위": 9374,
      "##연구원": 9375,
      "관측": 9376,
      "##업계": 9377,
      "스테이지": 9378,
      "##연금": 9379,
      "파티": 9380,
      "##ant": 9381,
      "동반": 9382,
      "제외하고": 9383,
      "심사": 9384,
      "##동의": 9385,
      "원작": 9386,
      "생겨": 9387,
      "##기록": 9388,
      "##고가": 9389,
      "사람들을": 9390,
      "복원": 9391,
      "##90": 9392,
      "4대": 9393,
      "넓은": 9394,
      "미만": 9395,
      "##특별": 9396,
      "했다고": 9397,
      "다르다": 9398,
      "##단과": 9399,
      "용기": 9400,
      "혐의로": 9401,
      "별도의": 9402,
      "심리": 9403,
      "아이디어": 9404,
      "기업이": 9405,
      "##관에서": 9406,
      "부족한": 9407,
      "점은": 9408,
      "##학의": 9409,
      "인프라": 9410,
      "방해": 9411,
      "가시": 9412,
      "한마": 9413,
      "출력하는": 9414,
      "가게": 9415,
      "한화": 9416,
      "채택": 9417,
      "개입": 9418,
      "삼성전자": 9419,
      "##림을": 9420,
      "수행할": 9421,
      "##반응": 9422,
      "자전거": 9423,
      "추적": 9424,
      "연주": 9425,
      "##프로필": 9426,
      "얻었다": 9427,
      "학생들이": 9428,
      "순서": 9429,
      "이승": 9430,
      "여유": 9431,
      "어쩌": 9432,
      "세상을": 9433,
      "프로토": 9434,
      "이행": 9435,
      "Pro": 9436,
      "##선으로": 9437,
      "것인지": 9438,
      "없습니다": 9439,
      "II": 9440,
      "프린": 9441,
      "저장된": 9442,
      "선행": 9443,
      "포장": 9444,
      "아닌가": 9445,
      "작업을": 9446,
      "발생할": 9447,
      "측면에서": 9448,
      "결제": 9449,
      "##yst": 9450,
      "2는": 9451,
      "결과는": 9452,
      "긴급": 9453,
      "##시다": 9454,
      "##직을": 9455,
      "내고": 9456,
      "수수": 9457,
      "있을까": 9458,
      "2018": 9459,
      "분석을": 9460,
      "사랑을": 9461,
      "첨부": 9462,
      "상업": 9463,
      "무너": 9464,
      "버튼": 9465,
      "정체": 9466,
      "##운영": 9467,
      "알고리즘": 9468,
      "커플": 9469,
      "포항": 9470,
      "고등학교": 9471,
      "과제": 9472,
      "몰아": 9473,
      "구성된다": 9474,
      "하였": 9475,
      "줄어": 9476,
      "##해질": 9477,
      "##려서": 9478,
      "대폭": 9479,
      "개요": 9480,
      "수십": 9481,
      "규칙": 9482,
      "번호": 9483,
      "시장은": 9484,
      "출입": 9485,
      "보강": 9486,
      "설치되어": 9487,
      "집을": 9488,
      "2004년": 9489,
      "하이브": 9490,
      "스토리": 9491,
      "되며": 9492,
      "여야": 9493,
      "연구의": 9494,
      "문제로": 9495,
      "아세": 9496,
      "##23": 9497,
      "##내용": 9498,
      "시간에": 9499,
      "꿈을": 9500,
      "이건": 9501,
      "##힌다": 9502,
      "널리": 9503,
      "언제나": 9504,
      "날아": 9505,
      "##올림픽": 9506,
      "훌륭": 9507,
      "풀어": 9508,
      "건너": 9509,
      "포트": 9510,
      "풍부": 9511,
      "##나다": 9512,
      "픽셀": 9513,
      "생성하는": 9514,
      "##our": 9515,
      "##가격": 9516,
      "노력을": 9517,
      "자리에": 9518,
      "차원에서": 9519,
      "##온다": 9520,
      "68": 9521,
      "근대": 9522,
      "연산": 9523,
      "##000만": 9524,
      "프로젝트": 9525,
      "기반의": 9526,
      "##우가": 9527,
      "탐색": 9528,
      "67": 9529,
      "과도": 9530,
      "통제": 9531,
      "증명": 9532,
      "이끌어": 9533,
      "파트": 9534,
      "목록": 9535,
      "##다이": 9536,
      "##통합": 9537,
      "##책을": 9538,
      "문자": 9539,
      "발표했다": 9540,
      "서서": 9541,
      "기독교": 9542,
      "on": 9543,
      "##권은": 9544,
      "##주파": 9545,
      "본인": 9546,
      "##심의": 9547,
      "##어진다": 9548,
      "##방지": 9549,
      "부분은": 9550,
      "이래": 9551,
      "유의": 9552,
      "간섭": 9553,
      "##란드": 9554,
      "있으니": 9555,
      "그에게": 9556,
      "##격한": 9557,
      "##iz": 9558,
      "되기": 9559,
      "##예요": 9560,
      "그녀가": 9561,
      "분야의": 9562,
      "##MP": 9563,
      "##AT": 9564,
      "##정도": 9565,
      "##ort": 9566,
      "원격": 9567,
      "새벽": 9568,
      "##트릭": 9569,
      "이름이": 9570,
      "무한": 9571,
      "##지사": 9572,
      "호흡": 9573,
      "이번에": 9574,
      "다섯": 9575,
      "완화": 9576,
      "나타난": 9577,
      "##보기": 9578,
      "곳이": 9579,
      "##법의": 9580,
      "##된다고": 9581,
      "##발을": 9582,
      "자리에서": 9583,
      "대처": 9584,
      "기재된": 9585,
      "내는": 9586,
      "정보에": 9587,
      "##안은": 9588,
      "세상": 9589,
      "##년간": 9590,
      "##ON": 9591,
      "FC": 9592,
      "아우": 9593,
      "속하는": 9594,
      "치열": 9595,
      "곳곳": 9596,
      "##이와": 9597,
      "정작": 9598,
      "있어서의": 9599,
      "페이스": 9600,
      "정착": 9601,
      "결과가": 9602,
      "있었는데": 9603,
      "보정": 9604,
      "정보는": 9605,
      "차세대": 9606,
      "물었다": 9607,
      "도덕": 9608,
      "즉시": 9609,
      "##단말": 9610,
      "##복을": 9611,
      "첨단": 9612,
      "##행정": 9613,
      "발표한": 9614,
      "바디": 9615,
      "##회견": 9616,
      "발동": 9617,
      "생성된": 9618,
      "##라이트": 9619,
      "##타임": 9620,
      "이른바": 9621,
      "##소드": 9622,
      "충분한": 9623,
      "700": 9624,
      "수신된": 9625,
      "출판": 9626,
      "121": 9627,
      "실질적으로": 9628,
      "들려": 9629,
      "대략": 9630,
      "##OC": 9631,
      "일측": 9632,
      "담배": 9633,
      "이슈": 9634,
      "못한다": 9635,
      "부과": 9636,
      "##전으로": 9637,
      "말았다": 9638,
      "##경쟁": 9639,
      "SNS": 9640,
      "##지션": 9641,
      "##니즘": 9642,
      "초등학교": 9643,
      "대장": 9644,
      "조치": 9645,
      "이명박": 9646,
      "##소로": 9647,
      "이게": 9648,
      "사람들에게": 9649,
      "##실로": 9650,
      "재활": 9651,
      "데이": 9652,
      "3차원": 9653,
      "##설을": 9654,
      "##하기에": 9655,
      "##프로그램": 9656,
      "부분에": 9657,
      "묘사": 9658,
      "##이어서": 9659,
      "유연": 9660,
      "상황이다": 9661,
      "##세에": 9662,
      "기판의": 9663,
      "상용": 9664,
      "나눠": 9665,
      "##류가": 9666,
      "김정": 9667,
      "마지막으로": 9668,
      "그랬": 9669,
      "##사업을": 9670,
      "지식을": 9671,
      "해상": 9672,
      "흔히": 9673,
      "##조가": 9674,
      "자치": 9675,
      "##성능": 9676,
      "무조건": 9677,
      "800": 9678,
      "##도우": 9679,
      "않기": 9680,
      "쓰레": 9681,
      "공감": 9682,
      "떠오": 9683,
      "##ment": 9684,
      "종종": 9685,
      "실적": 9686,
      "##블록": 9687,
      "타임": 9688,
      "시그": 9689,
      "후보는": 9690,
      "문제에": 9691,
      "시작으로": 9692,
      "기술개발": 9693,
      "##시킴": 9694,
      "아웃": 9695,
      "한쪽": 9696,
      "시나": 9697,
      "영혼": 9698,
      "너무나": 9699,
      "경험을": 9700,
      "##으니까": 9701,
      "밀어": 9702,
      "##까지의": 9703,
      "장애인": 9704,
      "##오고": 9705,
      "##되었으며": 9706,
      "종래의": 9707,
      "제약": 9708,
      "##ge": 9709,
      "주제로": 9710,
      "시공": 9711,
      "뒤로": 9712,
      "고령": 9713,
      "##모를": 9714,
      "메뉴": 9715,
      "에서는": 9716,
      "확률": 9717,
      "답변": 9718,
      "형사": 9719,
      "##스트를": 9720,
      "##장치의": 9721,
      "##종을": 9722,
      "선도": 9723,
      "76": 9724,
      "##레오": 9725,
      "2000년": 9726,
      "##산에": 9727,
      "케이": 9728,
      "배선": 9729,
      "##일은": 9730,
      "대량": 9731,
      "토지": 9732,
      "경쟁력": 9733,
      "분포": 9734,
      "##금의": 9735,
      "증착": 9736,
      "끝난": 9737,
      "##ff": 9738,
      "가격이": 9739,
      "특별히": 9740,
      "##표시": 9741,
      "##안의": 9742,
      "트렌": 9743,
      "##명과": 9744,
      "##26": 9745,
      "##러리": 9746,
      "패키지": 9747,
      "##세로": 9748,
      "고교": 9749,
      "공간을": 9750,
      "존재한다": 9751,
      "사건을": 9752,
      "압도": 9753,
      "##사이드": 9754,
      "일자": 9755,
      "능력이": 9756,
      "##가와": 9757,
      "맞춤형": 9758,
      "04": 9759,
      "Si": 9760,
      "브레이": 9761,
      "평생": 9762,
      "단순한": 9763,
      "인재": 9764,
      "##age": 9765,
      "질문": 9766,
      "상태가": 9767,
      "##디아": 9768,
      "구성을": 9769,
      "##다시": 9770,
      "##이던": 9771,
      "변화가": 9772,
      "생략": 9773,
      "세라": 9774,
      "시스템은": 9775,
      "인하여": 9776,
      "수능": 9777,
      "기자회견": 9778,
      "일부를": 9779,
      "구성되어": 9780,
      "아프리카": 9781,
      "받게": 9782,
      "##이니": 9783,
      "이소": 9784,
      "이차": 9785,
      "지능": 9786,
      "##연구소": 9787,
      "붉은": 9788,
      "몸체": 9789,
      "원천": 9790,
      "원내대표": 9791,
      "##ID": 9792,
      "미니": 9793,
      "##서에서": 9794,
      "눈이": 9795,
      "지원하는": 9796,
      "6개월": 9797,
      "06": 9798,
      "당사": 9799,
      "매각": 9800,
      "일어난": 9801,
      "상향": 9802,
      "본래": 9803,
      "##나이": 9804,
      "경고": 9805,
      "##판에": 9806,
      "타겟": 9807,
      "##ly": 9808,
      "##사람": 9809,
      "분명히": 9810,
      "##오스": 9811,
      "시장의": 9812,
      "손가락": 9813,
      "작중": 9814,
      "수준으로": 9815,
      "##끄러": 9816,
      "소리가": 9817,
      "논리": 9818,
      "개막": 9819,
      "##해주는": 9820,
      "##종합": 9821,
      "가고": 9822,
      "비즈": 9823,
      "타이밍": 9824,
      "도쿄": 9825,
      "2013": 9826,
      "방영": 9827,
      "##포함하는것을특징으로": 9828,
      "오버": 9829,
      "저렴": 9830,
      "##명한": 9831,
      "와서": 9832,
      "일제": 9833,
      "느낄": 9834,
      "펌프": 9835,
      "##ial": 9836,
      "총선": 9837,
      "남녀": 9838,
      "입사": 9839,
      "라디오": 9840,
      "그러면": 9841,
      "결정하는": 9842,
      "운영하는": 9843,
      "##년도": 9844,
      "투과": 9845,
      "##검사": 9846,
      "320": 9847,
      "한계": 9848,
      "##실한": 9849,
      "고무": 9850,
      "용어": 9851,
      "##연히": 9852,
      "122": 9853,
      "##례를": 9854,
      "즐길": 9855,
      "때에": 9856,
      "화재": 9857,
      "##전력": 9858,
      "2의": 9859,
      "여과": 9860,
      "##철도": 9861,
      "핸드": 9862,
      "##주민": 9863,
      "정수": 9864,
      "구역": 9865,
      "현재는": 9866,
      "##ens": 9867,
      "에이": 9868,
      "설명하기": 9869,
      "##ice": 9870,
      "나타나는": 9871,
      "석유": 9872,
      "클러": 9873,
      "##탄을": 9874,
      "전술한": 9875,
      "투수": 9876,
      "때부터": 9877,
      "대상이": 9878,
      "##리라": 9879,
      "담은": 9880,
      "##테크": 9881,
      "은퇴": 9882,
      "홈런": 9883,
      "배치되는": 9884,
      "##리면서": 9885,
      "없기": 9886,
      "제품의": 9887,
      "최소한": 9888,
      "농촌": 9889,
      "노선": 9890,
      "소요": 9891,
      "판정": 9892,
      "##용으로": 9893,
      "전날": 9894,
      "당초": 9895,
      "용해": 9896,
      "어드": 9897,
      "없게": 9898,
      "대결": 9899,
      "타격": 9900,
      "내게": 9901,
      "사기": 9902,
      "##약품": 9903,
      "않으며": 9904,
      "테마": 9905,
      "이후에": 9906,
      "##직원": 9907,
      "##하에": 9908,
      "##스카": 9909,
      "나쁜": 9910,
      "민주주의": 9911,
      "이성": 9912,
      "77": 9913,
      "##금으로": 9914,
      "세척": 9915,
      "일시": 9916,
      "##증이": 9917,
      "지향": 9918,
      "##된다는": 9919,
      "이들을": 9920,
      "기후": 9921,
      "손해": 9922,
      "드래곤": 9923,
      "사시": 9924,
      "산소": 9925,
      "태양광": 9926,
      "##리브": 9927,
      "##에게서": 9928,
      "##스포": 9929,
      "등도": 9930,
      "##에게도": 9931,
      "대학생": 9932,
      "##으로서의": 9933,
      "##까지도": 9934,
      "클럽": 9935,
      "궁금": 9936,
      "사진을": 9937,
      "배제": 9938,
      "##탄올": 9939,
      "선배": 9940,
      "개인의": 9941,
      "트위": 9942,
      "충북": 9943,
      "거대한": 9944,
      "##버린": 9945,
      "부처": 9946,
      "2015": 9947,
      "스티": 9948,
      "##수준": 9949,
      "홍콩": 9950,
      "분배": 9951,
      "양측": 9952,
      "##놓은": 9953,
      "##내기": 9954,
      "스카": 9955,
      "##해지고": 9956,
      "MS": 9957,
      "공급하는": 9958,
      "철학": 9959,
      "초청": 9960,
      "차량의": 9961,
      "##ore": 9962,
      "형광": 9963,
      "##알킬": 9964,
      "합류": 9965,
      "적극적인": 9966,
      "##로부터의": 9967,
      "##조선": 9968,
      "하위": 9969,
      "교차": 9970,
      "문제점을": 9971,
      "충족": 9972,
      "싸움": 9973,
      "##후보": 9974,
      "2014": 9975,
      "버퍼": 9976,
      "##사들이": 9977,
      "DNA": 9978,
      "말도": 9979,
      "액체": 9980,
      "##출력": 9981,
      "2002년": 9982,
      "한반도": 9983,
      "기회": 9984,
      "정제": 9985,
      "되는데": 9986,
      "두산": 9987,
      "##건축": 9988,
      "대립": 9989,
      "전파": 9990,
      "시장을": 9991,
      "빼앗": 9992,
      "시내": 9993,
      "GS": 9994,
      "##포함하는": 9995,
      "끊임": 9996,
      "화장품": 9997,
      "들은": 9998,
      "##관과": 9999,
      "##수수": 10000,
      "자세한": 10001,
      "##경은": 10002,
      "이기": 10003,
      "싱글": 10004,
      "우려가": 10005,
      "##세는": 10006,
      "앞으로도": 10007,
      "독자": 10008,
      "하이브리드": 10009,
      "마음에": 10010,
      "마감": 10011,
      "받아들이": 10012,
      "##구로": 10013,
      "곳에서": 10014,
      "들이": 10015,
      "##비로": 10016,
      "##지컬": 10017,
      "모노": 10018,
      "##면이": 10019,
      "것으로서": 10020,
      "##점의": 10021,
      "##전달": 10022,
      "뉴스": 10023,
      "매달": 10024,
      "쉬운": 10025,
      "분말": 10026,
      "경찰은": 10027,
      "밖으로": 10028,
      "면적": 10029,
      "##다란": 10030,
      "국가의": 10031,
      "##네요": 10032,
      "제정": 10033,
      "##이므로": 10034,
      "겨우": 10035,
      "이상으로": 10036,
      "##개요": 10037,
      "전공": 10038,
      "##복합": 10039,
      "의원이": 10040,
      "##집을": 10041,
      "피고": 10042,
      "ch": 10043,
      "기술은": 10044,
      "그와": 10045,
      "유튜브": 10046,
      "애초": 10047,
      "보자": 10048,
      "체력": 10049,
      "주사": 10050,
      "파견": 10051,
      "지속적인": 10052,
      "##재생": 10053,
      "조언": 10054,
      "문제점이": 10055,
      "초래": 10056,
      "때가": 10057,
      "연령": 10058,
      "스파": 10059,
      "##자도": 10060,
      "##티드": 10061,
      "같았다": 10062,
      "근육": 10063,
      "##ast": 10064,
      "##yp": 10065,
      "요리": 10066,
      "##순환": 10067,
      "것이라며": 10068,
      "된다고": 10069,
      "78": 10070,
      "##크가": 10071,
      "연극": 10072,
      "생활을": 10073,
      "아카": 10074,
      "작곡": 10075,
      "최선을": 10076,
      "동네": 10077,
      "살인": 10078,
      "세정": 10079,
      "목적을": 10080,
      "##양의": 10081,
      "사회의": 10082,
      "##군에": 10083,
      "##수소": 10084,
      "조사를": 10085,
      "연동": 10086,
      "용접": 10087,
      "탈출": 10088,
      "Con": 10089,
      "사실은": 10090,
      "마리": 10091,
      "대리": 10092,
      "반송": 10093,
      "##개가": 10094,
      "목표를": 10095,
      "##법인": 10096,
      "정확히": 10097,
      "말한": 10098,
      "없었던": 10099,
      "##터는": 10100,
      "중계": 10101,
      "객관": 10102,
      "2003년": 10103,
      "##하지는": 10104,
      "밝힌": 10105,
      "어려워": 10106,
      "##회장": 10107,
      "104": 10108,
      "미세먼": 10109,
      "다름": 10110,
      "강의": 10111,
      "극대": 10112,
      "##구와": 10113,
      "기상": 10114,
      "토대로": 10115,
      "##마의": 10116,
      "어른": 10117,
      "긴장": 10118,
      "##청이": 10119,
      "##하의": 10120,
      "C1": 10121,
      "그렇다고": 10122,
      "조각": 10123,
      "관계가": 10124,
      "입은": 10125,
      "적을": 10126,
      "서민": 10127,
      "실정": 10128,
      "##루오로": 10129,
      "작품을": 10130,
      "##하려면": 10131,
      "##방이": 10132,
      "쌍의": 10133,
      "점유": 10134,
      "라이브": 10135,
      "넣어": 10136,
      "##님은": 10137,
      "후원": 10138,
      "##란히": 10139,
      "##패를": 10140,
      "생각하고": 10141,
      "##기술을": 10142,
      "씨가": 10143,
      "행동을": 10144,
      "포스코": 10145,
      "##위원장": 10146,
      "##록시": 10147,
      "관점에서": 10148,
      "결과에": 10149,
      "mg": 10150,
      "88": 10151,
      "##관계를": 10152,
      "##님을": 10153,
      "안보": 10154,
      "증대": 10155,
      "대표팀": 10156,
      "요구하는": 10157,
      "##았지만": 10158,
      "평범": 10159,
      "이해할": 10160,
      "것이라": 10161,
      "없애": 10162,
      "패러": 10163,
      "##라서": 10164,
      "살해": 10165,
      "되돌": 10166,
      "##조는": 10167,
      "구리": 10168,
      "기회가": 10169,
      "조심": 10170,
      "2017": 10171,
      "천안": 10172,
      "##라스": 10173,
      "##그네": 10174,
      "지방자치": 10175,
      "테러": 10176,
      "##매를": 10177,
      "어둠": 10178,
      "당신이": 10179,
      "##연결": 10180,
      "##호선": 10181,
      "공항": 10182,
      "그걸": 10183,
      "사장은": 10184,
      "결론": 10185,
      "전설": 10186,
      "아이돌": 10187,
      "거두": 10188,
      "성남": 10189,
      "가야": 10190,
      "분위기를": 10191,
      "전력을": 10192,
      "걸림": 10193,
      "권리": 10194,
      "늘어난": 10195,
      "##인터": 10196,
      "##달라고": 10197,
      "시장에": 10198,
      "내장": 10199,
      "2016": 10200,
      "필드": 10201,
      "공략": 10202,
      "고대": 10203,
      "고체": 10204,
      "함유하는": 10205,
      "##이사": 10206,
      "어려움을": 10207,
      "##마를": 10208,
      "목소리가": 10209,
      "3은": 10210,
      "탓에": 10211,
      "##식과": 10212,
      "4차": 10213,
      "영역의": 10214,
      "드레인": 10215,
      "선택적으로": 10216,
      "무관": 10217,
      "페이": 10218,
      "뒤를": 10219,
      "##면과": 10220,
      "되었고": 10221,
      "단축": 10222,
      "지하철": 10223,
      "191": 10224,
      "설치되는": 10225,
      "##였지만": 10226,
      "부호화": 10227,
      "ac": 10228,
      "이종": 10229,
      "유해": 10230,
      "어레이": 10231,
      "SC": 10232,
      "##코올": 10233,
      "##학습": 10234,
      "상반기": 10235,
      "사법": 10236,
      "직무": 10237,
      "해결하기": 10238,
      "공천": 10239,
      "여부": 10240,
      "##줬다": 10241,
      "##소한": 10242,
      "##짜리": 10243,
      "##ss": 10244,
      "중반": 10245,
      "##분으로": 10246,
      "있겠": 10247,
      "만들어진": 10248,
      "벌써": 10249,
      "71": 10250,
      "갔다": 10251,
      "아이들이": 10252,
      "69": 10253,
      "창작": 10254,
      "##판이": 10255,
      "1위를": 10256,
      "영원": 10257,
      "##FA": 10258,
      "김성": 10259,
      "에틸": 10260,
      "##톡시": 10261,
      "사용한다": 10262,
      "##분해": 10263,
      "08": 10264,
      "합격": 10265,
      "이스": 10266,
      "그건": 10267,
      "##ES": 10268,
      "합리": 10269,
      "데이터베이스": 10270,
      "아니지만": 10271,
      "여겨": 10272,
      "##공동": 10273,
      "##봤다": 10274,
      "240": 10275,
      "##속에": 10276,
      "##르트": 10277,
      "##기에서": 10278,
      "지역에서": 10279,
      "##공격": 10280,
      "83": 10281,
      "##오프": 10282,
      "개폐": 10283,
      "독특": 10284,
      "포토": 10285,
      "접수": 10286,
      "제공하고": 10287,
      "외주": 10288,
      "먹을": 10289,
      "##상과": 10290,
      "##orm": 10291,
      "192": 10292,
      "신호에": 10293,
      "둘러싸": 10294,
      "않아도": 10295,
      "##등을": 10296,
      "게시": 10297,
      "양산": 10298,
      "상에서": 10299,
      "가깝": 10300,
      "장난": 10301,
      "##이닝": 10302,
      "약물": 10303,
      "조건을": 10304,
      "##부품": 10305,
      "시범": 10306,
      "##령을": 10307,
      "##전과": 10308,
      "하이드": 10309,
      "영입": 10310,
      "모색": 10311,
      "차이를": 10312,
      "예고": 10313,
      "무엇을": 10314,
      "곳은": 10315,
      "혜택을": 10316,
      "법무": 10317,
      "##해온": 10318,
      "##바닥": 10319,
      "수송": 10320,
      "말로": 10321,
      "최근에는": 10322,
      "##코더": 10323,
      "이어서": 10324,
      "삼성전": 10325,
      "무대": 10326,
      "처리를": 10327,
      "캠페": 10328,
      "##거든": 10329,
      "##인물": 10330,
      "플랜": 10331,
      "공직": 10332,
      "실무": 10333,
      "아무도": 10334,
      "실린더": 10335,
      "승리를": 10336,
      "연예": 10337,
      "Th": 10338,
      "##Hz": 10339,
      "세대": 10340,
      "회피": 10341,
      "표기": 10342,
      "##치에": 10343,
      "3만": 10344,
      "제8": 10345,
      "09": 10346,
      "##국민": 10347,
      "아이를": 10348,
      "않는다는": 10349,
      "연결하는": 10350,
      "냄새": 10351,
      "##당에": 10352,
      "목적은": 10353,
      "##화한": 10354,
      "##형은": 10355,
      "07": 10356,
      "강도": 10357,
      "##십시오": 10358,
      "##ert": 10359,
      "예로": 10360,
      "하반기": 10361,
      "소련": 10362,
      "sp": 10363,
      "구비하는": 10364,
      "지표": 10365,
      "계기로": 10366,
      "경상": 10367,
      "##음파": 10368,
      "오랫": 10369,
      "##kg": 10370,
      "##미는": 10371,
      "최우": 10372,
      "##차의": 10373,
      "이동통신": 10374,
      "증발": 10375,
      "끝까지": 10376,
      "시장에서": 10377,
      "##거리는": 10378,
      "성인": 10379,
      "필요로": 10380,
      "적지": 10381,
      "개봉": 10382,
      "##uc": 10383,
      "##장치를": 10384,
      "##담을": 10385,
      "2천": 10386,
      "공공기관": 10387,
      "거리를": 10388,
      "프로필": 10389,
      "96": 10390,
      "보지": 10391,
      "옆에": 10392,
      "무릎": 10393,
      "싫어": 10394,
      "아이가": 10395,
      "98": 10396,
      "거기에": 10397,
      "개략": 10398,
      "패턴을": 10399,
      "##즈의": 10400,
      "부진": 10401,
      "가구": 10402,
      "슬라이": 10403,
      "사람도": 10404,
      "몸이": 10405,
      "변신": 10406,
      "내내": 10407,
      "그날": 10408,
      "##전환": 10409,
      "##자금": 10410,
      "몰려": 10411,
      "재무": 10412,
      "설비": 10413,
      "##발생": 10414,
      "막을": 10415,
      "##버터": 10416,
      "누적": 10417,
      "법인": 10418,
      "2010": 10419,
      "일찍": 10420,
      "이르는": 10421,
      "공격력": 10422,
      "##스에서": 10423,
      "사건이": 10424,
      "종류의": 10425,
      "안착": 10426,
      "##스톤": 10427,
      "게임을": 10428,
      "##하라고": 10429,
      "데이터의": 10430,
      "네가": 10431,
      "속도를": 10432,
      "갈수록": 10433,
      "HP": 10434,
      "특유의": 10435,
      "##3e": 10436,
      "##one": 10437,
      "손상": 10438,
      "떨어지는": 10439,
      "다음으로": 10440,
      "오리": 10441,
      "변동": 10442,
      "유체": 10443,
      "##대출": 10444,
      "##들로부터": 10445,
      "본질": 10446,
      "깨끗": 10447,
      "매입": 10448,
      "사내": 10449,
      "##ult": 10450,
      "이름으로": 10451,
      "계층": 10452,
      "연구가": 10453,
      "일에": 10454,
      "굳이": 10455,
      "일종의": 10456,
      "##끼리": 10457,
      "소수": 10458,
      "순차": 10459,
      "2회": 10460,
      "편성": 10461,
      "2012": 10462,
      "끌고": 10463,
      "관련한": 10464,
      "##화물": 10465,
      "벡터": 10466,
      "##토록": 10467,
      "임계": 10468,
      "롤러": 10469,
      "##실의": 10470,
      "##패시터": 10471,
      "열었다": 10472,
      "중심의": 10473,
      "##야구": 10474,
      "프리미엄": 10475,
      "데다": 10476,
      "Ar": 10477,
      "크고": 10478,
      "시사": 10479,
      "고온": 10480,
      "##인력": 10481,
      "현행": 10482,
      "흡착": 10483,
      "간에": 10484,
      "##ass": 10485,
      "오랫동안": 10486,
      "그럼에도": 10487,
      "탈락": 10488,
      "##공개": 10489,
      "##르기": 10490,
      "히로": 10491,
      "##로도": 10492,
      "##받았다": 10493,
      "2배": 10494,
      "003c": 10495,
      "잘못된": 10496,
      "##면으로": 10497,
      "##프의": 10498,
      "##이용": 10499,
      "패드": 10500,
      "비중이": 10501,
      "붕괴": 10502,
      "기아": 10503,
      "##장비": 10504,
      "생기": 10505,
      "호소": 10506,
      "개설": 10507,
      "여담": 10508,
      "##해양": 10509,
      "##AM": 10510,
      "계약을": 10511,
      "본격적으로": 10512,
      "##외로": 10513,
      "유전체": 10514,
      "##마토": 10515,
      "사용된": 10516,
      "거치": 10517,
      "##스팅": 10518,
      "밴드": 10519,
      "연락": 10520,
      "변화에": 10521,
      "82": 10522,
      "##져야": 10523,
      "대미": 10524,
      "효과적으로": 10525,
      "공지": 10526,
      "체크": 10527,
      "파이프": 10528,
      "승인": 10529,
      "행사를": 10530,
      "##평균": 10531,
      "올라가": 10532,
      "화합물을": 10533,
      "##인것을특징으로": 10534,
      "자아": 10535,
      "정식": 10536,
      "##이었고": 10537,
      "수리": 10538,
      "최적화": 10539,
      "##io": 10540,
      "곧바로": 10541,
      "##광역": 10542,
      "강하게": 10543,
      "공약": 10544,
      "사용된다": 10545,
      "입증": 10546,
      "사용하고": 10547,
      "빛을": 10548,
      "##ud": 10549,
      "어쩔": 10550,
      "##석의": 10551,
      "기원": 10552,
      "신한": 10553,
      "균일": 10554,
      "어플리케이션": 10555,
      "법적": 10556,
      "##도에서": 10557,
      "2에": 10558,
      "역사를": 10559,
      "공산": 10560,
      "##패널": 10561,
      "유엔": 10562,
      "공화": 10563,
      "올렸다": 10564,
      "리드": 10565,
      "세라믹": 10566,
      "사냥": 10567,
      "##범죄": 10568,
      "늘었다": 10569,
      "서울대": 10570,
      "저감": 10571,
      "##됨에": 10572,
      "##지능": 10573,
      "##스키": 10574,
      "비례": 10575,
      "##시마": 10576,
      "돈이": 10577,
      "성향": 10578,
      "됩니다": 10579,
      "서구": 10580,
      "특정한": 10581,
      "고등": 10582,
      "상부에": 10583,
      "재능": 10584,
      "아무것도": 10585,
      "##양을": 10586,
      "##공단": 10587,
      "상장": 10588,
      "##민주당": 10589,
      "밀려": 10590,
      "그러자": 10591,
      "올해는": 10592,
      "보낸": 10593,
      "한나라당": 10594,
      "경기에서": 10595,
      "포함해": 10596,
      "연말": 10597,
      "지금도": 10598,
      "제조된": 10599,
      "공중합": 10600,
      "전화를": 10601,
      "점도": 10602,
      "플라스틱": 10603,
      "음극": 10604,
      "궁극": 10605,
      "하여금": 10606,
      "만남": 10607,
      "제국": 10608,
      "중학교": 10609,
      "유일하게": 10610,
      "들을": 10611,
      "##봉사": 10612,
      "올리고": 10613,
      "후방": 10614,
      "##았을": 10615,
      "성능을": 10616,
      "##자산": 10617,
      "밀착": 10618,
      "걸려": 10619,
      "도내": 10620,
      "가중": 10621,
      "사이트": 10622,
      "권력": 10623,
      "정권": 10624,
      "##통을": 10625,
      "용이하게": 10626,
      "맡은": 10627,
      "상호작용": 10628,
      "##ef": 10629,
      "무서": 10630,
      "##발광": 10631,
      "동시": 10632,
      "##중인": 10633,
      "찾을": 10634,
      "##혁신": 10635,
      "CP": 10636,
      "거론": 10637,
      "환자의": 10638,
      "자신에게": 10639,
      "커다란": 10640,
      "거절": 10641,
      "왼쪽": 10642,
      "##나의": 10643,
      "피드": 10644,
      "##되자": 10645,
      "맞게": 10646,
      "관련하여": 10647,
      "구별": 10648,
      "1시간": 10649,
      "협상": 10650,
      "대조": 10651,
      "만일": 10652,
      "형태를": 10653,
      "##량에": 10654,
      "전부터": 10655,
      "시장이": 10656,
      "민감": 10657,
      "간접": 10658,
      "기능이": 10659,
      "한국은": 10660,
      "변조": 10661,
      "정렬": 10662,
      "편광": 10663,
      "바른": 10664,
      "SBS": 10665,
      "##색을": 10666,
      "##000원": 10667,
      "확실히": 10668,
      "북한이": 10669,
      "아이콘": 10670,
      "모으": 10671,
      "명백": 10672,
      "재난": 10673,
      "기본적으로": 10674,
      "##치기": 10675,
      "한마디": 10676,
      "IS": 10677,
      "논문": 10678,
      "##링을": 10679,
      "들어간": 10680,
      "대한민국의": 10681,
      "개발에": 10682,
      "주었다": 10683,
      "왜곡": 10684,
      "or": 10685,
      "##사랑": 10686,
      "본격적인": 10687,
      "구성될": 10688,
      "발전을": 10689,
      "매니": 10690,
      "무리": 10691,
      "여성의": 10692,
      "하던": 10693,
      "꺼내": 10694,
      "등장한다": 10695,
      "UE": 10696,
      "##행위": 10697,
      "성우": 10698,
      "하향": 10699,
      "목소리를": 10700,
      "공무": 10701,
      "##아웃": 10702,
      "##병을": 10703,
      "##카오": 10704,
      "글리": 10705,
      "##pl": 10706,
      "##연맹": 10707,
      "침해": 10708,
      "차지하는": 10709,
      "##골을": 10710,
      "이야기가": 10711,
      "전주": 10712,
      "본인이": 10713,
      "데려": 10714,
      "충청": 10715,
      "##영은": 10716,
      "##면에서": 10717,
      "##텔레": 10718,
      "세월호": 10719,
      "##설계": 10720,
      "지나치게": 10721,
      "속으로": 10722,
      "##작업": 10723,
      "전송하는": 10724,
      "중에서도": 10725,
      "펀드": 10726,
      "없어서": 10727,
      "an": 10728,
      "일행": 10729,
      "##하자면": 10730,
      "보편": 10731,
      "##문제": 10732,
      "바란다": 10733,
      "##씨를": 10734,
      "법정": 10735,
[...]
