[PAD]
[UNK]
[CLS]
[SEP]
[MASK]
!
"
#
$
%
&
'
(
)
*
+
,
-
.
/
0
1
2
3
4
5
6
7
8
9
:
;
<
=
>
?
@
A
B
C
D
E
F
G
H
I
J
K
L
M
N
O
P
Q
R
S
T
U
V
W
X
Y
Z
[
\
]
^
_
`
a
b
c
d
e
f
g
h
i
j
k
l
m
n
o
p
q
r
s
t
u
v
w
x
y
z
{
|
}
~
·
∼
가
각
간
갇
갈
갉
갊
감
갑
값
갓
갔
강
갖
갗
같
갚
갛
개
객
갠
갤
갬
갭
갯
갰
갱
갸
갹
갼
걀
걋
걍
걔
걘
걜
거
걱
건
걷
걸
걺
검
겁
것
겄
겅
겆
겉
겊
겋
게
겐
겔
겜
겝
겟
겠
겡
겨
격
겪
견
겯
결
겸
겹
겻
겼
경
곁
계
곈
곌
곕
곗
고
곡
곤
곧
골
곪
곬
곯
곰
곱
곳
공
곶
과
곽
관
괄
괆
괌
괍
괏
광
괘
괜
괠
괩
괬
괭
괴
괵
괸
괼
굄
굅
굇
굉
교
굔
굘
굡
굣
구
국
군
굳
굴
굵
굶
굻
굼
굽
굿
궁
궂
궈
궉
권
궐
궜
궝
궤
궷
귀
귁
귄
귈
귐
귑
귓
규
균
귤
그
극
근
귿
글
긁
금
급
긋
긍
긔
기
긱
긴
긷
길
긺
김
깁
깃
깅
깆
깊
까
깍
깎
깐
깔
깖
깜
깝
깟
깠
깡
깥
깨
깩
깬
깰
깸
깹
깻
깼
깽
꺄
꺅
꺌
꺼
꺽
꺾
껀
껄
껌
껍
껏
껐
껑
께
껙
껜
껨
껫
껭
껴
껸
껼
꼇
꼈
꼍
꼐
꼬
꼭
꼰
꼲
꼴
꼼
꼽
꼿
꽁
꽂
꽃
꽈
꽉
꽐
꽜
꽝
꽤
꽥
꽹
꾀
꾄
꾈
꾐
꾑
꾕
꾜
꾸
꾹
꾼
꿀
꿇
꿈
꿉
꿋
꿍
꿎
꿔
꿜
꿨
꿩
꿰
꿱
꿴
꿸
뀀
뀁
뀄
뀌
뀐
뀔
뀜
뀝
뀨
끄
끅
끈
끊
끌
끎
끓
끔
끕
끗
끙
끝
끼
끽
낀
낄
낌
낍
낏
낑
나
낙
낚
난
낟
날
낡
낢
남
납
낫
났
낭
낮
낯
낱
낳
내
낵
낸
낼
냄
냅
냇
냈
냉
냐
냑
냔
냘
냠
냥
너
넉
넋
넌
널
넒
넓
넘
넙
넛
넜
넝
넣
네
넥
넨
넬
넴
넵
넷
넸
넹
녀
녁
년
녈
념
녑
녔
녕
녘
녜
녠
노
녹
논
놀
놂
놈
놉
놋
농
높
놓
놔
놘
놜
놨
뇌
뇐
뇔
뇜
뇝
뇟
뇨
뇩
뇬
뇰
뇹
뇻
뇽
누
눅
눈
눋
눌
눔
눕
눗
눙
눠
눴
눼
뉘
뉜
뉠
뉨
뉩
뉴
뉵
뉼
늄
늅
늉
느
늑
는
늘
늙
늚
늠
늡
늣
능
늦
늪
늬
늰
늴
니
닉
닌
닐
닒
님
닙
닛
닝
닢
다
닥
닦
단
닫
달
닭
닮
닯
닳
담
답
닷
닸
당
닺
닻
닿
대
댁
댄
댈
댐
댑
댓
댔
댕
댜
더
덕
덖
던
덛
덜
덞
덟
덤
덥
덧
덩
덫
덮
데
덱
덴
델
뎀
뎁
뎃
뎄
뎅
뎌
뎐
뎔
뎠
뎡
뎨
뎬
도
독
돈
돋
돌
돎
돐
돔
돕
돗
동
돛
돝
돠
돤
돨
돼
됐
되
된
될
됨
됩
됫
됴
두
둑
둔
둘
둠
둡
둣
둥
둬
뒀
뒈
뒝
뒤
뒨
뒬
뒵
뒷
뒹
듀
듄
듈
듐
듕
드
득
든
듣
들
듦
듬
듭
듯
등
듸
디
딕
딘
딛
딜
딤
딥
딧
딨
딩
딪
따
딱
딴
딸
땀
땁
땃
땄
땅
땋
때
땍
땐
땔
땜
땝
땟
땠
땡
떠
떡
떤
떨
떪
떫
떰
떱
떳
떴
떵
떻
떼
떽
뗀
뗄
뗌
뗍
뗏
뗐
뗑
뗘
뗬
또
똑
똔
똘
똥
똬
똴
뙈
뙤
뙨
뚜
뚝
뚠
뚤
뚫
뚬
뚱
뛔
뛰
뛴
뛸
뜀
뜁
뜅
뜨
뜩
뜬
뜯
뜰
뜸
뜹
뜻
띄
띈
띌
띔
띕
띠
띤
띨
띰
띱
띳
띵
라
락
란
랄
람
랍
랏
랐
랑
랒
랖
랗
래
랙
랜
랠
램
랩
랫
랬
랭
랴
략
랸
럇
량
러
럭
런
럴
럼
럽
럿
렀
렁
렇
레
렉
렌
렐
렘
렙
렛
렝
려
력
련
렬
렴
렵
렷
렸
령
례
롄
롑
롓
로
록
론
롤
롬
롭
롯
롱
롸
롼
뢍
뢨
뢰
뢴
뢸
룀
룁
룃
룅
료
룐
룔
룝
룟
룡
루
룩
룬
룰
룸
룹
룻
룽
뤄
뤘
뤠
뤼
뤽
륀
륄
륌
륏
륑
류
륙
륜
률
륨
륩
륫
륭
르
륵
른
를
름
릅
릇
릉
릊
릍
릎
리
릭
린
릴
림
립
릿
링
마
막
만
많
맏
말
맑
맒
맘
맙
맛
망
맞
맡
맣
매
맥
맨
맬
맴
맵
맷
맸
맹
맺
먀
먁
먈
먕
머
먹
먼
멀
멂
멈
멉
멋
멍
멎
멓
메
멕
멘
멜
멤
멥
멧
멨
멩
며
멱
면
멸
몃
몄
명
몇
몌
모
목
몫
몬
몰
몲
몸
몹
못
몽
뫄
뫈
뫘
뫙
뫼
묀
묄
묍
묏
묑
묘
묜
묠
묩
묫
무
묵
묶
문
묻
물
묽
묾
뭄
뭅
뭇
뭉
뭍
뭏
뭐
뭔
뭘
뭡
뭣
뭬
뮈
뮌
뮐
뮤
뮨
뮬
뮴
뮷
므
믄
믈
믐
믓
미
믹
민
믿
밀
밂
밈
밉
밋
밌
밍
및
밑
바
박
밖
밗
반
받
발
밝
밞
밟
밤
밥
밧
방
밭
배
백
밴
밸
뱀
뱁
뱃
뱄
뱅
뱉
뱌
뱍
뱐
뱝
버
벅
번
벋
벌
벎
범
법
벗
벙
벚
베
벡
벤
벧
벨
벰
벱
벳
벴
벵
벼
벽
변
별
볍
볏
볐
병
볕
볘
볜
보
복
볶
본
볼
봄
봅
봇
봉
봐
봔
봤
봬
뵀
뵈
뵉
뵌
뵐
뵘
뵙
뵤
뵨
부
북
분
붇
불
붉
붊
붐
붑
붓
붕
붙
붚
붜
붤
붰
붸
뷔
뷕
뷘
뷜
뷩
뷰
뷴
뷸
븀
븃
븅
브
븍
븐
블
븜
븝
븟
비
빅
빈
빌
빎
빔
빕
빗
빙
빚
빛
빠
빡
빤
빨
빪
빰
빱
빳
빴
빵
빻
빼
빽
뺀
뺄
뺌
뺍
뺏
뺐
뺑
뺘
뺙
뺨
뻐
뻑
뻔
뻗
뻘
뻠
뻣
뻤
뻥
뻬
뼁
뼈
뼉
뼘
뼙
뼛
뼜
뼝
뽀
뽁
뽄
뽈
뽐
뽑
뽕
뾔
뾰
뿅
뿌
뿍
뿐
뿔
뿜
뿟
뿡
쀼
쁑
쁘
쁜
쁠
쁨
쁩
삐
삑
삔
삘
삠
삡
삣
삥
사
삭
삯
산
삳
살
삵
삶
삼
삽
삿
샀
상
샅
새
색
샌
샐
샘
샙
샛
샜
생
샤
샥
샨
샬
샴
샵
샷
샹
섀
섄
섈
섐
섕
서
석
섞
섟
선
섣
설
섦
섧
섬
섭
섯
섰
성
섶
세
섹
센
셀
셈
셉
셋
셌
셍
셔
셕
션
셜
셤
셥
셧
셨
셩
셰
셴
셸
솅
소
속
솎
손
솔
솖
솜
솝
솟
송
솥
솨
솩
솬
솰
솽
쇄
쇈
쇌
쇔
쇗
쇘
쇠
쇤
쇨
쇰
쇱
쇳
쇼
쇽
숀
숄
숌
숍
숏
숑
수
숙
순
숟
술
숨
숩
숫
숭
숯
숱
숲
숴
쉈
쉐
쉑
쉔
쉘
쉠
쉥
쉬
쉭
쉰
쉴
쉼
쉽
쉿
슁
슈
슉
슐
슘
슛
슝
스
슥
슨
슬
슭
슴
습
슷
승
시
식
신
싣
실
싫
심
십
싯
싱
싶
싸
싹
싻
싼
쌀
쌈
쌉
쌌
쌍
쌓
쌔
쌕
쌘
쌜
쌤
쌥
쌨
쌩
썅
써
썩
썬
썰
썲
썸
썹
썼
썽
쎄
쎈
쎌
쏀
쏘
쏙
쏜
쏟
쏠
쏢
쏨
쏩
쏭
쏴
쏵
쏸
쐈
쐐
쐤
쐬
쐰
쐴
쐼
쐽
쑈
쑤
쑥
쑨
쑬
쑴
쑵
쑹
쒀
쒔
쒜
쒸
쒼
쓩
쓰
쓱
쓴
쓸
쓺
쓿
씀
씁
씌
씐
씔
씜
씨
씩
씬
씰
씸
씹
씻
씽
아
악
안
앉
않
알
앍
앎
앓
암
압
앗
았
앙
앝
앞
애
액
앤
앨
앰
앱
앳
앴
앵
야
약
얀
얄
얇
얌
얍
얏
양
얕
얗
얘
얜
얠
얩
어
억
언
얹
얻
얼
얽
얾
엄
업
없
엇
었
엉
엊
엌
엎
에
엑
엔
엘
엠
엡
엣
엥
여
역
엮
연
열
엶
엷
염
엽
엾
엿
였
영
옅
옆
옇
예
옌
옐
옘
옙
옛
옜
오
옥
온
올
옭
옮
옰
옳
옴
옵
옷
옹
옻
와
왁
완
왈
왐
왑
왓
왔
왕
왜
왝
왠
왬
왯
왱
외
왹
왼
욀
욈
욉
욋
욍
요
욕
욘
욜
욤
욥
욧
용
우
욱
운
울
욹
욺
움
웁
웃
웅
워
웍
원
월
웜
웝
웠
웡
웨
웩
웬
웰
웸
웹
웽
위
윅
윈
윌
윔
윕
윗
윙
유
육
윤
율
윰
윱
윳
융
윷
으
윽
은
을
읊
음
읍
읏
응
읒
읓
읔
읕
읖
읗
의
읜
읠
읨
읫
이
익
인
일
읽
읾
잃
임
입
잇
있
잉
잊
잎
자
작
잔
잖
잗
잘
잚
잠
잡
잣
잤
장
잦
재
잭
잰
잴
잼
잽
잿
쟀
쟁
쟈
쟉
쟌
쟎
쟐
쟘
쟝
쟤
쟨
쟬
저
적
전
절
젊
점
접
젓
정
젖
제
젝
젠
젤
젬
젭
젯
젱
져
젼
졀
졈
졉
졌
졍
졔
조
족
존
졸
졺
좀
좁
좃
종
좆
좇
좋
좌
좍
좔
좝
좟
좡
좨
좼
좽
죄
죈
죌
죔
죕
죗
죙
죠
죡
죤
죵
주
죽
준
줄
줅
줆
줌
줍
줏
중
줘
줬
줴
쥐
쥑
쥔
쥘
쥠
쥡
쥣
쥬
쥰
쥴
쥼
즈
즉
즌
즐
즘
즙
즛
증
지
직
진
짇
질
짊
짐
집
짓
징
짖
짙
짚
짜
짝
짠
짢
짤
짧
짬
짭
짯
짰
짱
째
짹
짼
쨀
쨈
쨉
쨋
쨌
쨍
쨔
쨘
쨩
쩌
쩍
쩐
쩔
쩜
쩝
쩟
쩠
쩡
쩨
쩽
쪄
쪘
쪼
쪽
쫀
쫄
쫌
쫍
쫏
쫑
쫓
쫘
쫙
쫠
쫬
쫴
쬈
쬐
쬔
쬘
쬠
쬡
쭁
쭈
쭉
쭌
쭐
쭘
쭙
쭝
쭤
쭸
쭹
쮜
쮸
쯔
쯤
쯧
쯩
찌
찍
찐
찔
찜
찝
찡
찢
찧
차
착
찬
찮
찰
참
찹
찻
찼
창
찾
채
책
챈
챌
챔
챕
챗
챘
챙
챠
챤
챦
챨
챰
챵
처
척
천
철
첨
첩
첫
첬
청
체
첵
첸
첼
쳄
쳅
쳇
쳉
쳐
쳔
쳤
쳬
쳰
촁
초
촉
촌
촐
촘
촙
촛
총
촤
촨
촬
촹
최
쵠
쵤
쵬
쵭
쵯
쵱
쵸
춈
추
축
춘
출
춤
춥
춧
충
춰
췄
췌
췐
취
췬
췰
췸
췹
췻
췽
츄
츈
츌
츔
츙
츠
측
츤
츨
츰
츱
츳
층
치
칙
친
칟
칠
칡
침
칩
칫
칭
카
칵
칸
칼
캄
캅
캇
캉
캐
캑
캔
캘
캠
캡
캣
캤
캥
캬
캭
컁
커
컥
컨
컫
컬
컴
컵
컷
컸
컹
케
켁
켄
켈
켐
켑
켓
켕
켜
켠
켤
켬
켭
켯
켰
켱
켸
코
콕
콘
콜
콤
콥
콧
콩
콰
콱
콴
콸
쾀
쾅
쾌
쾡
쾨
쾰
쿄
쿠
쿡
쿤
쿨
쿰
쿱
쿳
쿵
쿼
퀀
퀄
퀑
퀘
퀭
퀴
퀵
퀸
퀼
큄
큅
큇
큉
큐
큔
큘
큠
크
큭
큰
클
큼
큽
킁
키
킥
킨
킬
킴
킵
킷
킹
타
탁
탄
탈
탉
탐
탑
탓
탔
탕
태
택
탠
탤
탬
탭
탯
탰
탱
탸
턍
터
턱
턴
털
턺
텀
텁
텃
텄
텅
테
텍
텐
텔
템
텝
텟
텡
텨
텬
텼
톄
톈
토
톡
톤
톨
톰
톱
톳
통
톺
톼
퇀
퇘
퇴
퇸
툇
툉
툐
투
툭
툰
툴
툼
툽
툿
퉁
퉈
퉜
퉤
튀
튁
튄
튈
튐
튑
튕
튜
튠
튤
튬
튱
트
특
튼
튿
틀
틂
틈
틉
틋
틔
틘
틜
틤
틥
티
틱
틴
틸
팀
팁
팃
팅
파
팍
팎
판
팔
팖
팜
팝
팟
팠
팡
팥
패
팩
팬
팰
팸
팹
팻
팼
팽
퍄
퍅
퍼
퍽
펀
펄
펌
펍
펏
펐
펑
페
펙
펜
펠
펨
펩
펫
펭
펴
편
펼
폄
폅
폈
평
폐
폘
폡
폣
포
폭
폰
폴
폼
폽
폿
퐁
퐈
퐝
푀
푄
표
푠
푤
푭
푯
푸
푹
푼
푿
풀
풂
품
풉
풋
풍
풔
풩
퓌
퓐
퓔
퓜
퓟
퓨
퓬
퓰
퓸
퓻
퓽
프
픈
플
픔
픕
픗
피
픽
핀
필
핌
핍
핏
핑
하
학
한
할
핥
함
합
핫
항
해
핵
핸
핼
햄
햅
햇
했
행
햐
향
허
헉
헌
헐
헒
험
헙
헛
헝
헤
헥
헨
헬
헴
헵
헷
헹
혀
혁
현
혈
혐
협
혓
혔
형
혜
혠
혤
혭
호
혹
혼
홀
홅
홈
홉
홋
홍
홑
화
확
환
활
홧
황
홰
홱
홴
횃
횅
회
획
횐
횔
횝
횟
횡
효
횬
횰
횹
횻
후
훅
훈
훌
훑
훔
훗
훙
훠
훤
훨
훰
훵
훼
훽
휀
휄
휑
휘
휙
휜
휠
휨
휩
휫
휭
휴
휵
휸
휼
흄
흇
흉
흐
흑
흔
흖
흗
흘
흙
흠
흡
흣
흥
흩
희
흰
흴
흼
흽
힁
히
힉
힌
힐
힘
힙
힛
힝
％
##7
##미
##만
##에
##처
##했
##었
##다
##사
##발
##로
##질
##산
##화
##는
##류
##핵
##고
##너
##무
##타
##스
##그
##라
##시
##아
##럼
##신
##이
##구
##나
##소
##레
##르
##알
##데
##히
##드
##의
##토
##대
##중
##를
##마
##주
##최
##진
##실
##하
##수
##정
##보
##템
##체
##릴
##계
##성
##되
##어
##있
##서
##피
##털
##까
##지
##트
##먼
##출
##연
##2
##호
##네
##츠
##일
##자
##급
##4
##부
##기
##상
##여
##을
##술
##용
##역
##k
##t
##o
##d
##e
##c
##i
##l
##n
##물
##틸
##세
##테
##장
##인
##액
##품
##분
##식
##3
##9
##과
##0
##망
##늑
##티
##킹
##환
##작
##가
##님
##크
##롤
##션
##평
##파
##센
##H
##O
##W
##T
##I
##M
##E
##왓
##챠
##확
##명
##임
##백
##십
##코
##찍
##훈
##해
##병
##개
##배
##면
##터
##점
##방
##카
##메
##비
##플
##우
##렬
##핀
##으
##잘
##없
##리
##투
##쉬
##쿠
##씨
##며
##감
##한
##단
##J
##y
##g
##N
##Z
##X
##q
##u
##h
##s
##a
##x
##즉
##렷
##또
##할
##송
##료
##빡
##냐
##법
##생
##콩
##째
##균
##8
##1
##행
##은
##천
##억
##원
##운
##통
##도
##커
##녕
##5
##국
##담
##6
##문
##픽
##슈
##승
##효
##준
##회
##합
##형
##디
##캠
##란
##콧
##론
##짱
##포
##켓
##몬
##m
##C
##p
##헤
##페
##교
##육
##업
##본
##색
##깔
##밍
##외
##영
##접
##민
##특
##위
##와
##S
##P
##뫼
##게
##층
##악
##령
##견
##셨
##더
##니
##길
##치
##험
##입
##북
##금
##들
##목
##∼
##남
##춘
##전
##강
##존
##것
##징
##워
##재
##렙
##넬
##r
##z
##복
##협
##동
##조
##슴
##버
##클
##책
##바
##탄
##공
##F
##판
##유
##선
##경
##제
##향
##년
##칭
##끼
##홈
##졸
##안
##요
##등
##A
##왕
##펜
##박
##차
##결
##함
##두
##붓
##팟
##켜
##학
##좌
##내
##듯
##딸
##설
##휴
##래
##컴
##퓨
##종
##간
##납
##저
##Y
##노
##케
##혔
##때
##관
##초
##획
##편
##당
##려
##G
##럴
##브
##맥
##쟁
##적
##착
##취
##림
##K
##력
##였
##겠
##블
##릿
##건
##달
##러
##반
##탐
##욕
##움
##옥
##잎
##퍼
##휘
##던
##격
##머
##능
##철
##R
##B
##항
##풍
##텍
##순
##빈
##릭
##b
##불
##륜
##셈
##펌
##루
##쥬
##오
##증
##폭
##듬
##야
##칼
##맨
##석
##된
##음
##U
##량
##잠
##앞
##뮤
##직
##족
##충
##념
##써
##짤
##탈
##튜
##립
##온
##참
##예
##각
##록
##힘
##절
##V
##태
##양
##광
##D
##매
##독
##집
##슨
##변
##키
##쇼
##맞
##춤
##속
##언
##앉
##숲
##모
##글
##벌
##람
##켄
##뿐
##습
##축
##닌
##희
##푸
##농
##받
##런
##곳
##싸
##애
##빌
##패
##름
##칠
##댔
##규
##캔
##빙
##락
##봉
##콘
##텐
##누
##겐
##약
##프
##L
##녀
##완
##될
##쪽
##윤
##례
##청
##긴
##넷
##f
##젠
##엔
##렉
##척
##헥
##짓
##찰
##열
##린
##팅
##염
##앨
##즈
##검
##슬
##줘
##랄
##권
##월
##채
##묘
##쌍
##앙
##굴
##걸
##측
##곡
##웨
##얀
##베
##므
##궁
##궐
##믹
##톨
##활
##별
##탁
##덱
##값
##울
##표
##현
##극
##택
##씬
##푼
##붙
##귀
##끝
##딘
##룩
##거
##혜
##놓
##필
##느
##삭
##셰
##빵
##풋
##굿
##혈
##렌
##링
##핑
##황
##쫄
##엣
##범
##율
##잉
##밀
##뜰
##략
##럽
##닐
##덴
##깐
##딪
##침
##벽
##겟
##추
##촌
##같
##홍
##섬
##듈
##뿜
##든
##난
##봐
##걱
##랜
##득
##혁
##v
##틀
##졌
##률
##흥
##펀
##섯
##팜
##셀
##왔
##j
##살
##찌
##룹
##른
##웃
##뻥
##김
##겼
##흰
##냥
##맹
##찬
##말
##몰
##윌
##엄
##멍
##련
##심
##퀴
##닛
##헌
##및
##갑
##압
##툼
##았
##융
##팀
##총
##죽
##폰
##컨
##꼬
##군
##랑
##펼
##칙
##돌
##렇
##팁
##쯤
##멧
##막
##캡
##엑
##암
##새
##렸
##켈
##놨
##친
##늘
##빛
##덥
##룬
##손
##낙
##w
##밖
##싱
##혹
##객
##톤
##톡
##쇄
##숙
##륙
##냉
##웹
##킬
##쳐
##줄
##랙
##븐
##궈
##괴
##옵
##혀
##뽑
##챈
##탱
##컷
##혼
##닥
##쿨
##혐
##붕
##허
##롱
##잡
##널
##웠
##룔
##곤
##킷
##응
##번
##홀
##엠
##뤄
##덜
##죄
##탭
##꾼
##답
##쑥
##논
##빔
##닝
##츄
##촉
##욱
##왈
##엌
##횡
##뷔
##봤
##갤
##괄
##놈
##창
##셔
##촬
##날
##짜
##닷
##랐
##잔
##뼈
##깨
##룡
##벤
##떨
##펠
##툴
##킨
##찮
##골
##몽
##딜
##후
##퀘
##꼴
##팔
##듐
##덕
##둥
##델
##밸
##많
##웅
##뱃
##윈
##풀
##믿
##탕
##솔
##앰
##쾌
##몸
##앤
##끈
##둑
##뒤
##께
##짐
##쿄
##뱅
##삼
##뿌
##겨
##올
##갈
##벼
##놀
##콕
##져
##줬
##럿
##맵
##휠
##튼
##욘
##흔
##썩
##닉
##텔
##젼
##엇
##듣
##뀌
##섭
##근
##죠
##헝
##즌
##셜
##벡
##흙
##삽
##않
##눈
##쫌
##됩
##콜
##셋
##탑
##큼
##렵
##큐
##따
##얼
##왜
##곱
##됨
##핸
##뢰
##렴
##텀
##밴
##녹
##밟
##늬
##펙
##훼
##퐁
##틱
##됐
##큰
##맛
##밤
##칸
##땐
##읍
##볼
##멘
##잖
##싶
##벳
##흡
##럭
##폐
##흠
##턴
##쳰
##톰
##캣
##캐
##힐
##좀
##뱀
##돼
##잇
##칩
##긋
##쫑
##얘
##쵸
##렛
##켰
##뜨
##픈
##춰
##못
##쎄
##폴
##둔
##렁
##헬
##쁘
##띠
##떠
##랭
##낮
##탬
##엘
##꽃
##흐
##봇
##캘
##튬
##롯
##첸
##틴
##넛
##넘
##뭔
##벨
##딩
##넌
##갓
##쟈
##큘
##봄
##쁜
##꾀
##쿤
##꾸
##쉐
##즘
##쓰
##밥
##뤼
##뎅
##멸
##샘
##첩
##펄
##놔
##랩
##캅
##둘
##팽
##엽
##붉
##찜
##먹
##캇
##뷰
##뿔
##낸
##뚜
##껑
##랬
##윳
##냈
##갔
##떡
##옹
##즐
##샤
##읽
##익
##땡
##톱
##퀀
##떼
##겸
##놋
##Q
##댄
##맘
##뎌
##긔
##팩
##퇴
##쨉
##냄
##밭
##뉴
##뇌
##눔
##램
##귤
##냅
##밋
##밑
##끔
##닦
##넣
##벗
##늄
##칫
##돈
##빼
##앗
##흑
##켐
##랫
##폼
##팝
##롭
##룸
##씌
##덤
##좋
##릉
##옷
##랴
##씩
##슷
##쥐
##꺼
##삿
##띨
##턱
##힌
##렝
##빠
##륨
##곰
##샨
##닭
##렘
##컵
##멜
##믄
##팰
##멥
##샵
##갖
##팡
##돔
##낌
##콤
##뚝
##륵
##댓
##덩
##숭
##낼
##넥
##끄
##랍
##챘
##윅
##뻗
##촨
##툰
##꽂
##컬
##껏
##젝
##뀨
##빅
##뭄
##흘
##웰
##꼼
##짝
##끗
##샷
##렐
##얗
##팬
##났
##딱
##꿨
##깁
##첫
##벅
##겅
##뮬
##찔
##젤
##맴
##놉
##눠
##삘
##킴
##겔
##덮
##몇
##됴
##옌
##첨
##귄
##킁
##뭐
##볏
##땅
##멱
##렀
##찾
##숴
##헨
##뵤
##싹
##킥
##룻
##캉
##딕
##벙
##닫
##잃
##꼭
##숩
##틈
##챔
##닿
##셍
##엉
##찐
##눅
##펑
##슘
##뒀
##잣
##댐
##흉
##쇠
##숍
##둠
##듦
##깽
##롄
##뎀
##맷
##텝
##딧
##끌
##뻬
##셸
##높
##옻
##몹
##륭
##넉
##쨩
##땀
##뻣
##젬
##퓌
##괜
##쫓
##뽈
##엿
##꿀
##숫
##돐
##횟
##깅
##겁
##숨
##뜩
##쌓
##긍
##퀼
##씽
##줌
##랏
##깥
##껄
##둡
##쉼
##봅
##헐
##뎡
##잼
##솥
##듀
##멋
##뜸
##멀
##섹
##낭
##멤
##뜯
##롬
##쎈
##젊
##뭉
##큔
##쑤
##갱
##궤
##겻
##햄
##펭
##룽
##촛
##떤
##잤
##윽
##댁
##셧
##낍
##볕
##믈
##뎨
##슛
##쩌
##쑹
##텁
##랗
##벚
##쁨
##싼
##웁
##쌀
##씰
##땜
##괭
##쳤
##뙈
##뻤
##쓴
##홉
##햇
##쉽
##볶
##듭
##씀
##갸
##헴
##묵
##탠
##곁
##꿈
##썸
##곽
##빨
##츨
##쪼
##젱
##췄
##떻
##옐
##갭
##팍
##셉
##슐
##쩡
##묻
##윕
##깊
##셴
##틔
##튤
##썹
##샌
##갹
##쉴
##짬
##뽕
##쿡
##쉘
##삐
##삶
##쩐
##컫
##폿
##녔
##푀
##뉘
##헉
##잭
##옛
##쉰
##켠
##꿔
##닮
##낚
##깝
##뷸
##뺀
##뚱
##탯
##깃
##끽
##쿵
##굽
##핫
##잊
##섞
##댕
##콥
##랠
##츈
##즛
##웍
##뇨
##펴
##먀
##꽈
##햅
##싫
##밧
##썬
##챙
##쥴
##릇
##힉
##딨
##힙
##뷜
##굵
##줍
##윗
##튀
##젓
##죤
##샬
##왑
##읊
##쩨
##똘
##껴
##텅
##쏘
##눌
##룰
##옮
##굳
##옆
##얽
##뻐
##켤
##췌
##뜬
##힛
##쟀
##릅
##뜻
##싯
##쨍
##쿼
##얻
##삯
##헙
##홋
##쯔
##뻔
##뱌
##윙
##탓
##녁
##젯
##갚
##쓸
##녜
##콰
##톈
##떳
##짙
##뇽
##횐
##넨
##똥
##깎
##씸
##큭
##헛
##꽤
##뛰
##즙
##쩍
##궂
##곧
##탤
##뎁
##겄
##첼
##욧
##닢
##쌈
##찼
##깡
##릎
##펫
##겹
##픕
##솜
##슥
##몃
##굼
##랸
##잽
##멕
##끊
##귓
##꽝
##쌉
##쩔
##왁
##샹
##똑
##휨
##챕
##챌
##눙
##짠
##훗
##앱
##핍
##냑
##쨌
##딤
##쭤
##퉁
##툽
##닙
##쌩
##튠
##뎃
##섀
##깜
##껍
##켁
##겉
##쭉
##둬
##묶
##옴
##솟
##퀸
##녘
##딥
##걀
##걍
##돤
##챤
##앵
##맡
##껀
##낀
##밝
##돗
##맏
##숀
##깍
##곶
##웜
##늦
##섰
##꼿
##쳔
##얄
##닯
##엎
##횬
##캬
##륄
##샴
##댈
##뎬
##넹
##힝
##묜
##썰
##랖
##빗
##뎠
##끎
##샀
##뫄
##뿡
##줴
##슭
##쏟
##낵
##훠
##걷
##뱁
##텟
##팥
##츤
##빚
##웬
##멩
##흣
##슝
##숏
##켑
##퍽
##쭘
##괘
##얏
##좆
##덟
##캄
##퓰
##찻
##펍
##딴
##콸
##퀄
##컹
##멈
##끓
##냘
##댜
##밉
##퉜
##푯
##궉
##낫
##곈
##큠
##뱉
##덧
##넓
##곪
##쌘
##뭇
##뀐
##뚤
##쭐
##갯
##톳
##륀
##귐
##꼇
##햐
##픔
##뺐
##꾹
##펨
##낡
##굉
##쭝
##찹
##킵
##꼰
##핏
##섕
##쳇
##눕
##훌
##돕
##뎐
##꼈
##짖
##졍
##눗
##춧
##싻
##짭
##밌
##맑
##얌
##쉈
##뽀
##옇
##엥
##띄
##켱
##끅
##짚
##뻑
##슉
##팸
##훤
##젖
##꺽
##샐
##틋
##넴
##앓
##왼
##얇
##뮌
##쌔
##쭈
##썼
##꿍
##붐
##띵
##뮐
##뀝
##돋
##겡
##겜
##룐
##걘
##넝
##똬
##댑
##뮴
##쾨
##뚫
##뵈
##쥔
##늪
##휼
##쳄
##꿉
##갇
##욤
##볍
##듸
##칵
##첵
##왠
##펩
##늙
##욜
##텨
##꿇
##뿟
##폈
##줏
##팻
##뿅
##핥
##옘
##컥
##씻
##짹
##녈
##죈
##뇰
##쌤
##쮸
##끙
##뗀
##쟝
##넙
##쳉
##훙
##쑨
##쨔
##숑
##꽁
##띳
##짇
##헷
##뺨
##폽
##뤘
##쒸
##읏
##뾰
##훅
##휀
##쏜
##쪄
##헵
##훨
##숯
##딛
##붸
##쿰
##돛
##땃
##껨
##낳
##춥
##풉
##찡
##씹
##윔
##뗄
##귈
##웡
##뒷
##맙
##탸
##낑
##뉼
##쐰
##썽
##몫
##긁
##풂
##둣
##좡
##낏
##텃
##셩
##겊
##찧
##뇬
##팎
##밈
##쩝
##땟
##쏙
##짢
##꼐
##쏭
##쭙
##룟
##냔
##튕
##얹
##궜
##붑
##쨋
##쐐
##욥
##벰
##븀
##빤
##낱
##잦
##췻
##묠
##훔
##샛
##퉈
##콴
##엡
##떴
##탉
##씁
##짧
##팹
##돠
##푹
##썅
##뱐
##넋
##샥
##깼
##쁑
##횅
##웩
##펐
##쓩
##괵
##늠
##꼽
##쉿
##겪
##쾀
##뭘
##쟎
##헹
##쿱
##쥰
##좁
##졔
##뤽
##횃
##옙
##쑈
##켯
##횔
##뒨
##뀔
##뻘
##갰
##핌
##옅
##췐
##큅
##팠
##컸
##탔
##늉
##뛸
##갠
##앍
##꿰
##퀵
##튿
##냠
##됫
##껌
##툭
##삥
##땔
##휩
##읜
##걔
##뺏
##쾅
##뚬
##쩜
##숄
##엊
##봔
##옳
##몄
##쿳
##챗
##섣
##껜
##빻
##탰
##걋
##쏠
##롸
##욀
##캤
##겯
##닺
##쟌
##뵐
##빴
##왱
##굶
##뗌
##갗
##폄
##꽥
##삔
##갬
##웽
##짊
##찢
##뿍
##긱
##맬
##냇
##볐
##췬
##꿩
##텼
##꺾
##툐
##흗
##쁠
##낯
##벧
##뵙
##촹
##얍
##깬
##퐝
##튄
##뛴
##짼
##쌌
##곗
##휄
##럇
##맣
##돝
##쵠
##퐈
##넸
##늅
##띤
##캥
##뽄
##깩
##짯
##뉜
##쒀
##뮈
##텡
##먕
##낄
##셌
##읠
##챵
##멨
##굘
##셤
##젭
##뒹
##펏
##윰
##흄
##쯧
##촘
##솨
##빽
##갉
##쫀
##엾
##넵
##앴
##켭
##쾰
##뼘
##띰
##벵
##놜
##뮨
##쭸
##쇽
##홰
##묀
##뙤
##돨
##맺
##뷴
##덫
##맸
##붇
##쓱
##땁
##잴
##잿
##숟
##귿
##낢
##믐
##샙
##퍄
##엮
##떽
##촐
##땍
##뺄
##쉔
##핼
##띔
##튁
##츙
##얕
##갛
##웸
##닳
##앝
##롼
##츳
##쥘
##땠
##횹
##괸
##솽
##죵
##뺑
##꺄
##혓
##뀜
##챰
##뼛
##쀼
##삡
##읨
##욋
##삑
##츰
##쟤
##잰
##휙
##뤠
##츌
##륌
##웝
##쭌
##팼
##닻
##눴
##캑
##넜
##룅
##뺌
##믓
##툿
##굣
##솝
##떰
##빰
##깟
##졈
##꽹
##뽐
##앳
##빕
##쎌
##쫏
##볜
##뭍
##촤
##쬐
##찝
##깻
##꾜
##쉑
##쨈
##좃
##쐬
##죌
##졀
##묏
##녑
##챦
##겋
##샜
##텄
##껫
##왐
##왬
##괌
##윷
##쐈
##퇘
##꽉
##뚠
##췰
##퓻
##쏨
##쾡
##죙
##빱
##텬
##좇
##굔
##쏴
##얜
##읕
##끕
##뭬
##퍅
##죡
##묄
##옭
##쯩
##쟉
##쫘
##빳
##팃
##늣
##퓸
##떵
##촙
##볘
##콱
##틂
##똔
##늴
##톼
##졉
##숱
##읓
##뼉
##땄
##룀
##휜
##쫙
##흩
##셥
##싣
##훑
##셕
##홧
##챨
##잗
##묫
##붜
##쁩
##땝
##뭡
##깰
##뷕
##듄
##껭
##뼁
##퓐
##뒈
##븍
##깠
##귁
##롓
##홑
##읗
##뗏
##삳
##왝
##삣
##쇳
##껼
##눋
##듕
##쑴
##꿎
##뷘
##샅
##껐
##뇜
##솎
##뵨
##녠
##뺘
##첬
##섶
##큄
##섐
##좍
##룁
##쉠
##퉤
##쳬
##늰
##씜
##뢴
##랒
##륫
##쨀
##릍
##쉥
##떫
##먈
##큇
##퓔
##롑
##덞
##칡
##묽
##왯
##츔
##춈
##칟
##쨘
##쑬
##솬
##껸
##뭅
##짰
##솅
##갼
##좨
##봬
##횰
##쳅
##꿋
##겝
##븜
##뜀
##슁
##곯
##톄
##옜
##솰
##튐
##큽
##뗑
##몌
##휑
##귑
##묾
##괏
##뵌
##꽐
##곬
##켕
##뜹
##섦
##튈
##줆
##뗐
##푠
##푤
##룝
##괍
##솩
##쟐
##멎
##눼
##읫
##섈
##륩
##쪘
##툇
##왹
##욺
##뗍
##읖
##낟
##쥼
##떱
##쌕
##컁
##췸
##멓
##씐
##쥠
##읒
##혠
##쒜
##엷
##쇤
##궝
##륏
##뽁
##벱
##꼍
##좝
##켸
##퇀
##곌
##욹
##틉
##땋
##륑
##횝
##팖
##깸
##횻
##퀑
##쉭
##굡
##쩽
##뭣
##픗
##뒬
##뉨
##퀭
##큉
##뢸
##쬠
##깹
##꺅
##뇻
##덖
##쥑
##삵
##띱
##죔
##휵
##캭
##쩠
##폘
##뉩
##휸
##뗘
##좔
##쥡
##뫙
##뇩
##먁
##뉵
##툉
##폅
##븅
##흽
##쫍
##넒
##뢍
##멂
##뛔
##겆
##퇸
##뵉
##섧
##쬘
##홴
##풔
##뵀
##굇
##윱
##턍
##쫴
##틜
##켬
##푭
##읔
##쇱
##룃
##굻
##꾐
##븝
##꺌
##꿸
##뇐
##벋
##톺
##뼝
##쏩
##뭏
##굄
##섟
##앎
##긷
##띈
##혤
##밞
##흴
##휭
##퓬
##뇔
##븃
##닸
##멉
##흇
##줅
##뎔
##놘
##쑵
##숌
##괠
##쌨
##궷
##튱
##뜁
##곕
##묑
##뱝
##뉠
##죗
##븟
##깆
##쮜
##뱄
##쭁
##뒝
##쵤
##좼
##쩟
##쥣
##늡
##뵘
##쒔
##밗
##츱
##쟘
##얩
##욍
##쬔
##괼
##삠
##풩
##퓜
##퓟
##퓽
##릊
##푿
##쇨
##껙
##섄
##쏀
##뺍
##뎄
##휫
##굅
##몲
##꾕
##밂
##뢨
##돎
##닒
##쌥
##묍
##묩
##쟨
##꿴
##쒼
##뙨
##잚
##훽
##혭
##긺
##푄
##튑
##갊
##솖
##턺
##좟
##뀀
##뺙
##꿱
##벴
##췽
##훰
##띌
##쓿
##뼜
##훵
##빪
##꿜
##쓺
##뻠
##틘
##쐼
##뗬
##뀄
##빎
##쇈
##늚
##쫬
##걜
##뇟
##힁
##뱍
##홱
##꽜
##흖
##죕
##욉
##뇹
##얠
##쏵
##쵭
##놂
##쌜
##꾄
##덛
##쟬
##붚
##꾈
##맒
##걺
##쬈
##쇌
##쇔
##쇗
##붤
##졺
##뫈
##욈
##붊
##쏸
##췹
##흼
##뮷
##붰
##뇝
##쫠
##좽
##뾔
##쐴
##엶
##폡
##틥
##벎
##씔
##틤
##괬
##홅
##쇰
##폣
##뼙
##쵱
##떪
##쵬
##뫘
##뷩
##쬡
##옰
##뒵
##뜅
##읾
##쵯
##깖
##헒
##꼲
##쏢
##썲
##괆
##괩
##촁
##얾
##똴
##쐤
##으로
##에서
##하는
있다
상기
##이다
##하고
##했다
##00
##었다
있는
##하여
##한다
##지만
20
##적으로
##되는
##에게
##하게
##적인
##니다
##들이
##부터
##에는
대한
##하기
##이라
##까지
한다
##면서
10
사용
경우
하는
위해
##다는
포함
있어
##들은
##였다
때문
사람
또는
##들의
##다고
따라
19
것이
제1
201
##도록
것이다
##되어
##된다
위한
##으며
통해
아니
하나
##리고
것으로
##레이
11
##들을
##에서는
다른
이상
##하다
12
한국
지난
##하지
그러
200
가능
같은
##기를
##았다
이용
실시
##지는
우리
들어
있어서
제2
것을
##er
자신
또한
형성
개발
문제
##라고
기술
##이나
프로
발명
연구
대해
##하면
때문에
##되고
생각
##하며
##에도
정보
##성을
##보다
##는데
것은
##대로
##in
##습니다
사이
함께
했다
##리를
##이터
##스트
##on
나타
구성
##스템
장치
지역
필요
##리는
##라는
##거나
방법
의해
##지를
그리고
15
100
##이스
이후
말했다
##자는
##기에
관련
된다
##시키
아이
시간
않는
30
가장
제공
##력을
시작
##서는
하지만
##자가
정도
##이트
13
##자의
##이고
제어
있었다
그러나
##하였다
##이라고
미국
##사를
##기도
##장은
발생
설명
따른
만들
시스템
##지고
위치
관계
세계
##처럼
하고
사업
##기가
결과
데이터
##성이
##20
사실
모두
##at
사회
##해야
##장을
일본
상태
정부
현재
다양
없는
14
신호
등을
##an
대표
특히
없다
서울
연결
##en
이어
지원
##상을
다음
##로부터
도시
많은
##정을
그는
##or
다시
아니라
모든
##비스
##이었다
그런
진행
18
상황
기업
##졌다
##수의
##하면서
##기는
실시예
구조
이러
이미
같이
##이라는
중국
교육
16
##화를
이번
발명의
선택
##으나
각각
제조
분석
##al
##리가
이러한
##혔다
이를
##들에게
##로운
다양한
##주의
국내
결정
이동
##자를
효과
##해서
바람
##이는
단계
국가
21
##도를
이루
##통령
등의
##부를
##으면
경제
##징으로
있을
수도
평가
##ar
그렇
대통령
부분
##이드
##되었다
##위원
밝혔다
이런
있었
모습
25
##스터
대상
##학교
증가
##ic
있고
##에서도
##됐다
설치
이에
방향
50
일반
##장이
##로서
기준
지금
##으로써
##장치
있으며
그래
##어진
##어도
##원을
##부에
동안
17
포함하는
##항에
않고
최근
##이며
##사가
##물을
기능
##하도록
처리
##가는
의미
예를
적용
영역
운영
##es
중요
##력이
##0년
##므로
내지
국민
서비스
기록
##들과
##시간
##이지
##기의
공격
공급
##기술
존재
어느
확인
해당
내용
추가
##기업
자신의
##되지
##그램
이유
##사업
당시
많이
여러
일부
계획
##리에
생산
수행
##것을
##시아
##어나
##ol
보고
##it
활용
##인이
새로운
마음
지난해
결합
##도가
인터
않은
에서
##는다
##렸다
##회의
전체
##식을
##기로
##라이
##ion
##라도
40
중심
따르
수신
형태
정치
나는
환경
따라서
있다는
##사는
높은
제품
##시에
인간
어떤
올해
전문
학생
##다가
직접
##부는
##인의
보여
후보
때문이다
상대
##사의
물론
24
##입니다
##원이
22
처음
시장
유지
##스를
23
##원의
##10
바람직
조성
돌아
이름
##ing
영향
있도록
##리아
##수를
##부의
199
요구
되는
그의
바로
##동을
##지가
경기
##위를
문화
##했던
이야
생성
##점을
##제로
여기
방송
##원은
참여
반응
비교
나오
##가지
관리
##이어
##상의
최대
##도체
추진
통신
있다고
##주는
지지
##000
가지
관한
수준
기판
자동
산업
표시
아닌
서로
한편
없이
마련
##제를
##인다
##부분
##개의
전기
이하
좋은
프로그램
따르면
##리스
예정
이는
조사
기존
대응
아무
측정
알려
제작
##is
##체의
설정
##면에
기반
이상의
게임
사건
기대
더욱
배치
고정
회전
##시키는
최고
적어도
과정
이날
##수가
피해
하나의
##니까
어려
등이
단말
##에서의
##드는
##et
등장
자기
투자
출력
##el
학교
이해
계속
그것
##도로
저장
받아
대학
방식
전극
역시
매우
##이었
찾아
##으로부터
##르는
그녀
변화
동일
되었다
성공
되어
정책
##트를
##8년
##ro
보다
##교육
발전
##운데
##되며
여성
##치는
안전
결국
정보를
전자
##하였
##내는
입력
##체를
##랜드
##이션
보면
국제
현대
##7년
영상
지방
사랑
##이가
않았다
##되었
##정보
전송
구비
##왔다
##스의
##특징으로
역할
##회를
##부가
##9년
##기관
##연구
확보
않는다
##개발
##나라
##음을
않았
##5년
개선
##마트
##났다
갖는
##치를
부산
어떻
분야
관심
##인을
##시켜
만들어
##he
##너지
경쟁
너무
##레임
영화
선수
내가
기본
##진다
삼성
가운데
##지역
##들에
##le
판단
판매
북한
것도
##인지
강화
##체가
##장의
##했고
##드를
자유
제3
어떻게
이렇
##도의
##6년
##하려
공정
공간
감독
##명을
대부분
##함으로써
차량
##억원
##플레이
##만원
##겠다
##가능
##센터
민주
치료
발표
확대
##마다
##as
라고
작품
##명이
##머니
아니다
지속
활동
목표
준비
금융
26
감소
크게
플레이
##로는
전국
이라고
소비
##없이
##지의
이제
##하거나
##수는
##것을특징으로
##전히
해결
##id
이루어
가지고
대구
##과의
이용하여
##물의
##산업
의한
경찰
주장
고려
이전
상당
##이를
생활
특정
항에
##4년
##ed
활성
60
주요
##으로서
##워크
디스
시민
##거리
기초
공동
이용한
##2년
가능한
참조
##스는
성장
개인
보호
통한
나온
##대를
구체
아직
31
공개
전달
모듈
자연
##ac
##시장
##지도
가격
##스로
반도체
관계자는
이렇게
무엇
하지
27
화합
##의를
##인은
##스가
으로
##전을
조직
고객
사람이
28
##들도
특별
시즌
##계를
떨어
지나
주민
##전자
내부
##인데
##3년
##선을
없었다
있지만
##동안
##1년
##린다
##지막
금속
##명의
동작
##상이
사용자
##re
구축
만큼
스타
다만
복수의
##지에
표현
##디오
모델
알고
##트워크
##했다고
먼저
기간
지적
달리
규모
인해
사이에
보인다
작업
그런데
외부
##안을
##대의
이와
거의
##이크
동시에
##om
##라인
미래
##위원회
말을
##서를
가족
##금을
등에
##문화
##어서
중앙
##소를
상승
##겠다고
##국의
주변
안정
평균
##프트
구동
유닛
강조
필요한
스트
##자인
##관리
있는데
조선
##50
##한다는
110
##도는
스마트
얼굴
해외
##ou
##와의
바이
##임을
대신
바와
일정
##점이
마지막
이것
패턴
##은행
일이
##30
하여
제시
조건
예상
##자로
현실
가진
경험
중요한
모습을
제한
않을
검출
##리의
300
얼마
것이라고
##합니다
##리지
올라
##료를
무선
라는
비롯
역사
##하자
앞으로
인정
##밖에
건강
##환경
채널
##르게
사고
살아
정신
##방향
##시설
##나는
선거
특성
##디어
##프로
접속
있게
선정
##면을
##어요
##nd
인천
##움을
##하는데
인식
폴리
##상에
움직
변경
분리
범위
실시예에
네트워크
목적
198
그렇게
세포
##문을
물질
영향을
##감을
좋아
어린
##가를
드러
제거
##물이
##하지만
수용
상품
혼합
##시킨
##다면
##대에
##있는
수단
최종
조절
위하여
##장에서
##학적
##구를
제외
29
그래서
통합
전망
않아
아버
도입
##권을
##신호
##am
##어난
120
##방법
##텐츠
요청
프레임
광주
같다
비해
##사에
##도시
설계
##il
특징으로
##정이
외국
블록
정도로
##화된
되고
나라
##량을
대비
노동
과거
적극
##스크
건설
##성과
##지지
에너지
아래
우선
문제가
##바이스
도전
유기
##시는
##릭터
소재
오는
70
전략
이때
전력
##ec
갖고
##한다고
하기
##ent
##ation
##더라도
##원에
하면
##장에
형성된
위험
##되면
그룹
행정
집중
작은
##자들이
하루
##시킬
##개월
친구
발견
우수
포함한다
효율
역할을
있던
포함할
##트의
사진
레이
특징
당신
##가가
##부재
전압
디바이스
경영
오늘
##겠다는
차지
내려
오후
회로
그대로
여기서
캐릭터
32
배우
##st
핵심
##자와
부재
구현
부족
##세를
스위
받고
##제의
대하여
##전에
조금
##정의
자동차
정확
##했지만
##이기
##드의
##만큼
##th
##부와
디스플레이
##제가
##위에
##었던
시험
대한민
##리어
자신이
측면
##이지만
센서
##으로는
있기
최소
정상
받은
업무
표면
80
향상
##사회
제대로
만든
요소
컴퓨
충분
##물질
가까
##시스템
##인가
등으로
의견
##으니
어렵
방문
정말
##ig
글로
##비를
있습니다
운동
실제
##르고
의원
예정이다
조합
신호를
노력
6월
자리
##량이
##하던
최초
##체는
만나
##대가
2차
##리즈
대상으로
시행
3월
음악
##라며
수출
메시
기억
##스타
각종
그가
넘어
4월
사람들이
##단계
라이
5월
관광
비판
##기와
##파트
번째
누구
##었고
500
##갔다
반대
나타낸
경우에는
##성의
다이
언급
##처리
해도
이들
해야
##약을
##통신
프리
##도에
##화가
유럽
##과는
##수단
##려고
메모
한다는
##하다고
9월
전환
##사와
주인
혹은
전에
##산을
##인트
됐다
##구조
인터넷
##이블
접촉
7월
비용
##격을
연장
앞서
일을
전쟁
하며
10월
우리는
알아
어디
출신
##냈다
of
##히려
##는지
두고
##하다는
추출
중심으로
12월
연속
##보다는
유리
##대한
프로세
##자에
동일한
말이
##지로
##간의
비슷
송신
부담
00
카드
중소
위해서
많다
##수록
전투
개최
##치가
오히려
글로벌
마찬
내에
35
8월
방지
한정
변환
##보고
나노
독일
경우가
등록
한다고
스스로
##지원
실제로
##등학교
트랜
독립
마찬가지
000
함유
방향으로
검찰
못한
성능
국회
##개를
##11
##경제
이야기
산화
분위
##스러
서버
전통
정의
##세요
##체에
프랑
##했을
화합물
단순
##ul
##치고
예측
않다
내년
##에선
상호
1년
##그룹
##운동
데이터를
##되도록
##성에
여자
##어를
가능성이
배출
기관
능력
컴퓨터
##BS
##원에서
디지
공연
1월
발광
열린
대체
의료
##대표
in
없어
##하기도
반면
사람은
##40
나서
우려
조정
##관계
##사로
각각의
획득
##이자
쉽게
거래
개념
##오는
##함을
##움이
##레스
복합
##되면서
##일부터
##자들의
가능하다
공공
주로
##od
통과
소속
##가의
시절
##스럽
목소
순간
타이
개의
##자들은
상부
그림
지정
이벤
##성은
어머니
수가
과학
##제는
##준다
##운드
##하기로
브랜드
주는
##자리
해석
가스
##iv
##상으로
부모
규정
##아가
게이트
##적이
중간
33
레벨
##하고자
하다
상에
화학
못하고
문제를
##른다
##세포
작용
##리카
재료
삽입
##씨는
과정에서
시설
##소년
참가
낮은
가져
##정책
대한민국
전혀
발명에
##대는
이뤄
##메라
우승
특허
##우는
마을
일단
##일까지
공식
언론
사라
##ter
##12
##번째
##지스터
위해서는
##만을
##리그
유명
매출
행동
LG
##일을
##라마
때는
책임
출시
##내고
11월
통하여
방법을
##일에
사례
1차
기재
##시키고
그리
나타내는
파악
위에
계획이다
나가
장애
##생활
높아
반영
##자에게
##했다는
제주
##차를
##느냐
##중에
##법을
시간이
##ad
발명은
플라
##기간
위원
##em
##로를
##리로
아주
성분
대해서
결혼
##과를
것에
길이
130
SK
디지털
36
광고
출연
대형
사망
##회가
사회적
##학생
##보는
포함하고
참고
##구의
90
지도
모드
실험
##하게는
행복
##어가
##ch
관련된
태양
##세대
##어야
##경기
촬영
대전
##만이
선발
전해
체결
단위
##계획
수요
개정
사이의
장착
수익
스테
사용하는
좋다
신청
우리나라
2월
신경
달성
##행을
진출
회복
담당
보유
힘들
197
##구가
##이란
온도
회사
라인
하이
모양
150
노래
400
그냥
교통
##업을
영국
강력
##랐다
##장과
##쳤다
##um
##롭게
설명했다
되면
사실을
잘못
##주고
유사
##원으로
##201
절연
접근
롯데
##적을
하부
예산
##os
주파
결과를
논의
논란
검토
참석
##포츠
분명
주목
감지
the
도면
효과를
제안
##으면서
협력
대회
제공하는
가입
##해도
##단을
미리
제기
##케이션
부정
우리가
언제
인사
##율이
##액을
##으므로
##트는
해서
##0년대
시리즈
제4
##ur
사용할
신뢰
##ot
불구
받았다
인물
##산화
실행
만에
소개
힘을
##트로
유도
##트가
##관을
##ag
여전히
중량
종합
주인공
것과
초기
##업체
기자
서브
##관이
고용
추정
45
활성화
청구
기능을
경기도
필터
34
아파트
##도이다
##us
##달러
##시의
##라면
보는
##어들
메모리
한번
저항
상세
##관은
더불
명령
##식이
##했으며
수밖에
##ay
사무
필름
##ut
부동
자주
##시켰
주택
들어가
##바일
자세
##단체
바라
어려운
TV
전문가
##드시
이미지
##계의
받는
작동
##수로
그동안
시간을
더불어
충전
들면
반복
##im
설립
적이
유전
물리
##되기
기다
선보
휴대
이루어진
##대학
전류
##상은
실패
지급
수입
투입
직원
##제품
다음과
42
대해서는
##상기
##드가
자체
##러스
나타났다
시청
##19
말한다
지하
속에서
계산
살펴
남아
계약
지난달
인한
도시된
당연
희망
시작했다
##규모
##조사
민주당
학습
수지
나온다
필요가
보조
무슨
구매
##위는
스토
##였던
가는
##컨대
적절
##이에
종류
무기
분류
2년
부품
가정
얼마나
탄소
##장으로
##평가
마이크
제1항에
청년
##어로
바탕
##단의
스킬
불과
첨가
##과학
카메라
본격
수는
영업
##이면
최적
나오는
형태로
받을
##스테
혁신
스크
기준으로
거쳐
되었
두께
##같은
일으
모바일
##위가
예술
완전히
기계
행사
##려는
##ow
이끌
자료
##시가
울산
달라
선생
반드시
은행
오전
##두고
##tr
신규
있지
콘텐츠
3년
만족
장기
교수
##물은
##들로
##보면
보험
다수의
##림픽
##대회
##이의
##페이스
##리와
##ED
러시아
응답
##실을
장비
##단에
##만의
##점에서
부여
##리기
##없는
엄마
특수
##로의
근거
##심을
일어나
중에
정부가
젊은
후에
점을
하였다
못했다
##적이고
합성
인증
이라는
##무를
##더니
체험
나머
##형을
##고를
중소기업
이들은
검사
##형의
##질을
합니다
경우에
##우스
개시
없고
유일
보였다
##별로
아름
이곳
##미터
기획
기타
청와
현장
없다는
오래
없을
##분을
##문에
##드로
기술을
의하여
예컨대
전원
흐름
2020
로부터
그것은
공유
미세
불구하고
바람직하게는
건조
가이드
##자기
원래
##NA
##학년
보통
나와
속에
항공
##조차
가공
##군의
상당히
##화에
그때
##정부
트랜지스터
여행
##oc
##니아
일반적으로
남자
오른
방식으로
##율을
모르
아시아
냉각
##겼다
##과정
##무원
표준
수직
##화의
다르
구성된
훈련
보내
지켜
있었던
##터리
사용하여
허용
전시
##우징
##단이
기여
전반
##ap
예시
민간
##스코
둘러
##지와
##이프
##분에
단일
사람들은
##이라도
시각
관심을
없다고
느낌
대중
사실상
##조건
##클로
조작
느끼
엄청
차단
##술한
노출
프랑스
확정
자신을
경남
중에서
내에서
안에
강조했다
##활동
확산
2015년
아마
건축
소자
41
##이라며
밝혀
부동산
##주를
196
##하나
38
문제는
되지
##발전
##아서
##주택
내의
##웠다
보이는
##ir
37
적합
##ess
효과가
것처럼
바람직하다
##웨어
향후
훨씬
식별
##플리
불가능
예방
1만
뿐만
드라마
절대
##물에
방사
##도와
and
가지는
##BC
멤버
정당
방어
내용을
불법
홍보
##민주
개방
구체적으로
##이한
하는데
##률이
##구는
수상
전화
청소년
##보험
만드는
단백
연계
##감이
지식
##론을
복수
구분
소설
In
강한
포인트
의원은
##TA
##제어
불안
##지게
터치
##종의
##정은
주식
##다운
배경
##같이
이야기를
정부의
##전에서
전용
못하는
##회는
돈을
##일이
##량의
감사
음식
##선이
52
##선의
입장
##섰다
이유로
##op
바닥
받았
##이라면
시도
##테나
부착
140
##측에
##리오
변형
패널
도로
바뀌
실질
사용되는
공기
그를
수사
##트라
##서비스
코팅
##번호
##전이
하늘
방안
서비스를
보니
##해진
##학과
2014년
확실
2017년
##위의
2016년
##공간
##력의
중인
고민
필요하다
간의
##에게는
##하는것을특징으로
나타나
1000
##ce
디자인
##스와
엔진
상황에서
##서에
##하려는
현지
##회로
##거래
사람의
주파수
##정한
심각
##기능
##티브
유치
1일
항상
분양
수집
미국의
##아야
왔다
베이스
관통
커버
대책
바탕으로
성격
##소가
##력은
하면서
##상태
정부는
검증
##비가
##대학교
있으나
이외
##선거
브라
##스러운
이유는
주고
##유의
인도
이르
##리콘
어린이
##겠지만
화장
##층의
##나무
원하는
임의
##간다
##CT
##포함
억제
##소에
자원
##인과
법률
##작용
가치
마법
지금까지
의사
##층을
범죄
##트에
재판
##듯이
##60
##점으로
##기고
대표는
##세가
방법은
않으면
##시키기
스포츠
후반
상태에서
가슴
2012년
비중
전했다
가열
##크릴
##되어야
이다
##했는데
##ct
차례
확장
##un
단말기
##세기
씨는
##방송
##이퍼
만약
43
유입
타고
보도
이름을
##한다면
기존의
여기에
프로젝
##투자
##이기도
갈등
점에서
사는
피부
하락
유통
연료
##명은
온라인
업체
기념
과정을
##인으로
##소의
파괴
##단은
##이로
아이템
PC
종래
대응하는
##위로
##권의
마음을
완성
비슷한
경북
합의
국회의
나누
##플리케이션
구간
제출
빠져
형성되는
혼자
그녀는
거리
사람을
2010년
##재를
##받은
##지어
졸업
마이크로
스마트폰
전남
##신을
달러
했지만
##미노
##공사
##복지
##만으로
남편
##레인
반사
나머지
근로
지배
##지면서
나왔다
충분히
##터를
이탈
##있다
남북
##제에
약속
소유
##세계
발생하는
##키는
소리
것입니다
나무
월드
##분석
투명
돌출
55
민족
바이오
이것은
불러
##명으로
2013년
##금융
안내
##회사
##나가
손을
중합
진단
##문이
압축
##분이
##놓고
멀티
제공한다
##레이트
단지
놓고
제어부
있음
걸쳐
스페
10년
51
소득
3차
재정
여름
그럼
채용
##조의
##점은
종교
사업을
작성
##품을
운전
##차가
인생
게다가
나를
방침
마치
##ip
치환
조립
이사
품질
트리
##구에
그들은
##적이다
타입
완료
##ab
##력과
##역을
##한테
하우징
들고
44
##건설
한국의
##계가
기지
동물
##스럽게
장면
##지기
재생
##하라
우리의
대출
초반
흡수
##mm
##함에
대기
가르
혐의
##니터
포함한
향해
이익
마찬가지로
수정
이라며
##시를
##히는
48
개별
##분야
수술
사항
없었
##바이
영어
파일
210
외국인
##스에
메인
5년
자본
##누리
것이라는
2011년
##량은
회의
등과
이론
##전지
비롯한
##해주
공통
시대
단백질
##리며
2018년
구조를
오프
전부
레이저
그들의
##점에
분산
##진을
##안전
인터페이스
##정에
##메틸
추천
건물
고통
##랫폼
최고의
떠나
정리
##케팅
출발
취업
도움이
##형태
##시켰다
것이었다
수소
원칙
모터
소프트
싶은
때까지
이들의
##와는
의혹
아내
##ate
근무
##당한
##전극
##기기
##건을
국정
벗어나
로봇
창출
##뿐만
그래도
활동을
아침
대통령은
##관의
문학
##고는
검색
군사
##체로
안테나
##하겠다고
##구나
##호화
인근
상대로
사전
사상
덧붙
3일
##CC
있다면
상태로
발굴
명의
다니
##마을
몸을
슈퍼
마무
처음으로
다가
리그
##이즈
##니스
##연합
##력에
##우고
강원
##이너
제도
이벤트
비디오
##난다
보장
##받는
생명
체계
앞에
인간의
39
중단
성형
##인들이
해양
##어버
주도
##드에
얘기
원자
바꾸
애니
차별
##시험
2008년
대답
차이가
등은
##해를
##지면
재미
여부를
##경을
실현
리더
연기
발언
기울
모니터
갑자기
맞는
이로
##았던
늘어
##반기
유전자
신고
그것을
##율은
##식으로
눈에
202
##부로
포기
사태
외교
##지요
접착
달려
75
나의
강력한
예비
미디어
추가로
##소득
##주가
상관
알려졌다
서열
##어의
##금이
특성을
겨울
##이익
##전의
##비용
유저
##ell
적은
자녀
이송
##기준
중이다
##15
비트
보여주
전지
##군이
##근혜
인접
대부분의
자체가
자리를
##판을
밖에
축구
많아
보수
바다
##시킨다
식품
공중
성과
승리
실리콘
끌어
##계에
음성
##어지는
##트롤
2009년
##분기
새로
케이스
버스
2020년
대통령이
쓰는
산출
남성
메틸
통일
형성되어
앞에서
##서의
##ity
국민의
계열
##사고
##조합
대화
##원과
종료
아프
##재인
##분의
##씨가
시스템을
##데이터
잠시
밸브
65
새누리
우수한
고속
인가
인터뷰
그녀의
##먼트
눈을
##당은
얻을
잡아
파라
##했으나
가상
##13
수평
형태의
##효과
보상
나선
##당이
##렀다
회장
##자치
##회에
작가
변호
장치의
상대적으로
##ine
거부
##어는
##하였고
블랙
피해를
가로
##류를
창업
##70
##영상
내부에
##군은
심지어
##페이지
##목을
위치한
높다
##말로
직업
매년
빠른
##권이
내놓
했던
수립
적층
##TE
방법으로
공부
그에
##받고
##문의
연출
스피
통해서
보안
통상
##카드
경우도
##려면
##if
완전
지구
박근혜
단체
동기
##자동
하게
##즈마
플랫폼
##시오
그리스
인공
##님이
5일
##이었던
투표
구속
포함된
제5
연관
촉매
##og
##만에
위반
생각해
비롯해
무시
진입
상태를
아예
발현
##프라
걱정
상황을
##님의
규제
St
생각이
기사
##모듈
##yl
IT
##프레임
펼쳐
맞아
개혁
엘리
가까운
가능하게
##버스
청와대
도착
에는
##에만
꾸준
작년
일본의
이용해
매일
나타낸다
있으면
친환경
대선
빨리
관심이
##리드
주의
2019년
##까지는
전면
링크
##교통
53
유동
생각을
##200
관계를
생존
195
##률을
일은
맞춰
##루미
##션을
인상
비행
##80
요즘
##치의
섬유
불편
속도
긍정
##and
이중
이온
##화와
길을
##스토
46
지속적으로
##받아
국토
미치는
비밀
제가
교수는
전개
유효
변화를
##틸렌
##시즌
크로
##14
이내
정도의
인수
만한
질환
##나마
구체적인
##국이
극복
10일
소통
##가스
그린
정규
때마다
##영역
자랑
마무리
응용
62
##많은
복지
앞두고
불가
KT
##구성
높이
거야
아르
##보호
기초하여
알킬
194
필수
##회에서
출전
간단
배터리
그것이
중의
##하겠다
도시한
##물로
##게임
##식의
듣고
##마저
##증을
마케팅
##상에서
##라운드
##보니
##분자
융합
코스
The
복잡
초과
선언
##당의
움직임
##관광
기회를
일자리
있음을
끝나
형성하는
수원
방법에
##단지
##법에
폭발
말씀
세월
정치적
##만한
##치지
##ers
##되게
##음이
오랜
진짜
않게
##그래
최초로
##방을
54
##피언
3개
파워
##되거나
본체
지역의
지시
운용
신용
##공항
##리게
경우는
##했습니다
증폭
그러한
15일
않도록
##든지
##력으로
교체
##igh
대표적인
수학
소스
광학
떨어진
##ep
##주시
220
능력을
2개
대기업
아버지
실천
상황이
##하여야
에어
농업
알려져
20일
##선에
회원
##리즘
위협
문재인
데뷔
단면
점점
패키
경향
혜택
상징
2일
##거운
기업의
상하
삶의
##다른
명칭
교환
##산의
7일
있다며
용이
프로그램을
구입
수많은
##길을
가질
렌즈
패킷
샘플
##터의
2007년
다중
아니면
##경찰
해당하는
##사항
##진이
##모델
##자들
##체육
충격
##가고
도움을
의견을
스프
##세스
다소
for
##이야
##호를
##쪽으로
우주
기반으로
관찰
##서가
금지
머리
##화는
주장했다
아무리
일어
창조
공무원
단계를
하자
누가
집단
##전압
600
4일
기록했다
흔들
갖추
지키
##트리
스케
##레이드
철저
##IN
실시간
##로드
있어야
지연
##구역
연결된
나아가
##소재
의하면
챔버
##문학
도와
사용자의
편의
이처럼
지금은
##식품
##기판
의미를
조명
부하
##증권
세종
##16
바람직한
##수에
의무
##리티
화면
##면서도
관련해
동료
##소는
대사
##실시
##부장
어떠
분할
##부에서
##심히
대통령의
##IC
##대상
스위치
##활성
생긴
발매
47
위치를
아울
##가락
국방
무엇보다
##일까
확인할
##비는
이른
분자
빠르게
말하는
인쇄
자극
올려
##ev
##세트
##기지
메이
존재하는
뛰어
골프
강남
최저
대규모
여론
호텔
증거
2000
고양
사용될
구성요
자율
연구는
##스티
##일의
저는
1위
##다니
##었지만
방안을
##표를
선박
선진
소환
제외한
지상
하나를
##주로
육성
인지
보기
받지
##로서의
판결
들었다
##예술
##타를
##억원을
이루어지는
끝에
희생
##가에
##NS
목적으로
49
느껴
##로그
덧붙였다
생물
개구
위치에
면역
포함하여
평가를
##리적
가득
##코딩
오르
오브
환자
늘어나
부탁
절반
64
##병원
테스트
3D
아니고
##튜브
##성장
##자원
탄성
##치로
##노동
인구
생태
현상
##라우
오염
임대
쏟아
##결정
대로
##선수
당선
동아
##형성
주문
56
부르
주입
보이고
의존
8일
##IS
포함하며
장치는
확립
크리스
들여
1천
##ect
엄청난
유니
전도
의미한다
언어
국립
##화학
토론
##네이트
상담
##항공
##보를
보이
맞추
헌법
14일
25일
##요일
이란
##방향으로
##안이
##적으로는
##RA
면서
##어져
취득
준다
받아들
1에
선택된
모습이
##사용
평화
1의
사이에서
조성물
올림픽
하나로
협의
##링크
적절한
특별한
##인에
##사에서
천연
112
깊은
아동
##협회
##PS
11일
다운
상위
인기
12일
##정으로
발생한
비상
입장을
죽음
시작한
##가능한
##유닛
전년
측은
al
장치를
명세
아울러
아들
몬스터
가서
병원
감안
지적했다
Ch
경로
##idth
##하겠다는
연구를
남은
케이블
6일
무료
##였고
맞춤
##조를
##ia
##값을
말해
##전문
160
9일
##정보를
##막을
LED
문을
180
웨이퍼
##제1
이웃
알게
##인들의
할인
감독은
수도권
지원을
##문은
완벽
18일
경제적
1인
##비아
제일
감염
##겠습니다
보이지
##프를
양성
제품을
사용한
05
컬러
4년
형상
##드와
덕분에
형성될
유용
챔피언
저녁
당연히
문서
교과
CD
아크릴
방향을
17일
##부모
##함이
##레이션
항목
나타내
Al
단독
소비자
16일
셈이다
넘는
##신호를
##을까
##크로
부분을
뒤에
1H
21일
##지며
사람들
가동
##메이션
비정
72
##경영
22일
말고
지자
별로
나왔
책을
##산이
##국은
배열
27일
##치게
##는가
##들어
것이며
26일
까지
##금은
##신이
복귀
하드
홈페이지
주차
19일
유형
##지방
둘째
수업
영상을
##ive
점검
진동
##18
23일
직후
삶을
컨트롤
어렵다
28일
운행
용액
앨범
말에
영웅
시스템의
CO
열심히
24일
패배
거주
장관
##뮤니
압력
시기
활약
명확
##선은
##되었고
나이
13일
##등급
임시
참조하면
임의의
제조방법
##간에
고개를
##크를
##명에
다루
방법이
##ER
중국의
99
##어링
##수도
저하
집행
처벌
##GA
등에서
##석을
사장
st
##차는
##대에서
데미
모니터링
##00만
250
돌아가
##안에
한반
사용자가
제공할
##av
##조직
주관
전망이다
##했기
먹고
02
102
거기
아닐
사람들의
##성도
대법
반발
##제한
도출
라며
##식에
질병
##미를
##각을
벌어
##심이
가수
##실에서
상처
성적
공사
##보자
값을
##라이드
설치된
마음이
##하였으며
전북
목표로
지휘
컨텐츠
##km
그만
보건
적극적으로
열어
##수신
##트남
있는지
##류의
아는
##협의
뛰어난
85
##제도
연간
말이다
마스크
크다
##기구
모르는
고급
PD
##기반
##진은
근접
##학을
돌려
##제와
##화에서
커피
##아버
##사이
살고
주기
##주년
수비
이달
지닌
##공급
##대책
베이
##호는
##하려고
자격
설정된
메시지를
상의
회장은
액정
노인
코드
좌우
소정의
다수
##ov
경계
활용한
적합한
찾는
따로
##당을
취급
2개의
59
##하므로
반응을
보여주는
드래
아름다운
##부터는
방출
mm
##럼프
##리면
##PC
한나라
##지에서
##TV
있었고
to
입주
KBS
교사
##체와
평소
힘든
연결되어
이상을
##민의
있으므로
물을
기술적
##패시
선호
193
##화로
드라이
##수와
의해서
발달
누군
##잖아
분노
##청은
발휘
적응
##레벨
생체
센터
##생을
##MA
위로
아미노
실시예에서
설명한다
디자
##시대
크기
##식은
청구항
보급
어떠한
##질환
비교적
차이
알려진
열고
신속
에피
##결과
비난
구멍
##미드
놀라
시트
##었다고
해소
##수한
노조
##자들을
##위치
충돌
##개로
연습
명이
테이블
제6
이의
관객
중요하다
규모의
미술
강제
정확한
##았고
활발
결코
소송
##습니까
참고로
듯한
직장
##망을
전방
이용하는
63
##리트
마스터
몇몇
규명
스위칭
실내
##화하는
95
##군을
뉴욕
나올
충남
야구
형성되고
##서관
##루오
탑재
##장애
##여서
글을
이라
간격
갖춘
굉장
마주
진공
##가로
##스틱
이용할
30일
##회담
꾸준히
클래
이들이
박막
점이
발사
##ak
다르게
산화물
원내
근본
행위
##실시예
힘이
##르크
##ide
것이고
역대
##비의
그러므로
메타
##일보
떠올
##히고
부문
추구
창의
소프트웨어
##ub
##전은
알루미
거짓
흘러
##상품
검은
모아
##석이
##시고
집에
발행
2006년
기지국
##들에서
무역
##액은
##지구
화학식
좋지
배양
곳에
열리는
대역
정지
번역
수준의
##ist
단순히
##층은
그럴
도면이다
유발
##계약
대변
경사
괜찮
그렇지
화상
쓰고
전형
두려
베트남
##보았다
걸어
##전략
자가
01
장소
짧은
재배
접합
아니었다
가압
58
##ran
##시티
모집
##AC
신설
당장
마침
주거
##었는데
마이
입을
명예
그곳
일상
얼굴을
시점
이것이
때에는
##로우
##로가
부분이
동의
의심
일반적인
화소
안에서
##cm
앉아
영역을
이하의
##한국
못할
용매
최대한
선물
##호가
나섰다
본다
##ib
오픈
##률은
상황에
감시
플레이트
##권에
안타
주행
이미지를
##하면서도
##공원
것인
소형
소리를
##승을
##이브
##면의
깊이
제목
이명
##호의
약간
자금
블루
57
공모
이탈리아
트럼프
소녀
월드컵
##바로
신체
그나마
로드
4개
점차
새롭게
일이다
부가
때도
사과
##25
MBC
##IA
대단
신문
##중량
뿐이다
상당한
유명한
첫째
내측
가까이
커뮤니
##중한
수록
애플리케이션
도달
자산
기기
예에
갖는다
분야에서
수행하는
##신의
비록
연결되는
##est
##포를
쓰러
##OS
보관
유사한
임금
거듭
그들이
##세의
##이동
##라의
##아이
헤드
##센서
##하다가
##본부
폐쇄
##생물
66
##중앙
떨어져
##이버
가을
저지
##질의
플라즈마
##외선
광역
새누리당
1회
##공을
03
보완
그려
교류
못해
생각한다
지니
##21
인력
##냐는
##인에게
개발을
식물
##조정
서울시
##베이스
##리한
계획을
매체
##MS
순환
전사
가속
29일
출마
의식
사실이
업계
클로
상상
하나는
줄어들
만난
##대와
녹색
뜻을
평면
##ob
##ill
양자
##데이트
바란
생각하는
가능성을
상이한
##형으로
만들고
심각한
카운
##연을
##향을
##qu
##자들에게
고유
북한의
할당
얻어
세부
관광객
##액이
등급
나도
##협력
통계
##all
정기
국회의원
##생산
##해져
어깨
##경이
에너
111
2만
내용은
식으로
김영
##ack
스크린
##금속
##테르
com
##가구
##치료
5개
분위기
##등록
무게
##산물
애니메이션
정밀
##술을
반대로
권한
##쪽에
##실에
이제는
잡고
임상
##능력
width
분해
소모
폐지
감정
제1항
현재의
##인들은
이격
외측
창원
전후
##말을
위상
##art
싶다
가치를
##전거
##스케
플래
세트
##아의
##법은
유래
##eg
편집
입자
파라미터
##피스
표면에
##국을
아무런
프로세서
스타일
AP
공격을
카르
2019
나오고
쉽지
논란이
결승
보스
1개
영양
시는
스펙
선고
##17
비율
촉진
1은
230
##함과
구성되는
##공업
##었을
##CD
##국제
##섬유
근처
##실이
190
내용이
##크의
미사
최소화
##씨의
##해지는
올랐다
할머니
##3c
성과를
연합
만들었다
부활
##ight
원료
##받을
th
프리미
pro
코어
책임을
그저
말할
단자
스프링
투여
2005년
관람
대안
일치
어울
죽은
##pp
##냐고
과연
##재의
##판의
코일
실시형태
아직도
이상이
많았다
경기를
편이다
##에너지
수치
##지자
##메달
##방의
##시기
##AN
로마
압박
말은
싶어
나중에
모두가
도망
유일한
##진의
##하되
했고
##사건
##22
##ET
##이도
310
##감독
##들이다
외에
해주
##린더
선생님
경화
##스테르
어찌
##소자
키워
##이상
##방에
##페닐
##자료
##전쟁
방침이다
##법이
되도록
채권
모른다
##ard
고분자
제어하는
재산
조기
인기를
국무
개편
업데이트
철도
위기
메시지
인권
101
쪽으로
##재가
##공정
기술이
##었습니다
그게
하나가
##전도
패션
##자동차
원을
유출
회수
기능성
##조절
절차
##친다
##것도
##낸다
##특허
1억
##야말로
영역에
양극
소정
굉장히
##성으로
##층이
KB
##독교
보여준다
##드러
##일러
아빠
##결합
이전에
했는데
##하니
84
커넥
모여
##제2
##OR
##층에
통화
##만은
##act
세워
노드
부상
##시와
##효율
외에도
##액의
무려
그만큼
예상된다
누구나
##해졌다
체육
con
61
캐리어
위의
이재
있었지만
##채널
입고
절감
오늘날
텔레
##동이
그렇다면
분사
##락을
머물
일정한
판독
##ase
AI
멀리
내세
진보
돌파
##AS
낮아
가끔
다행
촉구
##라가
구성하는
소방
보존
##FC
자료를
쇼핑
주력
##이온
가리
오디오
위에서
머리를
##마자
##eth
하더라도
##주에
초대
따뜻
##께서
해제
##반도체
##시민
같아
취소
장치에
##파크
취임
의미가
발효
##영화
잠재
##기까지
시의
##형이
소년
들어서
된다는
##화점
국내외
신호의
물건
삭제
카페
##레이터
교반
##나게
이유가
상술한
30분
##ure
대해서도
알루미늄
착용
소화
US
##미가
받는다
##24
입학
도포
##진흥
##ew
가변
등장하는
얻은
CE
##질이
##고속
정보가
봉사
형성된다
임명
##졌고
##관에
배치된
유로
없지만
증권
설득
동원
##훈련
##개혁
좋아하는
##사인
의도
전기적으로
##리스트
보인
조용
1조
바람에
가면
##석은
##웨이
보아
##체계
공장
##활동을
탄생
170
##관련
##음에도
지역에
##ain
건립
트레이
절단
노즐
##오드
##교환
종목
기어
물러
고위
##상황
부인
혼란
##해진다
##미디어
대우
정책을
74
후속
취약
주말
##조에
리튬
승강
동작을
##AR
특이
폴리에
교육을
나름
바꿔
방식을
공포
먹는
당해
주지
##주기
##차례
##되는것을특징으로
아쉬
점이다
##트와
##군요
기술의
CH
##재료
##ical
현황
불리는
사유
화려
출범
73
최초의
자살
##동에
옮겨
동생
때의
목숨
##전기
##시로
진정한
##사무
액세스
물어
와이어
##국가
않지만
것인가
원인
##가족
제10
정비
손에
##ri
##정치
만들기
기부
##국에
나갈
##면적
제7
축소
연구개발
학부모
##라이언
폐기
##보다도
##미널
IP
고향
참조하여
##범위
##연구원
관측
##업계
스테이지
##연금
파티
##ant
동반
제외하고
심사
##동의
원작
생겨
##기록
##고가
사람들을
복원
##90
4대
넓은
미만
##특별
했다고
다르다
##단과
용기
혐의로
별도의
심리
아이디어
기업이
##관에서
부족한
점은
##학의
인프라
방해
가시
한마
출력하는
가게
한화
채택
개입
삼성전자
##림을
수행할
##반응
자전거
추적
연주
##프로필
얻었다
학생들이
순서
이승
여유
어쩌
세상을
프로토
이행
Pro
##선으로
것인지
없습니다
II
프린
저장된
선행
포장
아닌가
작업을
발생할
측면에서
결제
##yst
2는
결과는
긴급
##시다
##직을
내고
수수
있을까
2018
분석을
사랑을
첨부
상업
무너
버튼
정체
##운영
알고리즘
커플
포항
고등학교
과제
몰아
구성된다
하였
줄어
##해질
##려서
대폭
개요
수십
규칙
번호
시장은
출입
보강
설치되어
집을
2004년
하이브
스토리
되며
여야
연구의
문제로
아세
##23
##내용
시간에
꿈을
이건
##힌다
널리
언제나
날아
##올림픽
훌륭
풀어
건너
포트
풍부
##나다
픽셀
생성하는
##our
##가격
노력을
자리에
차원에서
##온다
68
근대
연산
##000만
프로젝트
기반의
##우가
탐색
67
과도
통제
증명
이끌어
파트
목록
##다이
##통합
##책을
문자
발표했다
서서
기독교
on
##권은
##주파
본인
##심의
##어진다
##방지
부분은
이래
유의
간섭
##란드
있으니
그에게
##격한
##iz
되기
##예요
그녀가
분야의
##MP
##AT
##정도
##ort
원격
새벽
##트릭
이름이
무한
##지사
호흡
이번에
다섯
완화
나타난
##보기
곳이
##법의
##된다고
##발을
자리에서
대처
기재된
내는
정보에
##안은
세상
##년간
##ON
FC
아우
속하는
치열
곳곳
##이와
정작
있어서의
페이스
정착
결과가
있었는데
보정
정보는
차세대
물었다
도덕
즉시
##단말
##복을
첨단
##행정
발표한
바디
##회견
발동
생성된
##라이트
##타임
이른바
##소드
충분한
700
수신된
출판
121
실질적으로
들려
대략
##OC
일측
담배
이슈
못한다
부과
##전으로
말았다
##경쟁
SNS
##지션
##니즘
초등학교
대장
조치
이명박
##소로
이게
사람들에게
##실로
재활
데이
3차원
##설을
##하기에
##프로그램
부분에
묘사
##이어서
유연
상황이다
##세에
기판의
상용
나눠
##류가
김정
마지막으로
그랬
##사업을
지식을
해상
흔히
##조가
자치
##성능
무조건
800
##도우
않기
쓰레
공감
떠오
##ment
종종
실적
##블록
타임
시그
후보는
문제에
시작으로
기술개발
##시킴
아웃
한쪽
시나
영혼
너무나
경험을
##으니까
밀어
##까지의
장애인
##오고
##되었으며
종래의
제약
##ge
주제로
시공
뒤로
고령
##모를
메뉴
에서는
확률
답변
형사
##스트를
##장치의
##종을
선도
76
##레오
2000년
##산에
케이
배선
##일은
대량
토지
경쟁력
분포
##금의
증착
끝난
##ff
가격이
특별히
##표시
##안의
트렌
##명과
##26
##러리
패키지
##세로
고교
공간을
존재한다
사건을
압도
##사이드
일자
능력이
##가와
맞춤형
04
Si
브레이
평생
단순한
인재
##age
질문
상태가
##디아
구성을
##다시
##이던
변화가
생략
세라
시스템은
인하여
수능
기자회견
일부를
구성되어
아프리카
받게
##이니
이소
이차
지능
##연구소
붉은
몸체
원천
원내대표
##ID
미니
##서에서
눈이
지원하는
6개월
06
당사
매각
일어난
상향
본래
##나이
경고
##판에
타겟
##ly
##사람
분명히
##오스
시장의
손가락
작중
수준으로
##끄러
소리가
논리
개막
##해주는
##종합
가고
비즈
타이밍
도쿄
2013
방영
##포함하는것을특징으로
오버
저렴
##명한
와서
일제
느낄
펌프
##ial
총선
남녀
입사
라디오
그러면
결정하는
운영하는
##년도
투과
##검사
320
한계
##실한
고무
용어
##연히
122
##례를
즐길
때에
화재
##전력
2의
여과
##철도
핸드
##주민
정수
구역
현재는
##ens
에이
설명하기
##ice
나타나는
석유
클러
##탄을
전술한
투수
때부터
대상이
##리라
담은
##테크
은퇴
홈런
배치되는
##리면서
없기
제품의
최소한
농촌
노선
소요
판정
##용으로
전날
당초
용해
어드
없게
대결
타격
내게
사기
##약품
않으며
테마
이후에
##직원
##하에
##스카
나쁜
민주주의
이성
77
##금으로
세척
일시
##증이
지향
##된다는
이들을
기후
손해
드래곤
사시
산소
태양광
##리브
##에게서
##스포
등도
##에게도
대학생
##으로서의
##까지도
클럽
궁금
사진을
배제
##탄올
선배
개인의
트위
충북
거대한
##버린
부처
2015
스티
##수준
홍콩
분배
양측
##놓은
##내기
스카
##해지고
MS
공급하는
철학
초청
차량의
##ore
형광
##알킬
합류
적극적인
##로부터의
##조선
하위
교차
문제점을
충족
싸움
##후보
2014
버퍼
##사들이
DNA
말도
액체
##출력
2002년
한반도
기회
정제
되는데
두산
##건축
대립
전파
시장을
빼앗
시내
GS
##포함하는
끊임
화장품
들은
##관과
##수수
자세한
##경은
이기
싱글
우려가
##세는
앞으로도
독자
하이브리드
마음에
마감
받아들이
##구로
곳에서
들이
##비로
##지컬
모노
##면이
것으로서
##점의
##전달
뉴스
매달
쉬운
분말
경찰은
밖으로
면적
##다란
국가의
##네요
제정
##이므로
겨우
이상으로
##개요
전공
##복합
의원이
##집을
피고
ch
기술은
그와
유튜브
애초
보자
체력
주사
파견
지속적인
##재생
조언
문제점이
초래
때가
연령
스파
##자도
##티드
같았다
근육
##ast
##yp
요리
##순환
것이라며
된다고
78
##크가
연극
생활을
아카
작곡
최선을
동네
살인
세정
목적을
##양의
사회의
##군에
##수소
조사를
연동
용접
탈출
Con
사실은
마리
대리
반송
##개가
목표를
##법인
정확히
말한
없었던
##터는
중계
객관
2003년
##하지는
밝힌
어려워
##회장
104
미세먼
다름
강의
극대
##구와
기상
토대로
##마의
어른
긴장
##청이
##하의
C1
그렇다고
조각
관계가
입은
적을
서민
실정
##루오로
작품을
##하려면
##방이
쌍의
점유
라이브
넣어
##님은
후원
##란히
##패를
생각하고
##기술을
씨가
행동을
포스코
##위원장
##록시
관점에서
결과에
mg
88
##관계를
##님을
안보
증대
대표팀
요구하는
##았지만
평범
이해할
것이라
없애
패러
##라서
살해
되돌
##조는
구리
기회가
조심
2017
천안
##라스
##그네
지방자치
테러
##매를
어둠
당신이
##연결
##호선
공항
그걸
사장은
결론
전설
아이돌
거두
성남
가야
분위기를
전력을
걸림
권리
늘어난
##인터
##달라고
시장에
내장
2016
필드
공략
고대
고체
함유하는
##이사
어려움을
##마를
목소리가
3은
탓에
##식과
4차
영역의
드레인
선택적으로
무관
페이
뒤를
##면과
되었고
단축
지하철
191
설치되는
##였지만
부호화
ac
이종
유해
어레이
SC
##코올
##학습
상반기
사법
직무
해결하기
공천
여부
##줬다
##소한
##짜리
##ss
중반
##분으로
있겠
만들어진
벌써
71
갔다
아이들이
69
창작
##판이
1위를
영원
##FA
김성
에틸
##톡시
사용한다
##분해
08
합격
이스
그건
##ES
합리
데이터베이스
아니지만
여겨
##공동
##봤다
240
##속에
##르트
##기에서
지역에서
##공격
83
##오프
개폐
독특
포토
접수
제공하고
외주
먹을
##상과
##orm
192
신호에
둘러싸
않아도
##등을
게시
양산
상에서
가깝
장난
##이닝
약물
조건을
##부품
시범
##령을
##전과
하이드
영입
모색
차이를
예고
무엇을
곳은
혜택을
법무
##해온
##바닥
수송
말로
최근에는
##코더
이어서
삼성전
무대
처리를
캠페
##거든
##인물
플랜
공직
실무
아무도
실린더
승리를
연예
Th
##Hz
세대
회피
표기
##치에
3만
제8
09
##국민
아이를
않는다는
연결하는
냄새
##당에
목적은
##화한
##형은
07
강도
##십시오
##ert
예로
하반기
소련
sp
구비하는
지표
계기로
경상
##음파
오랫
##kg
##미는
최우
##차의
이동통신
증발
끝까지
시장에서
##거리는
성인
필요로
적지
개봉
##uc
##장치를
##담을
2천
공공기관
거리를
프로필
96
보지
옆에
무릎
싫어
아이가
98
거기에
개략
패턴을
##즈의
부진
가구
슬라이
사람도
몸이
변신
내내
그날
##전환
##자금
몰려
재무
설비
##발생
막을
##버터
누적
법인
2010
일찍
이르는
공격력
##스에서
사건이
종류의
안착
##스톤
게임을
##하라고
데이터의
네가
속도를
갈수록
HP
특유의
##3e
##one
손상
떨어지는
다음으로
오리
변동
유체
##대출
##들로부터
본질
깨끗
매입
사내
##ult
이름으로
계층
연구가
일에
굳이
일종의
##끼리
소수
순차
2회
편성
2012
끌고
관련한
##화물
벡터
##토록
임계
롤러
##실의
##패시터
열었다
중심의
##야구
프리미엄
데다
Ar
크고
시사
고온
##인력
현행
흡착
간에
##ass
오랫동안
그럼에도
탈락
##공개
##르기
히로
##로도
##받았다
2배
003c
잘못된
##면으로
##프의
##이용
패드
비중이
붕괴
기아
##장비
생기
호소
개설
여담
##해양
##AM
계약을
본격적으로
##외로
유전체
##마토
사용된
거치
##스팅
밴드
연락
변화에
82
##져야
대미
효과적으로
공지
체크
파이프
승인
행사를
##평균
올라가
화합물을
##인것을특징으로
자아
정식
##이었고
수리
최적화
##io
곧바로
##광역
강하게
공약
사용된다
입증
사용하고
빛을
##ud
어쩔
##석의
기원
신한
균일
어플리케이션
법적
##도에서
2에
역사를
공산
##패널
유엔
공화
올렸다
리드
세라믹
사냥
##범죄
늘었다
서울대
저감
##됨에
##지능
##스키
비례
##시마
돈이
성향
됩니다
서구
특정한
고등
상부에
재능
아무것도
##양을
##공단
상장
##민주당
밀려
그러자
올해는
보낸
한나라당
경기에서
포함해
연말
지금도
제조된
공중합
전화를
점도
플라스틱
음극
궁극
하여금
만남
제국
중학교
유일하게
들을
##봉사
올리고
후방
##았을
성능을
##자산
밀착
걸려
도내
가중
사이트
권력
정권
##통을
용이하게
맡은
상호작용
##ef
무서
##발광
동시
##중인
찾을
##혁신
CP
거론
환자의
자신에게
커다란
거절
왼쪽
##나의
피드
##되자
맞게
관련하여
구별
1시간
협상
대조
만일
형태를
##량에
전부터
시장이
민감
간접
기능이
한국은
변조
정렬
편광
바른
SBS
##색을
##000원
확실히
북한이
아이콘
모으
명백
재난
기본적으로
##치기
한마디
IS
논문
##링을
들어간
대한민국의
개발에
주었다
왜곡
or
##사랑
본격적인
구성될
발전을
매니
무리
여성의
하던
꺼내
등장한다
UE
##행위
성우
하향
목소리를
공무
##아웃
##병을
##카오
글리
##pl
##연맹
침해
차지하는
##골을
이야기가
전주
본인이
데려
충청
##영은
##면에서
##텔레
세월호
##설계
지나치게
속으로
##작업
전송하는
중에서도
펀드
없어서
an
일행
##하자면
보편
##문제
바란다
##씨를
법정
##재로
##소리
축제
튜브
클리어
이정
##위기
105
##수지
대응되는
원활
##경의
86
모습으로
정확하게
도전성
했으나
##물과
왜냐
##소에서
##재단
몸에
포함되는
분야에
##카르
##하우
장르
2위
것일
##점과
이것을
대북
디스크
##타로
이름은
애플
상태에
범위를
##피아
박정
학문
##버렸다
노후
공을
겁니다
##려야
불교
당신은
치료를
눈길을
##값이
뭔가
업무를
자연스럽게
결합된
부대
집에서
문의
현상이
갖게
##만원을
오토
##대체
옷을
일방
##공학
휴대폰
업그
직전
속성
시뮬
이득
114
Com
##고등학교
그녀를
##IT
내부의
##분간
차를
나아
오일
##마가
##임금
계속해서
자는
잇따
편안
홀로
##사이트
대향
대화를
전압을
##재는
스페인
##글리
뒤집
비스
##ex
##법으로
문헌
##트륨
##up
타이틀
감독이
선두
주최
시작한다
단속
캐나다
##모터
마르
인용
모자
##키로
##연이
##체험
이유를
사람에게
선임
농축
비교예
##무역
코너
미친
않았던
사업에
미래를
노무
되면서
기소
ID
##편의
실용
CJ
##되는데
Sp
##고의
인하
##즈를
##로서는
MP
초음파
##건이
예전
이주
조종
높게
비용을
##스턴
가난
RF
오직
인간이
막아
CEO
경주
##보며
나타내고
옛날
##직한
상품을
질문에
기구
마침내
시작된
##에서부터
시나리오
텔레비
##rans
수영
##번에
##ystem
NH
31일
##100
슬롯
진정
4는
곳으로
레드
활용할
##았다고
회사의
바이러스
통상의
경쟁력을
지자체
김종
표적
##악의
익숙
출원
맞은
감각
그러면서
공정을
94
교회
후보가
치명
자기가
함으로써
##니어
동남
학생들의
보았다
##렸고
악화
##서도
##축구
위치하는
##심한
평행
2011
##론의
황금
폴리머
##O2
##ork
이루는
박사
해방
결정을
영업이익
청소
아닙
운동을
SP
##개선
선출
최강
정도가
무인
없으며
한다면
환경을
##목표
##ith
구비된
서술
셋째
##플라
역사적
으로부터
모델을
##셨다
에너지를
참석한
내용의
##크는
##기세포
전동
93
##연의
##ence
전략을
6개
있어도
진화
##이었지만
구비하고
##OD
et
이슬
DC
하거나
프라이
##변화
##서트
##건의
수백
듯하다
수요가
송수신
집계
플레이어
런던
않았지만
워낙
##에서만
흡입
매매
일도
급증
현장에서
##나요
호주
##EC
여러분
##라우드
호남
3개월
##시안
이어지는
불가피
An
다음에
담긴
20년
##무는
시스템에
##되기도
SS
물질을
##속도
당신의
투쟁
##미의
부작용
활용해
열린다
##기획
면접
텍스트
나오지
초등
##루션
##오염
표시되는
느꼈
단부
수신하는
97
##져서
##기만
지금의
채워
예약
검찰은
##시코
히트
속도가
체포
단계는
들어가는
넣고
메이저
운영하고
##억원으로
##리자
붙어
이틀
생각했다
스트림
부르는
3대
이익을
파트너
조금씩
콘크
##층과
mL
절차를
순수
##추어
##트럼
##프가
##테로
##본다
##의원
##신문
저희
이적
상태다
##플렉
##폭시
##겨진
형성되며
가지며
할아버
김태
##파의
아파
##실험
##나와
113
배려
사퇴
##군과
전도성
고구
많고
##페이
기체
한때
살아남
##설정
훌륭한
용량
##악한
높이는
경향이
##셈블
올바
영구
##수사
79
다리
프로토콜
도중
구비한
##러그
부채
플로
##보가
##민이
편리
제고
즐거
기록한
##여야
세계를
AC
시에
그렇지만
물이
##포넌
##테인
##지수
밝히
달아
무렵
##자유
용인
##ph
##길이
투자를
한글
배기
팀의
맞이
비닐
##봐야
115
##감은
##립니다
##LC
섭취
브라질
필요하다고
도심
의견이
기분
페이지
##재판
##까요
세상에
구성요소
IC
만날
##하이
감독의
##로지
아키
차지했다
경우에도
##프는
얻는
형식
##라를
##폭력
Pr
후술
참여한
##주인
커넥터
세계적인
시가
양의
##해왔다
제9
대체로
온갖
하나에
##패턴
##종이
냈다
지역을
손으로
##리다
현재까지
싸우
올린
죽을
보유하고
##해가
1로
봐도
빠진
##ear
##답게
103
처음에는
믿고
##순위
##주일
106
단기
일체
감싸
테트라
조치를
방전
##위원회는
축적
차가
그야말로
얻고
##성한
자신들의
느낀
##oly
##ok
87
##었으며
합병
무장
물리적
2001년
진행된다
92
허가
들어오
##산은
혼합물을
##소송
10여
왜냐하면
마찰
현금
별도로
코딩
ST
##경에
경험이
##대전
구조의
스트레
조성물을
탑승
##체인
Sh
##청구
##라리
추억
##월드
가격은
장치가
단계에서
NC
##저히
못하게
보유한
##억원의
프레
비율이
##타운
##중심
거리가
얻어진
MC
시대의
보며
대다
원전
##워서
관여
의뢰
생각하면
응원
국가대표
심의
##관으로
바깥
달하는
##살을
질소
매장
분기
증가하고
##영의
무상
레지
안정적인
트랙
고도
있어요
고전
다녀
이루어질
추측
혈액
도움
가치가
대표가
##생명
무사
들어갔다
##막의
##하더라도
##차로
펄스
오른쪽
깨달
만든다
관절
갤럭
##교육청
##IP
잠깐
형성하고
##중의
끊임없이
신장
포켓
##하였으나
##정과
맡고
##전화
그것도
##ene
소외
하나인
##왕의
자동으로
비즈니스
오빠
##실은
##ra
신선
시기에
##양성
무엇이
부각
상임
독특한
우울
사용되고
동양
진행한다
관하여
심한
##조사를
붙잡
여수
사로
스캔
일대
지니고
##름을
##ace
##부문
수석
##아노
금리
##ue
입법
순위
그들
만화
균형
저작
개통
복잡한
부담을
평창
##미술
##서와
##se
##호에
입체
뜨거운
북미
명시
않았고
어두
##소속
##코드
##시킴으로써
##ox
가해
발명을
##후의
향한
파이
##차에
가진다
##주와
비교하여
뚜렷
가볍
##느라
뿌리
##결을
정보의
행복한
얼굴이
수를
##로에
담아
처음부터
페닐
##하기는
vs
화가
##고기
##등의
대학교
피드백
##았는데
##들과의
회동
목숨을
10만
의지를
방사선
예외
##건강
외부로
멈추
한미
주제
인기가
당부
제조업
##쇼핑
추세
##었다는
흐르는
안으로
##드리
워크
##돼야
이산화
##문헌
##기관의
410
말하고
버전
일관
참여하는
부지
##조원
기록을
컴포넌
회계
##스탄
원정
이자
강원도
##유를
CS
미안
등장한
##비와
매칭
##하시
자식
지칭
네이버
결정된
긍정적인
131
동부
##파를
##전한
##들에게는
세계의
똑같은
##27
예시적인
##28
드러나
부터
용융
카드를
뛰어나
##신은
전체의
수납
화이트
유아
정해진
##로나
시간은
스펙트럼
내다
##비에
##억달러
집으로
1항에
81
내린
사이클
수준을
##지않
클라이언
살펴보면
끝내
컨트롤러
김해
##48
##프레
며칠
##ING
경기가
사전에
식민
##수요
형성할
연마
학술
급속
동영상
3000
소음
##해서는
##즈는
했을
전세
보증
혹시
성립
##각형
상세히
종사
사실이다
느낌을
##모가
##천시
##더라
마사
방식의
##ory
사랑하는
##대사
유행
##방안
세금
수득
음식을
정신을
신앙
##35
제공되는
##계는
할로
##으려
모임
있어서는
##선과
점착
##고한
웃음
##테이너
둘레
시달
##ST
##국에서
##됨으로써
##원들이
스코
상단
##ust
##긴다
##우의
언니
고리
아버지가
막기
##래도
대만
시급
구글
20대
포르
##안타
부딪
성장을
보일
흥미
mmol
기대된다
우승을
인공지능
등이다
##있게
##nm
따뜻한
다공
##ik
##시스
전체를
온도를
내렸다
##DP
132
수단을
위안
도모
##여행
없음
심장
##상공
내리
아스
##터가
##포르
스트레스
요인
재현
설명한
EU
변호사
##색이
신의
##켰다
상기와
비가
##ver
##음악
##화하고
탄화
89
얘기를
배치되어
##항을
##론이
나가는
##졌다고
당황
좀더
토출
어셈블
화성
아니라는
독립적으로
구미
조례
##설팅
이민
이념
결합되는
경력
태어
10시
시료
##스런
##라엘
노래를
이상한
데리고
규모가
페이스북
폭력
지어
##등한
본인의
중에는
##됐고
매력
있는가
경우를
350
주변에
해체
증가했다
##르지
급격
오바
125
불리
소식을
##치와
헤어
그들을
유대
330
기본적인
센싱
환원
##end
사이버
도어
##그래피
나라의
##밀한
고발
##열을
##밸브
실업
##EM
분쟁
대륙
##되었던
지출
갖추고
타당
댓글
평범한
물류
넘게
질량
시대에
2009
추진하고
포스트
자네
##포트
사로잡
간주
여기에서
간다
에칭
전이
시퀀
##ock
커뮤니티
비치
##하라는
하겠다
야기
신호가
둘러싼
과학기술
##루를
##리도
##추진
##야마
자유한국
부부
##책임
흐름을
##막이
이번에는
끼워
뮤지컬
FTA
5는
선별
##축을
요약
형상을
팀이
##탄소
모른
사업이
개발한
1번
지분
이었다
##연료
##필요
겪고
화려한
원인이
운송
물품
현대차
것보다
현상을
제2항에
연금
지점
극단
##hy
에게
김대
스탠
인접한
연구에서는
##Cl
KIA
기준을
##공이
##물관
ww
지진
음향
##감과
##호텔
##작을
자체를
조성물은
##아시아
금메달
##수산
##지부
##평을
##영이
징역
향상을
선택할
갤럭시
##ann
Un
태어나
##NG
정부와
나사
Co
리더십
보여주고
알코올
##ie
인사를
Cl
##폴리
다를
공진
##망이
모습은
##데이
아니냐는
##일로
한참
있거나
##OM
##신청
존재하지
일으키
신입
지혜
거친
형상의
연결되고
명령을
주소
취재
쳐다
##지인
아나
하단
내주
상응
훼손
장점이
이로써
한국인
##렸던
미션
값이
##구청
Lv
대법원
##중을
효과적인
##시간을
##민은
논쟁
찾기
당뇨
##방으로
##생활을
설명을
다음달
상기한
##ang
##선택
##되지만
##45
우측
시원
공급되는
외환
##디스
발명이
칭찬
샤프트
집적
##날로그
아릴
경유
##코리아
가능성도
수분
##자고
##시간이
더불어민주당
##서버
##내지
선수가
제공된다
가맹
계기가
##화할
이외의
##기어
심볼
확충
푸른
기판을
##회전
스텝
##중공업
종이
##즈가
계급
##영업
살려
선택되는
##마스
여의
자유롭게
전문가들은
가능하도록
##심으로
##클럽
신인
부사
##절을
수의
강요
##기계
123
PS
후의
하니
한정되는
소셜
10개
연방
손잡
집합
한층
ex
천천
사랑의
##ND
구단
나쁘
한국에
트위터
부적
##런스
냉장
파리
개성
실질적인
장식
알파
해운
메르
PR
##uct
말하면
장학
예산을
기둥
전하
타이어
위성
##포인트
술을
잔류
이혼
##부로부터
##운용
No
양쪽
##되므로
100만
##아파트
##이게
##했다며
했다는
더욱이
##과정을
히드
맞고
시그널
퇴직
깨닫
##생의
특성상
속의
김동
간호
소멸
구조물
적정
##2O
##졌던
##시한
##아는
##카와
면에서
##령이
후에는
##다며
이스라엘
또다시
특징을
##름이
##29
마친
배터
높여
안전한
##커버
부장
##회와
장점
사업은
마시
드러났다
TH
##erm
헤테로
수동
할지
서양
실시예를
DM
##ance
지명
유지하는
원통
맞지
의지
##저장
장관은
금액
적발
구제
##았습니다
정전
위원장은
##됐다고
요금
음반
돌아오
사령
미국은
##모토
털어
##AP
항체
대거
www
##투표
##으려고
##스포츠
미국과
연소
##미나
##수익
방치
어쨌
높일
비정규
생각할
효능
##으로도
##받침
효율적인
원형
##지도록
깜짝
리스트
곳을
최상
co
##겠지
쓰지
않을까
한정되지
전체적으로
지방선거
보도했다
3의
##33
##타민
드는
##생이
##편을
형상으로
##OU
출산
높고
길게
총리
##ode
걸린
가능성
##차량
통보
지지하는
더블
정도는
##의료
천천히
##에이터
단어
준비를
선수들이
나타난다
##기사
2H
고려해
유력
사후
아마도
##석에
##시청
##복실
##ich
진행하고
정류
당시의
발급
광원
동맹
##당과
##절한
##ign
##자본
pH
신축
증진
설문
##텔레콤
운반
손님
효율적으로
##탱크
##연한
최신
다니는
##주의적
##ind
느끼는
진지
바뀐
##cess
마라
이상인
밀봉
위기에
IM
이루어진다
##쉽게
가졌다
##련의
혁명
어디서
있었다고
##대역
##주의의
##무기
기쁨
정도를
sh
중첩
##됩니다
일러
건의
3천
##구동
난이
득점
이걸
##ium
지불
##태를
5만
동일하게
문제의
무언
##족의
세운
결정할
옵션
##와서
지역사회
##워드
명을
Tr
후배
엔딩
##CH
트래
##보드
동해
##되었을
역전
가벼
농민
바르
쓰레기
달라고
스피커
벤처
파장
##국으로
##선에서
5천
좋을
##여명이
일하는
접지
탱크
##내며
##able
##NT
전의
유지할
아이스
증가한
품목
노무현
##학자
정상회담
듯이
건강한
pp
산림
분위기가
전달하는
너희
국내에서
9시
한국에서
합금
랜덤
붙여
실정이다
불순
보면서
간편
##레일
돌아온
ES
모르고
5000
시키
##임에도
예능
전술
정하는
프로세스
##금리
##치며
수성
##교를
비용이
줄일
필리
부담이
불어
점령
무척
3회
##타가
AT
축하
##질로
선사
생각합니다
읽어
거예요
가능하며
불량
중합체
잡은
앞장
기동
개그
##교육을
##하기가
눈치
눈물을
##오를
초점을
제로
##가치
미세먼지
고백
##남도
늘고
##이거나
##만으로도
가량
이루어지고
아날로그
##산업의
거대
부서
미사일
행위를
##머리
##내에
##발성
내로
좌측
협약
단량
##처를
명품
화물
재개
회장이
이슬람
##ong
주어진
시상
제어부는
##동물
##당에서
남겨
에폭시
##박한
##권과
즉각
찾아가
하드웨어
연봉
양도
위대한
합쳐
당한
침묵
노사
세계에서
않습니다
대표하는
나누어
##센트
##변환
곤란
보여준
약한
농도
부른다
청원
선형
##기에는
태어난
팀을
중복
nm
김현
항의
순차적으로
입장에서
1999년
is
##침을
철저히
않다는
##공장
노트
포지션
1998년
##교사
아버지의
주어
##디션
인덱
연관된
마치고
주체
없으면
디코딩
방지할
진술
브리
1명
김정은
기운
그렇다
##브라
##광을
되찾
입구
전작
유도체
하수
비로
거울
108
수급
체제
##했다가
미국이
같다고
모래
터널
뽑아
##저항
형제
개척
기술에
그다
##장치는
소위
진료
였다
조리
##플루오로
##ax
배틀
승객
주가
발열
##렸을
##타는
##커니즘
중장
손실
##거리를
##로스
##토리
전역
동력
모션
청약
유압
##제작
일실시예
자세히
##화되고
진행된
제도를
해군
열교환
##운동을
##판매
나에게
##고자
일어나는
낮추
##해요
저장하는
아니라고
승부
사용하지
##팀은
존중
진행되고
직선
##소설
활성화를
##줘야
개념을
전해졌다
추락
간단한
문화를
성공한
반응이
업종
시야
서류
부틸
비대
##olog
##LS
특징이다
놓은
##고도
##랍니다
고장
아들이
사업의
요소를
불을
느낌이
유지하고
세그
살짝
한계가
시스템이
FI
에틸렌
##고에
아닙니다
가능할
FA
아무래도
인류
##BA
이후로
남부
나면
크기를
심판
대책을
게이
찾은
포함되어
##참여
AR
공작
##ram
에피소드
라이트
이룬
##주차
이리
##시장의
사용해
인코딩
##터테인
마그네
안팎
대외
아름다
우리에게
##사회의
##위원회의
CC
##위와
##은행은
경비
미칠
부실
제공하기
124
과정에
스케줄
했습니다
피해가
채널을
Bl
189
넘겨
제외하면
고려하여
감정을
##혁명
채무
##방식
##31
방향에
그래픽
속도로
도는
##렬한
학생들은
도메
우리나라의
좋고
씨의
##용의
언급한
효과는
보행
##화될
등장인물
##단으로
통신을
재료를
집어
##현은
사료
않는다고
집안
151
크기가
사례가
어려울
자신은
알렉
돌입
##주지
다음날
##교의
납부
매주
이루어져
##소와
총괄
물에
1997년
가만
관할
에스
En
##멘트
##강도
피해자
비서
부정적인
매수
클라우드
전구
슬라이딩
##시하는
간담
팽창
물건을
91
절연막
생겼
##다리
주변의
질문을
풍부한
##음에
시점에서
대부분이
일부가
다문화
##이미
정보와
공연을
환영
움직이는
태도를
##호로
##됐던
김재
버리고
아이들
색깔
곳이다
가계
위기를
##아민
DB
116
놓여
빌려
이고
다크
복수개의
##감에
결의
##ry
수준이다
LTE
미도시
3에
양호
##ark
최다
##로로
초월
외면
치고
##언을
##졌다는
##기자
죽음을
다이오드
##과정에서
식사
##시장에서
위탁
나설
##파일
##없다
NM
##스티벌
사물
높이고
Sc
자체는
##oT
##ld
방송을
맞서
##우기
##te
##었으나
동북
이나
썼다
받아야
원주
하나님의
재건축
##이면서
LP
양태
영화를
업그레이드
치매
레일
생애
기초로
결과적으로
##hn
발을
##북도
입찰
과거의
##IM
##허가
카카오
어쩌면
##르의
시클로
##ary
900
되자
사격
관리를
맡아
##거리가
7시
담고
있었습니다
끌어올
##재정
##입자
병렬
사고가
##왔던
소자의
때문이었다
귀족
##가며
영남
##계열
봐야
##수용
시켜
##양이
성적을
##기념
다양하게
생기는
##ition
##ies
터뜨
##rom
네덜
콘텐츠를
사건의
##LL
아버지는
수익을
##타이드
인터뷰에서
무효
시대를
최적의
##ey
나타났
##서울
대개
##5000
발생한다
이같은
##파가
##초등학교
거라고
##사카
무력
원의
미드
기도
뮤직
정도다
영국의
비판했다
##욕을
미국에서
빠져나
##500
방문해
제재
전기적
##ug
##프리
##ime
2008
벗어
AS
##함은
##조로
##처분
토크
보냈다
탄소수
저축
확인하고
치러
주장을
##테이트
맞물
상세한
시선을
이벤트를
만성
##장한
수확
##측의
골드
저해
##유로
멕시코
2번
420
브로
##과도
설명하는
도대체
예수
##하기를
수주
이외에도
것만
##받지
##인들
##마는
다이어
20여
회전축
##베이
장수
한강
의사를
드라이버
달성하기
합동
탄핵
활용하여
들어갈
박스
##고정
물론이고
배가
줄어든
you
##살이
임신
##바람
나라를
전까지
##pt
##ication
##목이
듣는
6시
##예에서
상생
불가능한
##팀이
올바른
크루
플러그
##파로
##건으로
##론은
3개의
페르
준공
극장
##물질을
방향의
##하게도
S1
상실
##란을
응급
SU
위원장
##ead
##대비
##oll
각도
베어링
##았다는
그러니까
현실을
##서로
올랐
평택
##색의
배달
##tern
모험
##형에
단단
비정규직
차지하고
세력
개선을
고통을
액션
싱가
적용되는
지적이
추가적인
행렬
##모드
자발
사람과
성공적으로
국민이
이끄
이어질
연애
##국과
코리아
스웨
용액을
##주세요
##였는데
##리나
학원
##산으로
##지역의
##판은
2루
##구간
제조하는
매트릭
##화되어
태풍
##스트로
수면
불확
역량
실력
스튜
나눔
2층
오목
##광역시
빨간
테이프
계면
날이
##인식
아끼
커지고
무의
힘들다
##박스
##체제
구조로
직접적인
자리잡
금강
뜻이다
도금
철강
주주
##리딘
다음의
8개
적용할
갖춰
다행히
장면이
솔로
있었으나
Li
배당
전원을
신라
태그
테크
##mer
도서관
고객의
##계획을
받아들여
##효과를
그래핀
한계를
오류
빅데이터
신분
경찰에
서부
가려
이후의
##싱턴
##었기
반전
실시한
농협
아니며
##킨다
진행되는
드디어
개발이
동참
##보증
##VD
담겨
구현될
##까지만
가라
종족
무엇인가
당일
보내는
부유
회사가
##한데
##성분
역량을
##펀드
작가의
임원
단편
콘크리트
호의
##일본
풀이
경매
##산과
불필요
##보건
##위에서
휴대용
중동
점에
솔직
해명
윈도우
맡았다
철거
민원
법을
오브젝
비교해
투어
하나님
##소비
##인한
그래프
그로
##차별
애초에
##네시아
간부
##시장은
단위로
고효율
##시설을
##진과
생리
버티
완벽한
콘택
##너스
주장하는
기반을
##클레오
반박
구상
표시하는
AD
매개
인간은
##용량
얼음
라우
유권
7개
4만
디메틸
##기업의
적용한
있었기
규모로
부패
내구
##측정
이끄는
##36
부회
항암
##나노
주먹
남한
것이란
##임이
줄여
병행
세계적으로
pl
##둘러
좁은
##OP
##공화
이후에는
신발
##아를
갈아
치유
Pl
분석한
육군
##옥시
노예
베스트
##졌지만
나이가
점수
##하러
최악의
공익
조달
찬성
성취
우리를
안심
이식
교정
충격을
상한
계수
선택하는
형성한다
sc
##ond
화합물의
경과
노광
네트워크를
##보지
##LED
처리하는
##장치에
트레
다룬
##칼리
방열
##기인
개발된
이전의
클러스터
SK텔레콤
##용이
부드러
6은
##연은
일본은
적도
##지니
언젠
서서히
병사
독서
설명은
자꾸
##루가
##무선
##웠던
##인증
##서야
인적
일환
SW
##공의
공원
보게
아저
직렬
##페라
말까지
##ile
목표는
이쪽
##하신
마이너
##겁게
##들었다
##법과
베이징
돌연
토양
적의
환경에
음료
아메
##역이
##변이
##그러
기분이
떨어졌다
잃은
아가
##하세요
마음으로
컨테이너
##피를
해설
만났
##시리즈
사고를
기다리고
계측
장갑
##으로의
IoT
성공했다
만나는
음악을
의외로
##데미
브레이크
출현
한국어
과제를
방법의
반도체층
##용품
고마
SM
차기
추석
대통령과
##주었다
에이스
하에
##철수
##네트워크
진행하는
땅을
미군
얻기
보육
아이들은
##적이며
하부에
가스를
##LE
소중한
데이터가
않겠
측에
한일
CF
가교
격려
1을
부당
해수
11시
5G
높이기
날개
앞둔
포함된다
산업의
2시간
이해를
순으로
목적이
##TS
##랭크
기대를
미래에
##우며
상태의
성격을
몰라
메커니즘
고속도로
##로워
측면에
##목으로
눈앞
자라
##면은
##ite
지내
10분
학교에
##회의를
과감
##배를
##사업단
클럭
계절
##플러
영토
##병이
적어
스킨
농가
전세계
포켓몬
마크
황제
기계적
여자가
현역
크기의
그림을
##가요
소규모
##위원회가
##가공
##목적
연대
위험한
이어졌다
##34
##융합
잃어버
측벽
##였다고
의미로
##린이
원자력
일부는
도서
누리
외모
김진
고압
두번째
##퍼스
커뮤니케이션
다짐
사립
##령으로
구청
##실히
TF
EX
##주의를
괴롭
아이의
공부를
30년
##에요
포스
##투스
백화점
HD
포괄
중화
번도
꿈꾸
위주로
물질의
##행사
포맷
좌표
##보네이트
임무
##ire
오바마
2억
컨셉
전제
수행한다
별다른
삼국
계승
하다가
부분의
대항
컴퓨팅
택시
부합
말라
##톨릭
알지
##ach
생각은
유리한
진실
비타민
안녕
안고
강릉
부근
제어기
과도한
##eat
##ype
실망
중간에
24시간
##베르
보충
##마크
##경화
##했는지
##현실
고려한
요구되는
지정된
떠난
커플링
대상을
돼지
오지
계통
편입
4개의
##스킬
정말로
법원
집권
##졌을
희망을
적재
사회에
수천
##표준
시인
소장
아닐까
구비되는
차원의
경찰이
##는데도
하얀
것일까
##위원회를
이끌고
중국은
훈련을
출생
자외선
미생물
제어할
성분을
어제
진행할
##종은
##ord
재벌
치열한
지은
넘어서
리소
##협의회
아군
답했다
##키의
가격을
##제공
인상을
##피해
완전한
##시트
##기본
연상
태평
##이트를
한다며
##타이
사정
##AD
증가하는
##왕이
##시키며
##안정
적용될
가요
없다며
김상
급여
어려움
진로
##였으나
혐의를
의결
눈으로
세탁
던져
한국과
이른다
만다
##분리
각각에
공동으로
6년
두려워
##상담
당연한
비로소
결합되어
야당
##달아
비싼
상대가
차라리
들여다
수단은
이젠
인체
내야
드물
부분적으로
첨부된
##면에는
EP
상관없이
##이든
도면을
앞세
##버린다
한국을
여성이
오피스
특성에
안산
차원
##고리
능동
김포
지나지
처분
환경에서
##연대
##장인
중독
1과
2명
주민들의
관리하는
510
설명이다
담보
##32
##음은
올리
그러니
불꽃
규정하고
##감도
7년
##필름
고객이
도핑
1인당
프로세싱
평가가
경로를
이영
멋진
수렴
정량
마땅
더해
조지
여담으로
##금지
선택한
ph
요구를
향상시킬
패치
##나를
##풀이
##질량
바이어
그러다
바퀴
분석했다
관련이
스택
##배우
해결할
기업은
콜라
##old
읽고
내일
인출
노동자
##제조
아미노산
확실한
과정이
컨설팅
##립을
##가량
영역에서
생각에
호응
점수를
한동안
기자회견을
어르
웃음을
##AG
계좌
폭행
의미하는
인민
근거로
잊지
메탈
사이드
삼아
모를
허위
안양
알리는
발생되는
수사를
챙겨
진학
방식은
전담
법칙
장악
##업에
혈관
텐데
142
##주년을
노력이
암호화
화염
고구려
선정된
바람직하고
즐기는
##어지고
문화적
그중
출신의
동화
스타트
맥락
##ee
##담당
##TC
사각
인디
고생
이겨
응답하여
전쟁을
##ber
##니가
fl
##미한
제압
효율을
일각
##림이
##놨다
##중이
고수
##75
30대
출력되는
드리
##권에서
##들고
채로
form
징계
소재로
직접적으로
점포
정한
음주
##비한
##재산
##하자는
##아리
야생
극대화
공개된
염증
##하이드
수준에
나이트
##플러스
까닭
##eal
방지하기
en
##동기
몰래
몰랐
피로
국가가
못했던
열을
##자나
승진
유망
백성
프로듀
불행
순천
##타의
상속
##이었으나
실리카
내외
초고
분쇄
특성이
요청을
##마켓
감안하면
교황
클라이언트
많지
잡았다
비극
dis
이수
어머니는
허리
방식이
공간이
야간
##단자
지옥
##심사
##희는
기업들이
전자기
탁월
##커스
이루고
국토교통
싱가포르
나란히
설명된
카이
아라
##늦게
어쨌든
3위
실종
커패시터
대대
##인더
들어온
##스레
신세계
##러가
있다가
안전성
135
마음의
##자로서
##축제
마련된
##일랜드
실증
문제점
3번
레이어
On
다이아
어렵게
수수료
여행을
##적의
상세하게
자존
도구
홀더
그라
pr
짐작
문화예술
##습을
평양
광범위
가짜
전해질
배치되고
##IG
OF
##편에
이같이
신기
##영을
##00여
##주행
생겼다
##시키지
워싱턴
형태에
지그
##신도시
멀티미디어
제외하고는
바람이
##비닐
##규칙
##용을
##VE
촛불
안정적으로
중고
인도네시아
반면에
가볍게
연수
한국이
어머니가
올리는
친박
히어로
##인도
##키를
불과하다
규정에
바뀌었다
출근
##방에서
그다지
##양태
##마리
아베
시작해
주민들이
김기
환상
무산
정해
##럽게
저렴한
sv
##99
새끼
이하로
1995년
듀얼
##인들을
사회복지
##숙한
##세이
기름
책은
시위
잡는
##나라는
연구에
10대
묻는
쓰기
상처를
개발하고
##부대
보이며
회사는
##타입
상이
암살
제시한
세계에
착수
##yn
작전
시뮬레이션
이집
실시간으로
##보조
자문
##크라
##거렸다
똑같이
Ti
##백화점
데는
대신에
포인
Hz
슬라이드
##편이
##셔널
이후에도
##였으며
##자마자
##접속
기여할
##노조
시정
##44
##전송
후보를
필요하다는
모은
첫번째
450
완충
도시하는
강화를
##트랙
폴리에틸렌
나은
나름대로
침투
##int
해안
##회의에서
##나고
8시
측정하는
##ost
확보를
비율은
아크릴레이트
과장
안동
남자가
제품은
권리를
시작하는
압력을
답답
아래로
산학
독점
배치될
차폐
##차피
데이터에
##수성
사우
필리핀
서명
밝은
수호
##키가
나뉘
버렸다
##센터를
협조
##망의
저온
##자들과
캠프
서브프레임
##하우스
문화재
##20년
힌지
##사업에
접목
141
##루엔
사용이
벌어진
온도가
##품질
것인데
##ata
##유럽
##시장에
느끼고
절연층
춘천
뒷받침
##38
철저한
공인
도시한다
아티
##총리
안타까
지역은
기존에
발전에
시민들의
제거하는
스승
돋보
메카
공주
##언이
전진
중도
갈라
##곡을
##했어요
시티
의문
파일럿
##시피
추정된다
찾고
##공무원
따르는
김경
4대강
##버리는
##만명
솔루션
객체
단말기의
셀룰
##청에
와이
전체가
아이들을
상측
자신과
원장은
##공연
배를
개헌
청주
완공
##ood
##먹는
##form
ICT
베르
kr
##기술의
절대로
당업
피스톤
기법
높아지고
스핀
허브
협박
데에
않아서
내보
억울
2시
시간의
변속
##르면
##장도
비전
포도
svg
받기
떨어뜨
미소
중국이
어리
연통
이르기까지
클리
부러
중공
평가했다
##정상
사례를
중구
되어야
##고속도로
단열
앞선
도의
##erv
생산하는
조성물의
몽골
등판
요구했다
프레임의
##포스
##홈런
신흥
일이었다
전통적인
##심은
관계에
순식
제2의
시간과
둘이
가르쳐
##아미노
##췄다
모순
사이에는
188
이거
움직임을
부를
##해보
어차피
녀석
##확인
최저임금
지원할
고주파
##협약
1층
납품
##per
중견
비핵
##건에
날씨
어릴
##법상
방향족
##현의
추구하는
##버그
살균
자신도
골목
막대한
##도전
SD
트로
마우스
전에는
##무라
입력되는
##오가
##관계가
비중을
연재
하도록
흥행
타카
일부러
이외에
없다면
유가
수신한
참여할
쉽다
##지검
##데스
정서
##된다면
걸고
##시장을
##주면
잃고
위험이
바닥에
##00만원
기업에
기업을
남긴
저소득
##되었으나
의혹을
##유전
굴절
##위원은
무료로
수준이
국어
신제품
지리
전직
로그
실력을
자의
것들이
도약
알리
##GB
회장의
입장에서는
상황은
PE
고소
사용자는
살아가는
##액에
정보통신
재발
##55
월급
##등이
직경
##37
수행될
하기도
배합
일자리를
있었다는
##과제
그리하여
알았
볼트
에스테르
무덤
생길
크레
1990년
맛을
확신
대구시
한창
카운터
악마
##두는
360
의원의
나선다
상무
눈물
내수
발언을
일어날
##아트
읽는
직류
운전자
배정
##운다
김민
Ex
CR
실장
##잖아요
날려
적당
##US
금호
주된
3명
##억원에
클래식
##현이
##중학교
가전
##지라
주장이
전형적인
상대를
##위한
##의가
지지를
뛰어넘
어지
오래된
감동
선진국
이지
일본에서
감상
구조가
비싸
늘려
높았다
가입자
이내에
정규직
##yc
한숨
아이들의
##우를
##비트
##자리에
갈등을
교육과정
cm
신중
벗어나지
하천
적립
그레이
##필터
리얼
용역
아래에
오해
##조리
##사령
##OL
열렸다
##enc
오스트
##이었는데
트랜스
편이
구성원
넘치는
##업무
제11
마디
실시양태
분리된
조직의
##랑이
정원
숫자
##두에
잡을
##강을
##II
배신
##니는
규격
조용히
숨을
너는
정상적인
자성
틀림
받으며
레버
귀국
넘어가
인물이
줄기세포
정신적
##마이
무용
남의
각성
이모
확보할
사회를
다루는
힘입
도발
VS
순식간에
지지부
존경
##과학기술
##우리
Ac
##통상
시전
그간
##루스
##시키도록
##특성
엑스
선보였다
##구조를
관해
폭탄
텔레비전
못하면
아기
요소가
일련의
공동체
없었고
tr
하나도
버려
주간
적용하여
임직원
학생이
미래의
고성능
의장
##미래
영향으로
##경기에서
기술로
매립
진주
공기를
시골
이동하는
측정된
산하
하에서
배포
윤리
comp
활동에
편지를
거짓말
바라보는
종양
한가
시계
확률이
##RNA
##입니까
태양전지
##시스템을
발의
참여해
적절히
##게이트
##르며
잠금
가만히
카테
##인들에게
염색
기판에
걸친
4의
끌려
터미널
달린
각각은
##ps
검정
퀘스트
일로
##됐지만
않았다고
##유가
상대의
##집에
기간에
야외
전라
차이는
돌기
쌓아
##VP
표정을
수산
분열
be
때로는
스웨덴
##ics
회의를
말이야
패스
마련해
친구가
##사업의
실태
측의
슬픔
안철수
제주도
싶었다
촬상
기대하고
줄었다
표면을
위축
염기
SE
실시예의
##유기
규모는
탐지
군은
##출을
전류를
오리지
유형의
어려움이
선제
죽어
##노총
무작
##단에서
출간
##하를
해주는
##바이오
않다고
##ian
152
##측은
조절하는
##정신
교육의
##구멍
##시장이
주목을
베어
##모리
갑작
무대에
범위에
가산
날카
Cr
##운전
Ph
##았으며
1996년
바라는
컴포넌트
보다는
##지대
Na
포착
레지스트
가능성은
왕복
좋게
여부에
식당
더구나
##으면서도
급격히
않았을
##됐으며
버린
서해
금방
조세
여섯
##스프
기록하며
사용하기
피할
##케이스
부위
중대
NO
달한다
##돌이
범위가
3학년
5분
박지
건국
##투를
IB
숙박
관료
##적은
전체적인
전신
기사를
##46
##접촉
개조
##이소
##DI
침입
2주
##호와
##ual
##시브
그쳤다
양을
인문
클린
trans
보내고
##느냐고
니켈
참으로
성격이
싶다고
##센터에서
##든가
##테이션
출처
##니의
연구원은
티켓
메가
로스
적외선
가능하고
##인터넷
##에다
마찬가지다
누군가
##니를
##레탄
한데
맛이
가령
벌이고
스트리
추진하는
부피
입원
단점이
##야만
4에
DS
프로그램이
선보인다
##anc
밖의
성공을
화살
선전
방법이다
정면
사건에
대학의
그룹의
잡지
##했었다
학교에서
##동생
제발
##령의
희석
누구도
복구
노하우
사용을
힘으로
##돌기
##청의
K리그
제어를
같습니다
정부에
##티오
입지
로컬
119
유용한
발명에서
바닷
##스트라
PP
당부했다
##ix
유성
##공보
##진단
내부로
피의
##여자
203
국회에서
##병의
모듈을
산정
후면
##우지
과목
존재를
##명이다
신뢰성
내놓은
정화
리스크
조립체
2인
이은
양식
일실시예에
램프
로서
대목
성별
중순
얘기다
##실과
화를
2021년
##패드
##동은
현장에
##물질의
##능력을
##했다면
자기의
함수
260
창립
MB
##에틸
노란
제조하였다
있었으며
북한은
##예산
드라이브
있을지
##르몬
7은
##르가
스페셜
LCD
나간
아이는
##그라
##론에
마산
엄마가
장비를
R1
슬로
##설이
회사를
개시된
숨어
프라
잇따라
견제
##형과
추모
회담
원인을
장면을
New
##포럼
##것이
내비
##icro
##베이터
보라
없던
##함으로
거지
##느냐는
사항을
소재를
이해하고
함께하는
##치면
김용
GM
독일의
근거리
나라가
전무
클로로
1대
세균
사이를
##여성
밀폐
##유지
습득
##hem
##가루
시스템에서
##ated
##티아
들어와
후쿠
1에서
출석
사회주의
드럼
##안보
자금을
관람객
다스
어머니의
싶지
작품은
부천
후에도
자체의
신이
웃었다
근데
##학적으로
세로
유산
##AL
쓴다
구성되고
시리즈의
##지다
LH
비판을
상응하는
오로지
영상의
2단계
##사들은
국산
##어질
0으로
실제로는
아리
안드로
##스피
폴리아
감옥
##기보다는
##슬러
양국
목소리로
##집이
감축
하느
자유한국당
##CTV
교수가
그릇
빛이
있었을
재해
운영을
파악하고
배수
태도
한두
4강
자칫
카트
##식에서
아래의
입장이다
구체적으로는
크로스
2학년
대해선
부호
##장관
호기
##오버
구조체
##된것을특징으로
경쟁을
##하듯
##류에
세종시
포함될
효소
눈빛
갱신
212
##온이
##GM
입력된
않는다면
밝혀졌다
녹음
사용하면
영광
외곽
서열번호
211
##놀이
컬럼
##판과
기술과
활용하는
까다
##ator
말하자면
이어지고
##ower
반경
재활용
바랍니다
모의
추진할
##렇게
땅에
물가
일측에
관계없이
##시간에
##iss
##황을
어두운
공간에
##되던
여자는
판단하는
Br
열처리
든다
kg
##량으로
넥센
대한항공
마커
##개념
세웠다
지주
로켓
##됨을
확인됐다
##방법을
##파이
화학적
##량과
##이었다고
2007
##대문
없도록
의약품
혼자서
시제품
##88
에지
통치
##디지
나타나고
##센터는
##롤러
##업이
일본이
접속된
즐겨
##파이어
##ere
영역은
##캐스트
프로브
##때문에
마약
동계
활약을
##겠는가
##요소
얼굴에
##속을
관계자
트랜지스터의
역임
작가는
루프
늦게
사람들도
하는지
데이터는
지원하고
##카가
사건은
지능형
쓰이는
플렉
##계에서
감추
두드러
##해야만
매니저
환율
화합물은
##39
##색으로
역사의
확인한
목소리
##ml
적게
전반에
##역으로
##전용
죽는
##민족
##타늄
겨냥
주저
##들인
날짜
번째로
##각이
##고로
상영
##투어
2002
실험을
##이라서
경량
BM
레인
피아노
##77
용산
유혹
##롭고
탄화수소
세션
믿을
EC
콘서트
후보로
허락
반해
##모로
모르게
##시절
안정성
고정된
아시안
##본을
및상기
##정지
근본적인
##합성
담당하는
차량을
##글리콜
스키
제2차
시그널링
제시했다
성능이
사운드
무소속
126
고문
##원인
##주도
재개발
340
전반적인
끝나고
##년이
점프
필요할
매도
예에서
##버트
##RE
알칼리
수험
1990년대
총장
고분
특화
##거리며
젊은이
배향
전기차
##였다는
불가능하다
##린의
명세서에서
##풍을
올레
참여를
##배치
파는
줄이고
비율을
표지
상대방
라이프
했으며
1500
표현을
원심
이곳에
조사한
하는반도체
##RI
들어갔
##되었다고
팀은
추격
##으려는
광을
##입력
아직까지
신화
##코의
잇는
##오의
동아시아
금형
##게도
다리를
경기에
##준비
대변인은
연결된다
미소를
##sp
꼼꼼
##트랜
절망
주위
당당
##단다
공개했다
검출하는
##정책을
선을
기가
밀접
##농업
30여
시민의
##로와
조사됐다
식의
생생
##OT
때문이라고
불균
변수
호스트
내부에서
##행이
보냈
여객
##세서
필터링
##렸다고
일례
조건으로
파손
1단계
요시
만만
1분기
위치가
우연히
온실
##예를
강경
것이기
인식을
이해가
스트라이
바보
##내의
##지거나
##스러워
감압
##받는다
최우수
정도였다
##뉴얼
엄청나게
3배
지목
주가가
CCTV
##하에서
힘입어
전극을
유방
##벽을
새정치
오고
불렀다
비치환
##설비
거뒀
액티브
##됐다는
##자료를
발생하고
도박
수신하고
외부의
품종
##되었는데
##품이
관세
방식에
구비되어
검사를
남을
아픔
작업이
1994년
불평
찾았다
놀라운
파란
고맙
##거든요
작품이
##ous
없는데
2조
##팀을
##렌즈
시험을
보건복지
실시예는
정통
##우러
입시
##로이드
상반
##저축
##미디
면제
수질
##b는
지방의
수신기
##채를
##론적
약속을
##전선
##할지
무엇인지
대부분은
지키는
이어진
##매매
##ater
뛰어들
체력이
읽을
생각하지
가벼운
빛의
연결될
시민들이
코스피
발간
##구요
인생을
사라진
##씨와
부정적
가족이
하강
이며
뒤늦게
##수원
당시에는
##히지
구경
스틸
##로봇
##온도
협동
절곡
도저히
##대응
법안
걸로
데미지
1호
영향이
##리포
내면
어르신
1종
협력을
대표의
완벽하게
##역사
정성
3년간
불확실
##ula
##졌으며
##으로부터의
노르
지낸
부모님
##글로
시술
지붕
생명을
주시
아이템을
개체
##어졌다
##유치
발포
##만족
##팅을
##믹스
##하긴
계획이라고
##세한
북부
##MC
자유를
레이더
##2는
높였다
머리가
납치
##동강
조직을
프로그램의
이야기는
##소프트
설치되고
한꺼
직면
판별
##층으로
##그룹은
경쟁이
상면
##있고
터키
인격
팔을
Ad
게재
류현
사항은
오리지널
대단히
어디까지
릴레이
##노드
원고
##단위
개재
기대할
국세
미분
항공기
##만큼은
자원을
연휴
##급의
돕는
##리아의
근로자
위험을
고조
가슴이
타입의
원거리
여론조사
##드라마
아사
클램
디젤
쇼핑몰
##점검
애매
어렵다는
##TI
1분
손실을
열쇠
않았다는
통증
at
각기
##인권
용도
감수
캡슐
저도
##ome
준비하고
되돌아
정책에
거리에
필요는
결심
사드
마련했다
##화합
권고
의류
한꺼번에
주식을
##음의
##디스플레이
자이
윌리
주석
##사들의
##매체
남쪽
존재할
##토가
다들
최근에
머릿
아랍
토끼
밝혔
명문
현장을
신임
##래프트
구체적
내달
##견을
신경을
정립
확인하는
발신
무수
##진에
##근로
작품의
##선수권
찍어
결과로
벌금
단행
##카의
인삼
원소
수술을
##토의
##닉스
##러블
##항의
점심
불만을
134
##창을
##토를
##겠어요
수반
전략적
속한
처음이다
프레스
##산염
##비율
보컬
##주얼
영향력을
##2의
##건은
된다면
기준이
##년의
인장
후보의
유독
##기금
획기
조회
##통이
비하여
##상승
됐다고
고스
미치지
형식으로
##루의
구성에
##수행
ml
일주일
##백을
##은행의
##어와
드론
##음으로
귀여
위치에서
실온
자부
##겠어
난다
##벤처
##강화
신약
러브
양이
각자
장점을
측이
반려
2005
100여
아트
##ink
적용된
##메이
방위
에러
##묘한
난이도
상가
학교를
me
혼합물
공시
냉매
목격
전망된다
무서운
동영
2006
바람직하게
나섰
##mp
잠을
이곳에서
처럼
##마저도
과잉
층을
단면도이다
지원한다
##겠다며
버그
깔끔
감성
8강
##수단을
##GF
때문입니다
사양
133
소자를
광주시
지역경제
매출이
무엇보다도
##화하여
빨라
폭이
과정은
모두를
##구에서
모범
진상
대가
##피던
약간의
사이로
##글랜드
5의
분당
위치하고
두께를
불거
수업을
과일
이마트
전인
##니와
##회복
##라인을
적당한
##플레이트
안되는
국민연금
가사
특허문헌
파우
사출
걸리는
선포
##작물
소재의
128
##부르크
과거에
구해
없지
아픈
태극
##5천
환자가
국정원
끄덕
118
대회에서
최대의
##내에서
조건이
1학년
##ath
제휴
전차
안티
제임
##이에요
2로
디자이너
늘어날
비하면
할로겐
기간이
2를
CT
게임의
들어간다
채취
꼽힌다
##쾌한
##밴드
목을
##66
주연
블로그
배우는
사회에서
##바라
쫓아
대표적
##인인
1∼
##프탈
실시하고
진영
##ick
인식이
107
유학
구름
신청을
났다
##플랜
제작한
제품이
서식
스튜디오
##군으로
5시
##교류
일환으로
물고
앞의
유명하다
눌러
참석했다
돌아와
이상은
제공될
##ove
예의
프로그래
또다른
바꿀
준비하는
교통사고
##파는
고찰
지원이
##밀리
##반의
대답했다
세포의
##억원이
가톨릭
목포
##역에서
유닛을
##보장
제12
사용자에게
골든
상주
MA
위장
헤더
##쟁이
##코는
다공성
석탄
수시
신뢰를
맞춘
##aw
제품에
장을
##타르
동결
세무
##sc
VR
##하였을
곳곳에
cell
공중합체
System
출력을
전체에
프로그램은
모티브
차량용
##공헌
현안
시설을
with
대두
남양
놀이
##2000
의미에서
언덕
가축
인테
영역이
하측
이미지가
4회
어드레스
##력발전
재료의
##전원
기간을
죽음의
검찰이
##로써
인간을
경선
예는
##였습니다
##람회
최하
블록의
아이폰
##마에
##터테인먼트
##달라
##있던
비틀
일본에
섹션
##신경
명세서에
나타낼
수여
204
지각
it
전망했다
##평화
하나씩
특검
인덕
증언
거기서
##시켜야
일러스트
유인
##GC
성공적인
##림의
##아니
사회가
즐거운
자매
김연
오를
사시도
빌딩
하늘을
건담
##ational
##코가
바가
대통령을
##루는
##되었다는
식각
##전시
정신이
##소성
이용될
이사회
서초
시작할
##반을
스캐
잠수
430
##팀의
촉구했다
##아릴
자동화
복사
진행했다
구원
##풍이
전송할
res
들어올
##oun
어셈블리
드러냈다
270
순수한
기대한다
꽤나
재단
나서는
아까
##절연
안정화
정교
##속으로
5년간
중국과
##도어
세계적
착공
##을수록
##위원장은
블레이드
이대
출장
바꾼
2004
건강을
##결과를
##전류
##속성
들어선
이윤
신념
##역의
물려
분석하여
신호는
세우고
##라와
##이었습니다
형질
##두리
네덜란드
본선
투기
LA
의회
이병
간격을
승용
장기간
태국
불이
##하지도
가까워
##RS
안전을
통상적으로
공사를
구사
144
어째
OLED
##나트륨
중요성을
동성
어긋
잉크
소지
##료가
##민을
##하고도
배경으로
김치
노이즈
글루
학생들에게
판타
##지역에
세금을
내리는
이뤄진
군의
있으
요구에
##셔서
갈등이
자본주의
분석이
##방향을
여러가지
중립
멸망
길이를
어린이집
##두를
수행하고
##카이
적대
##생태
행사는
모드를
원리
부자
고집
##상도
페스티벌
청문
비아
사태가
무기를
##설명
##메시
##OH
마이클
##밀히
기억을
워터
##되었지만
집착
매치
##권으로
##바지
덕에
##iel
제20
후보자
반대하는
##작가
압출
##정당
상환
행하는
되므로
받침
유치원
사이즈
표정으로
##ction
##하가
나지
범위에서
넣은
##벨트
##브리
용서
강연
선택을
판단할
응시
여지가
소극
##패스
기저
문화의
부드
520
겪는
연기를
권한을
말하며
PL
결함
##한을
##일으
모델링
##화되는
탄력
5회
##199
##둥이
영원히
3시
해가
바꾸는
필름을
감당
4천
제법
##서비스를
##감으로
과학적
자원봉사
북쪽
##65
##은행이
##바다
동구
##역에
미국에
##ma
거칠
재직
동서
프레임을
공존
센서를
부드러운
##ys
##터에
##적한
되지만
구동부
대응하여
##렸지만
분석하고
무죄
합리적인
기호
내밀
##부처
결론을
어디에
조만
해당한다
패턴이
미흡
모양의
작가가
피크
통지
Ag
치환된
##비디오
견해
수시로
##회관
번의
뜻이
영화의
##fer
기뻐
고양이
많은데
반환
휴식
질의
컸다
un
연설
선수들의
LC
##취를
##라이더
필요성을
무대를
배치된다
문제와
와인
냉동
##발이
조절할
암호
작아
##발의
중재
임기
압전
길이가
결성
##들보다
학과
서로의
원장
디바이스의
##생성
##신고
##변을
시중
만났다
박리
수중
프로그램에
##리우
실효
3인
피를
말아
일정을
알레
1차년도
마구
나타냈다
바에
주류
백색
중개
##공사는
##으론
##속에서
이순
##비교
##감지
진행됐다
##국인
용병
전수
할까
돌아왔다
규정을
##실장
고부가
줄이는
##어리
역사상
##PA
수련
끝으로
##DA
##가능하게
인종
##디자인
진행될
검출된
##미사
3연
오르는
##세와
안된다
확실하게
손쉽게
이하인
회사에
진출을
잘라
##다니는
트래픽
전계
승점
무지
역으로
염려
파고
패러다
오늘은
##ave
찍은
장군
비교하면
인구가
씨를
밝히고
de
고추
주름
소식
박정희
결정적인
패턴의
나갔다
라이벌
##권도
##검출
##만원으로
때려
개발과
##사진
부가가
유럽의
사안
##충전
제작된
##무가
외의
주인공이
한해
##들만
##렸다는
근처에
이듬
필요에
전극과
유선
오프라인
동안에
않음
일으켜
##밀도
현직
열차
즐기
##교가
##RP
강행
좋겠다
##터미널
확대를
미러
포럼
타자
해마다
포털
##초를
거다
실수
식민지
##카를
천재
##ement
##소리를
드림
용의
거둔
장례
##트에서
결정했다
비유
보좌
##단체의
##ethyl
##계층
16강
소상공
향하는
관계로
판매하는
반짝
주장한다
에서의
조합원
등등
당분간
##값은
차량이
##방울
생산성
올릴
효율이
마다
##인재
건네
##판으로
심하게
##해준다
보드
늘어나고
UN
##료는
위생
말레이
자세를
##행위를
무거운
어우러
남자는
메달
Fe
군대
트럭
신재생
출구
백신
지고
##차게
대원
발병
은근
쪽이
터져
뒤에서
##수입
Zn
##포먼
드레
수행하기
안의
##금과
내려가
보낼
##도서관
##사항을
연장되는
들어오는
농산물
내용에
##체계를
##학은
민중
자영업
##티를
불러일으
주민들은
필요성이
3루
##are
소중
저격
스태
변이
##신호에
##력도
##급여
사이클로
전단
비중은
외에는
##란이
억압
파급
찾지
##가이드
##약한
##시도
신속하게
##린은
##수석
서둘러
전락
극히
##47
UV
재구성
연료전지
스페이
구축을
##패로
Me
##콘텐츠
본인은
일어났
체인
불명
##부담
활동이
##전에서는
하루에
기법을
분이
정복
##ism
코스닥
이럴
현지시간
정유
서울의
사람들과
있듯이
##자리를
광양
5에
ar
##00원
논의를
이듬해
라디
1992년
1980년대
내정
육아
대공
하겠다고
##티즌
등장했다
##적이었다
##티어
말단
알아야
표정
##개국
도시의
메이크
##mg
##위해
##투명
때보다
발생했다
일일
##TT
확인하였다
희귀
팬들의
득표
##계와
연구에서
구조는
##사도
복제
EL
##드립니다
poly
##1의
싶다는
##모의
본부
접착제
##크릴레이트
진실을
배송
##집행
##보에
##임대
##감의
기숙
PM
신생
임의로
중지
상기의
모았다
두는
일원
##지표
이메
정책이
아들을
메트
것들을
DE
##트릴
##리안
##방안을
경제가
##학년도
모델로
전극의
에테르
내성
중국에서
오프셋
권력을
##구비
척추
OS
발생하지
써서
2001
##골프
끔찍
##설치
부재의
3억
명중
##드레
식량
##간을
파생
하시
입단
##소리가
주전
물의
사무총
S2
딱히
위와
값은
견인
의거
이진
##되되
운항
온몸
고시
스폰
착각
145
##옵니다
탐구
포화
캐릭터가
후퇴
##사태
군에서
##동과
##계로
성폭
확률로
나눈
상을
##달라는
##별로는
유족
원내대표는
처리부
일명
수단으로
##지나
프로야구
개인정보
##보상
차분
여신
##소시
##심과
##할수
가족의
RS
엄격
1980년
플래시
잉글랜드
역사가
칼럼
캠페인
김씨는
적에게
Gl
##지기도
구획
과세
댄스
한달
치아
짓는
어렵고
피어
Fl
##ology
##방사
##유통
OE
금감
##으러
##빨리
여왕
유효성
##상태를
cl
직원이
알콕
광명
##카는
##속의
id
예상되는
주한
학생들을
캐릭터를
역을
사람으로
두께가
매월
레이스
용어는
배운
2003
간격으로
의학
##재해
##에겐
와중에
이데
얻게
체계적인
초반에
##문으로
Cu
자유로운
전반적으로
가격에
##계약을
국내에
귀를
에코
장착된
데미지를
김일
활물질
사회공헌
남겼다
##드라
##밀하게
자제
전쟁이
bl
##하였는데
##효과가
절약
명확하게
막는
##바이러스
##나갈
대지
조화
적용된다
뜻하는
##었어요
통행
벨트
부상을
좌절
전임
##머스
기술분야
모듈은
생긴다
찾아볼
그들에게
8년
키우는
##갖는
##는지를
아크
의혹이
추출물
반성
차별화된
리듬
##ft
동향
실시하는
인생의
앵커
개발하는
붙은
비만
예선
자석
가난한
타워
광고를
좋다고
개질
누워
안경
소비자의
다녔
##중이다
얼굴로
여당
벌인
5대
##ish
슬러
보여주었다
후손
##조작
줄을
##투자증권
원가
이길
요구하고
맺고
통로
실시할
한진
혼합하여
서로를
2부
##놓았다
초등학생
철회
안타깝
명절
증류
##시켜서
3분기
고기
치는
고객을
봤다
손해배
##해줄
튀어나
모습이다
김대중
조만간
##블릿
이원
##미와
##한의
필름의
협업
드릴
연신
##하셨
잔뜩
친화
퍼포먼
##버리고
지수
강화하고
고형
서비스의
불린다
대치
제13
구조적
선회
느끼게
##아세
보고서
생성할
농림
방에
개량
8은
경제의
달고
전압이
관계는
##und
정공
행운
이유다
##란다
아이디어를
한국당
매핑
하나하나
##움과
5배
단점
리버
##소녀
수강
실버
인버터
윌리엄
Res
먹어
크림
짓을
논의가
국민을
10명
화면을
농구
파업
##산시
##닐기
인원
##감사
형성한
지었다
##또는
언급된
기를
1993년
긍정적
구조에
여의도
##나가는
186
원으로
##챔버
무난
안전하게
의식을
생물학적
사실에
상시
formula
##십니까
IMF
선보인
도둑
것이므로
BS
여기는
일체로
농어
나타날
되었습니다
동적
관념
중국에
발진
세상의
RNA
##분할
끌었다
늘어나는
기쁘
김광
주유
형태가
LNG
사라져
소송을
체감
바둑
##사업은
한마디로
##문과
삼각
매력을
ad
##49
이름의
의정부
미네
##관절
불소
서울에서
예금
총리는
##디가
##실록
##제도를
이상에서
##학회
배관
##협정
나빠
변화는
아민
여기저
CM
프랜
첫날
##타워
##조립
식사를
신호로
187
##회로기판
##이치
대단한
침략
Gr
사정이
4번
##국적
이어져
##요금
가죽
나타내었다
써야
비치환된
##디는
##부에는
처치
##버리
##있는것을특징으로
##비드
죽고
##쳐서
아일랜드
존재가
중량부
40대
##조치
전교
##슨은
##청을
양은
재료로
인건
유닛은
왕이
지침
##EE
아니냐
국민들의
안드로이드
위치해
제시하고
##에테르
##용은
오피스텔
지키고
덮개
2종
대형마트
전성
방문한
##상한
시점에
##데다
잠실
##300
지역으로
##코스
범위는
LG전
칼슘
디코더
통산
삶에
##일반
##더군요
##조차도
비정상
준수
##러의
최종적으로
##버려
일으키는
시대가
판단을
진심으로
부착된
##현대
걸맞
##답니다
마나
삼성전자는
##DM
##우승
##심에
다층
어딘
입니다
모으고
제한되지
떨어질
연다
##급식
##던가
이태
아연
묻자
없으니
심리적
##장치가
사찰
##사한
히터
있기에
쉽고
김수
최순
규모를
서울중앙
사육
고스란히
##펌프
부끄러
Ni
송도
매트릭스
CH2
화폐
남편이
모인
##올로
팔아
일으킨
지상파
고려할
강제로
임피던
직교
사장이
##조제1
평탄
##etw
##영향
중부
마인
나이에
취향
시즌을
스테이션
도면에
##보로
##대학원
109
##차원
##판에서
만나게
돌아가는
##인치
결혼을
주세요
역할이
##AA
간단히
##ayer
슬라
##조성
117
피복
##세포의
##기나
TS
염두에
##학원
역설
##예방
조항
자국
NMR
제국의
따져
부재를
저장부
실시예들에서
세포를
비고
##디를
9개
##실란
Se
추가적으로
##교회
##lex
##거를
특징은
낙하
두루
IL
##격이
##스럽다
입자의
유량
##추출
무섭
네티즌
발주
조금만
##박물관
##하우징
별도
실적을
2분기
BL
운영에
갖도록
게임이
##부족
벌였다
##문에서
##ung
저질
진행한
155
개를
캐비
##폭이
짓고
그리스도
휴가
끝이
위해선
중점
##own
캐스팅
유니폼
KBO
열전
계획이
CN
기준에
검토하고
##학이
##국장
알았다
되었을
박영
요구된다
증가할
##러는
부모가
구할
프랑스의
랭킹
##한이
쌍용
싸우는
적용하는
헌법재판
이사장
고가
폐기물
때문인지
##미경
부분에서
건물을
##가게
유닛의
정책의
상세하게는
탄산
개략적으로
괜찮은
활발한
비리
민주당은
##년에
한방
##기능을
암모
서비스가
##당하고
낙동강
걸음
##인지를
빈번
2대
감소했다
##부재의
4시
##공간을
차례로
되기도
사업자
골라
##들여
불필요한
##문화재
심화
추가된
##정비
##하는지
일어났다
호출
단량체
빈곤
마쳤다
특이한
반응은
보이지만
제출한
##기관이
관심과
모서
예정인
연세대
재산을
사라졌다
4000
가드
같아요
들지
디자인을
그랜드
하나다
가져다
##곳에
##르다
지도자
적용해
김지
전원이
##디움
고작
##값에
연결되며
이룰
고객에게
##사실
두꺼
시를
단말의
기억이
re
표시된
사시도이다
소매
185
경우의
횡단
##련된
기업과
부모의
해결을
믿는
소식이
살피
##급을
##규제
상면에
모듈의
사용하였다
##막은
조준
##ake
권위
각자의
##몬드
참여했다
##보수
가능하다는
신도시
로맨
반영한
##고와
OECD
협상을
##CCH
##였을
전망이
타격을
집계됐다
처리할
오면
##산화물
말인가
갖지
임차
ME
3가지
지경
기생
타측
하나이다
악성
사쿠
엘리베이터
자랑하는
장성
##환이
자신들이
바인더
##레나
##예에
직원들이
##일리
##68
##강의
것임을
항균
영화는
증정
##카메라
Comp
미루
##학기
##배출
마련한
청정
이동할
트라이
유료
원유
##HD
왕의
##우주
##겠습니까
##희의
외부에
내용으로
남자의
이해하는
교섭
소개했다
1991년
열려
##사례
정치인
##타이어
민주화
움직임이
##왔고
관중
##보의
한양
나고
남해
에탄올
원칙을
기원전
범위의
하도
전당
공간으로
히드록시
죽이
밀리
대칭
잡혀
잔여
분화
조합을
하려고
브라켓
입수
학업
2000년대
##지노
##독한
##선언
##오리
탁월한
표면의
##곳을
동일하다
##그룹의
이천
김병
브리핑
인정하는
도중에
종로
폭넓
어깨를
방식이다
##당하는
엇갈
대의
선호하는
프로모
수축
청산
활성을
주목된다
성명
##희가
일방적으로
무더
이방
낮게
초록
아이들에게
탄탄
동행
지위를
코드를
어떨
합계
생각보다
야권
꼽았다
교장
str
실시양태에서
##대장
번에
군으로부터
위주의
증강
마녀
CPU
##ound
야마
##동력
신성
단독으로
에드
면세
시민단체
##베이션
##trol
유지하기
##되지는
코치
도민
동굴
거래를
정도에
##운드를
입장이
되살
머신
모형
세상이
여자의
추후
##어에
##대회에서
가라앉
단계에
병원에
구성되며
##ree
결정하고
도메인
영상이
길은
펼치고
##PP
라운드
정당한
##42
안성
합작
##oy
상하이
##티나
쓰면
공군
##농협
없어요
wh
성숙
주머니
##매김
문장
##제철
한자
교육과
##리얼
편지
부른
밑에
사업으로
이동을
세그먼트
논란을
용도로
군인
대중교통
경찰의
적혀
크리
제이
중소기업의
대접
새해
크리스마스
##등에
미스
계열사
임무를
음원
조성을
##번호를
국한
사이가
용기를
라인을
저런
검찰에
프라이머
GDP
맥주
##ah
드러난
조건에
공업
강조하는
##경과
기록하고
대비해
##일수록
배리어
로우
##론과
##임은
맞대
접속되어
인테리어
경기는
정의된
전위
시기를
침체
가슴을
손이
##시에는
미만의
##란의
아버지를
##리조
다운로드
의지가
다해
만하다
노벨
송출
요새
바람을
샘플링
스포
이어진다
밥을
판단하고
확보하고
같은데
가용
선수는
서포
기업들의
모르겠다
통과한
공정에
##원자
클래스
생성하고
유한
대학에
시드
발견된
##위험
레전
Dis
수습
비슷하다
##시스템의
기하
RP
암흑
명확히
##인민
문화가
대놓고
학생의
군수
앞장서
인식하고
피가
낯선
업체가
##케이
재판부는
##수술
##하느냐
성분이
코미디
줄이기
우리나라는
중기
항만
##ution
브래
비판이
탈퇴
기성
우유
인증을
작고
크지
##령은
문제다
##지법
##지마
좀비
받으면
정황
드러내
실시형태에
신동
국비
카본
##실점
##으로만
행사가
위치로
##청소년
##짐을
위상을
자사
폭을
베네
싸움을
머리카
##교육의
##DS
난방
##았으나
##티스
4명
##필드
하라
##공식
다각
##문제를
생성되는
시작된다
지나면
투자가
보전
지문
있나
적절하게
공기업
아내가
죄송
##대회를
가깝다
공고
칼을
대주
유입되는
것이나
도체
가지게
배상
셀의
##가에서
##시키면서
##익을
가슴에
해고
##야의
있겠지만
최후의
##인간
멘토
태블릿
대상은
##프린
입에
접어들
4위
치료제
##차이즈
공기가
자리매김
최소한의
##리라고
베를
지적이다
뜻한다
##지주
마술
##부인
참석해
##크림
by
막고
일상생활
자신감을
WT
베타
생일
##만9
여학생
인덱스
뿐이었다
##절차
내열
##통화
##더러
##먹고
스미
Bi
예로서
투자자
C2
##능한
분명한
선정됐다
행사에
제3항에
측근
블럭
222
회로를
오차
STA
뭐가
##보안
다채
##년을
##연도
##대교
##용기
##프리카
연결부
##여명의
##진한
속에서도
곤충
나누는
맞았다
성사
나오면
##정부의
체계를
소홀
늘어났다
토요일
##에의
매출액
확대해
##린을
자연의
원본
난민
내릴
광산
지질
포르투
발생된
그런지
산책
갤러리
##유산
시너지
그러다가
육상
##적일
##성형
부의
출신으로
최후
재미있는
제15
청춘
축산
##방어
거세
나서고
##관리를
기전
##30분
##더스
열매
고지
설치하고
스윙
이들에게
마음은
성질
이용되는
인자
요청에
##였기
해킹
느꼈다
생산을
가족과
똑같
##베이어
과다
양상
뒤에는
##케이블
전국의
양육
질화
AND
결합하는
응축
##슈타
##건조
독립운동
후회
조그
층간
포함하되
교과서
원이
A씨는
파악할
일곱
가장자리
차로
오사카
당신을
##적이지
권취
컨버터
##쿼터
프로필렌
조사에
##oth
##친화
낭비
##열에
죄를
삽입되는
나트륨
##85
카메라를
오오
끝날
욕망
##모는
네이
몰라도
노릇
20분
요인이
결합을
피부에
조선의
프로젝트를
능력은
##령에
당내
착한
기인
얇은
커맨
##아미드
##41
##회계
먹은
세미나
##온은
투영
박성
볼록
205
Man
플래그
체류
##있어
스피드
분류되지
일일이
중심에
조국
아름답
벤조
설명하고
어서
국민들이
둘은
##ital
대면
시키는
스스로를
평등
거점
상승했다
Ga
Or
세우
형성하여
의미는
##리던
DJ
발라
되었다고
놓인
##소방
에어컨
집중적으로
배울
생각한
스위스
방향과
다큐
수혜
##으로서는
성분의
221
환경이
개가
인가되는
##전사
리모델
2연
광화
##인자
들어왔다
##클래
개인적인
전철
오랜만에
##arb
바이러
태평양
대충
물질이
성적이
##수단은
공격이
##왕은
제공된
제안을
##ose
어떻게든
테니
머리에
민생
보물
복호화
않으
설명할
사무실
육체
표현하는
##재에
당첨
심어
처음에
끝나는
장벽
콘셉
수학식
##ook
이형
간신
##위원회에
관리가
펼쳤다
결합하여
원인은
삼고
inter
AM
고유의
트리거
##하였지만
##폭을
보호를
한의
##ole
매번
##003e
공식적으로
##판사
습격
언젠가
디아
유키
주장하고
로딩
참가한
수행하여
개수
해요
수단에
철저하게
6회
##rop
아쉬운
##열이
C6
하므로
##워야
아티스트
증상이
##유도
9회
##소개
입술
핸들
현실적으로
쪽에
벽에
##음과
내다봤다
자율주행
실시예들에
아르헨
##환을
공적
모드로
춤을
달라질
훗날
마르크
Re
##리라는
남는
##마토그래피
금융감독
##천의
영역과
형성하기
##전형
선단
사고로
##친구
이용해서
샌드
국제적
이시
인정하고
##터와
않으면서
분석이다
그해
정답
바위
메이저리그
흡연
신종
주면
편의를
LS
잡기
##부채
추진해
특혜
출신인
미생
퇴근
읽기
##박을
PV
##ier
##혈관
강도를
문화체육
##런트
데서
있는지를
주부
규제를
균형을
##압을
기다리는
악취
##리포니아
##a는
사건으로
뚜렷한
표출
##TF
실시한다
맞추어
뚜껑
고쳐
##께서는
레지스터
설명이
당뇨병
##대행
포지
중장기
동정
타는
##조와
LG전자
무선통신
모양이다
어느정도
본능
제14
##IST
대여
##95
##라노
##오지
인근에
##동으로
up
##길에
1988년
입장에
##기간이
필살
평판
##합을
복용
단백질의
온도에서
떠나는
##사키
경제성
가기
tv
사람이다
##단백
특수한
##RC
도요
표준화
##츠를
설정하는
추첨
##미로
깨끗한
개관
얘기가
원래는
1200
##키스탄
기록이
발생시키는
5명
필라
중대한
본딩
정치권
상용화
당했다
##ame
이번엔
##준은
시작됐다
무시하고
##석에서
투명한
챔피언스
##고용
##ane
8회
의사가
정무
밀집
몹시
KTX
동쪽
PCR
과시
전송되는
##맞춤
힘들어
걸었다
살펴보
Wh
인터페이스를
곡을
136
색상
어울리는
##신과
면에
액상
한류
이르러
##일과
FIFA
돌출부
부수
막상
이뤄질
##조명
min
##군에서
휴대전화
국방부
불편한
280
건강보험
저지른
두께는
##컴퓨
##쓰고
##인데도
세이
제스
##불을
신형
교도
인천시
세상에서
##반사
원에
##주자
대학원
향하여
그녀에게
말아야
괴물
응집
수거
초중
부산시
분들이
못지않
장관이
##LP
금액을
무방
마시고
나카
##적으로도
벌이는
돕기
레벨을
알아서
3점
ele
적색
인형
소집
사상을
포인트를
배후
##재와
##기관에
##arg
미나
개념이
##도르
##클로로
채널의
김승
##품의
##총을
##바의
마그네슘
연구소
조속
수신하여
##분은
154
##소통
##료의
알킬기
추상
여는
##미야
610
뜻으로
개발하여
나갔
구성하고
127
에피소
소켓
제조할
대다수
TC
서울특별
밸런
##포화
강하다
폴리에스테르
철수
지는
##염을
##중국
문제도
아암
MVP
백악
보이스
엔드
##진으로
애국
사라지고
##돈을
손해를
대구경
미스터
책의
##시키면
작용을
편향
##시의회
사태를
##벌레
제안했다
##팩트
##회사의
175
##표가
어느새
미치
특성화
고의
침몰
열정
이산화탄소
위법
시일
요청했다
1989년
골을
벤치
종업
레오
##O3
브라운
GPS
아침에
##ress
##프로필렌
초기에
얼마든지
##amp
틀어
##ection
결정에
책임이
##67
미용
대회를
북한에
남구
##orld
한결
##왕을
교수의
수단이
전격
때와
쓰인다
선거에서
나눌
##우와
1987년
버리는
전산
##차단
다음은
지형
##뱅크
신속한
분야를
지역구
내용과
##오카
1개의
막내
많아서
여가
이라크
##트랜지스터
퍼져
3분의
이해하기
방송에서
거뒀다
개인이
##몸체
상정
##시아네이트
병역
6만
##장에게
162
##작의
나와서
달했다
함량이
당의
##위권
처방
항소
영역으로
떠났다
##변경
튼튼
기다려
신용카드
결정한다
##리에서
저를
##러를
향상된
통신부
##합의
제시하는
##O4
가족을
브루
예언
##말이
남기고
밖에서
부임
##마한
클릭
변화와
중성
증여
너머
##관계에
##당했다
지역이
방지하는
공정거래
##사무소
##ivers
토너
오늘의
##훈은
전제로
##포로
저자는
지나친
##노이드
대표이사
4분기
인턴
플레이오프
삶이
##터로
증기
##만원에
언더
명세서
##보단
위임
##투쟁
그곳에서
빛나는
낙찰
강동
경북도
사형
캘리포니아
복호
밤에
겪은
면이
합법
눈물이
손흥
두드
실감
##줄이
##인구
선수를
약제
울트라
스트립
일하고
나머지는
50대
작용하는
##널드
마리아
##증의
##문화를
중심이
인스타
농담
몰고
20만
낮다
구형
##신으로
##경험
있긴
##미니
스킬을
제임스
중앙에
알렉산
불펜
죽여
이번이
블록을
묶어
얻어지는
##etwork
생명의
##환의
간혹
오페라
##코어
##일드
증폭기
처리된
재고
지키기
법이
##연장
감정이
번씩
떨어지고
##시클로
성장할
##환은
평가하는
안다
비슷하게
주파수를
안겨
인력을
##공사가
공조
항생
공격에
격리
편하게
일요일
화해
##대기
창단
초과하는
고난
##들과는
권장
해적
##98
장거리
동안의
부추
2세
넷째
고사
##미네
##졌기
도덕적
적고
##재배
##ull
측정한
많다는
환승
##란한
품고
너의
1시
도가
##락이
정글
##뿐이다
웨어
노출된
로직
예정이라고
장치와
1일부터
##닝을
타깃
보석
수령
##ting
##경찰청
##하길
##부지
말과
##업의
You
생성부
지나가
##게이션
웃으며
태어났다
III
지방자치단체
감광
자리가
내포
흥분
측면을
담배를
되었으며
서쪽
이렇다
광복
청색
그루
노려
형편
농도가
##교는
A1
##전투
폭풍
##폰을
본사
PU
##광고
지극
총을
도착한
몰랐다
키우
system
공헌
아바
떨어진다
##장애인
학살
수지를
탈북
##파에
국외
명확한
이루어지지
체중
모습에
조성물에
협의를
##게는
위안부
화제가
장치로
##창조
기각
준비가
단면도
조별
끝났
살기
되풀이
뷰티
##더의
레스토
저가
주축
메리
인성
##사업이
##ale
첨가하여
알바
##포가
##월드컵
코로나
김선
##ization
책이
압도적인
송신하는
타이거
아세트
본체의
Mn
통과하는
판결을
##주의에
이르면
구조조정
끝나면
챔피언십
미야
권선
디스플레이부
##만으로는
신도
글쓰
충실
블라
벌어지는
##해지
7회
몰입
문명
바쁜
중시
3시간
전국에서
글이
규범
장사
주위에
##evel
북구
##sh
2에서
처리가
양호한
선물을
GP
문턱
일괄
##사이클
솔직히
##만달러
3을
팬들이
##ash
충진
소울
##대구
##텍스
노력하고
성폭력
##책이
변환하는
획득할
3층
##헥실
수신할
##디의
쓰여
##ility
방법과
방어력
사흘
낡은
전면에
##부재를
개장
공지된
##니까요
##함의
##득점
여성은
##ron
소용
프랜차이즈
제거하고
##와도
##기간을
##단말기
##태양
##시설이
출국
반응기
상온
비평
엄격한
방안이
차지한
근거하여
관점
현대중공업
모르지만
말레이시아
여자를
주재
##동에서
오스
확진
실패한
SR
폭로
##해주고
##고객
후기
풀이된다
방수
##견이
##담한
캐시
mod
##따라
비례대표
벽을
크기는
변화의
방송된
##물질이
활발히
건축물
##시대의
것이지
독성
THE
성을
보복
##집에서
We
21세기
사망한
##너지를
설치한
상인
격자
##결제
##는다면
##제3
금메달을
활동하고
중에서는
##처리를
사거리
##버튼
##통제
겹쳐
##절로
승인을
대성
단위의
수차례
##내야
##신호의
나오는데
대행
민족의
않거나
커질
층의
##현장
##데이터를
받았고
과제는
제품으로
상식
##처가
##학에
##창출
계면활성
예산이
App
분석해
망설
##스트의
##3000
출동
##사에게
2기
브랜드를
20세기
상대방의
승부를
닥터
리포
데스
해금
빼고
행복을
일차
이르렀다
없으므로
##추에이터
불렀
##활동에
집전
##크스
후계
고등학생
그보다
##부틸
백제
##작은
판매를
관내
정부에서
##환경을
횟수
물질로
##DC
인터뷰를
##자연
엄마는
##하곤
더러
친일
시리아
출제
군산
##하다며
컬렉
##타수
해병
웹툰
##화폐
스트레스를
IN
중국을
집회
##az
550
학교의
##원들은
##할까
소결
소비자가
##이었으며
시퀀스
##즈키
혐오
##나라의
상류
SF
서비스에
움직일
귀찮
예쁜
##헤드
시청률
mol
전달할
관행
꾸며
보병
침착
아나운
##별한
워드
등록된
1사
구체예에서
우호
발표된
운명
밀양
지역별
몸의
곳곳에서
일반식
주무
도시되어
내어
대입
간신히
책정
말라고
실은
파격
12개
국가를
중요하다고
수색
방향이
들어서는
마음대로
15년
예정된
키가
##업자
거주하는
길에
항산화
##이미드
##하였던
고려하면
오락
추산
##간담
##탄이
1부
##교수
절삭
연평균
보여줬다
임진
발레
대피
알기
##페이트
##ii
##플라즈마
주장은
리가
답을
윤활
##커녕
##공제
찾아온
CG
불과한
말씀을
구하는
##더욱
도시를
아니야
올해의
##편으로
##로만
##화에서는
티타늄
대인
한편으로는
19세기
##란트
봉인
##지원센터
##만원의
기사가
사용자에
제어하기
차량에
그러던
SH
FOR
바라보고
생성한다
함부로
##지역에서
카드가
##ield
결정될
국민의당
구강
자를
누릴
부회장
화면에
다시는
##겨져
안정성을
패시브
스케일
##농도
뚫고
원인으로
인물이다
분비
##인지라
강화하는
개개
부위에
##43
유전자의
생태계
강성
내리고
143
##바퀴
크라
반격
전처리
설치된다
모노머
신부
불황
MM
이가
먹으면
3단계
파주
공영
정합
걸릴
달콤
이력
자회사
공간의
보여줄
IR
현저
##폐기
165
줄이
감독을
매출을
##막에
부상으로
##포의
바란다고
##집니다
##ethod
##졌는데
딸을
가맹점
DP
##주의와
##사업으로
가능해
이례
소금
측면이
몰락
홈런을
##특허공보
활발하게
##사상
국적
가자
단계와
작품이다
경남도
##방은
##주며
##론가
##타자
##하시는
6에
대응할
특징이
박종
노트북
주인이
아르바
##범위에
##아제
다가가
현상은
참여하고
구명
##기부
종결
패킷을
153
##해준
공장을
##두로
염화
옹호
배우고
알림
##간이
필연
설립된
정상적으로
일고
##레지
속한다
##주식
여기서는
빠르고
##카페
쪽은
유도하는
제네
메탄올
##역은
재사용
영원한
##촉매
Mg
상표
시집
##벌이
##더라고
독도
전달되는
어디로
자궁
연속적으로
피라
대동
기습
달리는
##보스
마지막에
공용
##다이오드
명명
##탄의
후진
수신되는
설치되며
벗어난
이화
포르투갈
##안내
의무를
급격한
싱크
##m의
에도
##철이
내걸
이곳은
설치하는
##a의
지사는
발탁
##공에
##곳이
##스트림
##종으로
##류는
로터
##속이
감면
##치면서
##화기
1999
년간
##72
바라보
이경
약화
열악한
##ating
##지니어링
##노트
##눈에
치료에
실력이
##캠프
산란
올해도
현실에
##구축
사랑이
스파이
방패
일회
토로
표본
돌아갈
개구부
위헌
##해주세요
##발로
플로우
그런데도
##보도
둘러싸고
1년간
내재
이뤄지지
사설
##혈압
##마법
집이
승격
앞세워
요소는
해산
상급
##임에
배치되며
김모
열가
대상에
신호와
민주통합
제도가
##혹한
##플릿
##가스를
카르복실
요구가
##ern
우려를
최근의
##상태에
떠올랐다
##동작
평가는
합의를
달라진
우회
브랜
이데올로
##츠의
##동맹
##즈와
고성
네오
범행
찾아가는
자립
지적도
공급을
엉덩
비율로
방면
만나고
##ank
불순물
kt
높다는
확인된
개선된
소감을
소문이
늦은
##저가
##터널
교원
##78
##man
##더포함하는것을특징으로
161
##리거나
보상을
체계적으로
빠졌다
호응을
이대로
추종
##편에서
##브랜드
##박이
2차원
와의
##ency
사서
##뉴스
출시된
##제일
물량
레이트
원시
레스토랑
휘두
당하는
아니었
오브젝트
기능은
3H
##미에
단계로
##각의
품질을
##반이
불만
전과
대출을
치킨
##극을
온다
##하늘
##봉을
강좌
관리에
사마
##단체가
논술
Be
않았기
##금액
경보
의미의
저의
##준이
인재를
##NB
갑옷
자랑한다
자체에
입력부
acid
프로그래밍
선교
유관
자료에
제16
시절의
설정하고
##자다
스카이
000원
요양
한중
같지만
길로
##추가
9는
거죠
싶다면
세트를
황산
학생은
회로는
맑은
측정할
블레이
돈으로
어색
맞다
일본어
절개
##스크린
##마루
측정하였다
터빈
범용
##렸습니다
있다면서
다닌
##시키거나
BMW
아저씨
별개로
박사는
예쁘
Ele
##약의
연쇄
열릴
Kore
##rid
함정
아메리카
크로마토그래피
벌어졌다
일과
SN
아카데미
##방식을
성실
확보한
주목할
뒤집어
##2천
씨앗
##았기
전극은
주의를
등산
해를
rf
국경
##콜릿
중학생
수월
##모노
피곤
각오
표명
만들어야
##선형
급식
구조조
문화체육관광
주차장
##수급
1970년대
재질
지름
계단
##EA
구직
##환자
건지
작업에
옆에서
##결에
모델이
많지만
##츠는
##px
##마스터
압수수
쇼트
전염
삶은
폴리올
상자
##들에게도
이론적
일본인
때를
대학을
##평가를
근거가
더이상
단계의
힐링
출연한
농도를
부품을
준비한
알리고
일제히
일시적으로
납득
부여하는
##결이
신비
법무부
곁에
방침을
치솟
절실
행정안전
##센스
해결하는
관능
헌신
##본체
근본적으로
바라보았다
##아지
마늘
경제를
##기며
##파워
세제
##스트는
적시
##역과
랜드
##주의가
상태였다
##가정
이집트
조금이라도
##ative
수험생
##연합회
재검
##ech
##천군
손해배상
Ca
##협상
사업화
왠지
생각도
##스위치
민감한
진압
떼어
동방
급등
스팀
모리
팔레
프로파
행동이
##교육청은
역사와
체제를
고립
530
발송
오스트리아
실시예에서는
나중
사도
해준다
음이온
##ream
##가리
어디까지나
너를
후지
##스럽고
못했고
재미를
##기술개발
투자하는
주인공은
##중합
자이언
발로
1998
피부를
계곡
확인하기
딸이
우린
##테일
중형
눈앞에
##IF
##ctr
##되어서
cr
##계통
##경기를
볼넷
감소한
##eed
패러디
##키퍼
복무
수명
타율
CA
##제어부
억지로
제기되고
이용하면
고정되는
아닌데
고민을
냄새가
값에
##안과
버섯
포기하고
ag
문득
말해서
리모
입자를
방탄
중점을
제공해
의견도
온실가스
##센티브
중국인
출연해
구성은
하남
마비
##안으로
시프트
##는지는
증가한다
헤이
##민과
레어
심층
인물로
##더를
아니라면
필수적인
##커를
발음
처리에
보고서를
감지하는
허가를
밀도
실수를
소문
##응답
206
말하지
밀접한
대가로
은폐
만만치
##시에서
##내어
입맛
교육이
2개월
글리콜
손꼽
호르몬
단호
##경쟁력
남동
3조
##정책의
증식
놀랍
변화하는
지루
##뉴클레오
자기를
연결을
유비
한은
기기의
##했어
##먹을
기업들은
리모델링
즐겁게
판정을
홍준
그림자
146
획득한
##작업을
가스의
바꿨
##나이트
불과했다
잘하는
##설정된
신혼
He
##본부는
##OW
##업체인
공개한
Sch
##인사
##열의
차가운
아직은
후술하는
넘쳐
쿨타임
##토는
걱정이
##기게
Ed
미국을
전투를
협약을
입는
그것의
재밌
유희
법조
브로드
합산
많을
성우는
1등
랭크
##브로
##EN
처한
##롭다
##퍼런스
ind
가득한
##시설의
죽인
개발해
sub
브러
아오
조선일보
돌아오는
##row
Sn
엘리트
중산
그대
적용을
6의
1승
마련할
스타트업
삼성은
##움에
장미
피하기
펩타이드
##반에
홍성
하프
인터넷을
인명
유승
##버스터
쌓여
##중독
경찰청
팬들은
##채권
##토론
하이드록시
상징하는
이글
세력이
발생을
단부에
결정된다
##6000
6천
SUV
종속
##키아
##이루
조류
원리를
인천공항
##한다며
##무장
##잡이
선수들은
가리지
##1은
카운트
기절
신사
증상
##TP
무엇일까
넣는
물질은
나노입
이렇듯
음식물
방문객
여기저기
검찰의
폴란드
인류의
누군가가
덕분
주변을
현저히
그곳에
비교할
친절
##퍼레이터
심해
주방
MOU
##주에서
##시행
40여
유적
휘도
버튼을
펼쳐진다
##식물
생각된다
확대하고
임용
강조하고
우월
노동조합
샤워
##공화국
##불이
##명에게
양보
1997
##주의자
##카보네이트
안을
##상부
##행동
과태
전월
제17
공급할
스트리밍
##방전
##행성
##교과
할아버지
지원에
박물관
열가소성
##활성화
개별적으로
소나무
직사
휩싸
사모
사나
김준
##의의
아세테이트
##타와
##폴리오
늙은
국산화
##로니
OC
낸다
구석
김주
개시되어
##비행
원활한
기관의
호수
숨겨진
여건
삶과
더미
##병에
##처는
해피
##초의
좀처럼
압축기
##암의
망가
강렬한
##스프링
몰드
##놓을
##echn
칼날
해보
우리도
감히
리셋
듯했다
##ular
추출된
물성
만기
북핵
내년부터
어째서
##능력이
유나이
역동
기증
전력이
설명하면
근거를
클라
적자
##문화의
##구니
##실리콘
어이
세계가
##작품
나서야
##ise
##스텐
자신만의
##스트가
전쟁의
꼽히는
전선
이인
내기
때에도
행동에
실적이
격벽
재조합
추가의
표시부
발견한
잠정
설치해
상품의
이유도
Dr
구성해
실링
판타지
곳도
행태
##도도
##오픈
전기를
받아들일
적당히
제시된
##담보
기초한
수상한
Le
##ade
내측에
닮은
Ind
영문
사슬
##냐며
쫓겨
##티가
하는가
대상의
이용자
중얼
##슨의
선거에
##디에
면을
한숨을
##르코
##카드를
lt
자격을
신재생에너지
행위가
공정한
##내려
##화해
프로파일
마련하고
아쉽
시절에
공백
##집단
약을
한우
인센티브
부풀
##선생
##와이어
##캐피
측에서
모델은
돌이
끼고
##약이
블로
참전
Mo
낮고
제한하는
꾸준한
캐릭터의
가지로
##급으로
그렇기
##지향
교육부
교훈
R2
독재
##파와
때만
PA
건드
횡령
##led
하필
국회에
삽입되어
전적으로
##out
뭐라고
더더욱
그거
파일을
액추에이터
##촉진
##스위
3분
합리적
말입니다
##86
플레이를
메톡시
##신용
돈은
오케
1기
편의점
추출물을
결정하기
이득을
##사나
압착
단어를
##4000
PB
##OF
##국장은
여성을
종전
내용이다
##사정
부친
##방법에
공보
일본을
##증에
부분이다
화장실
전환을
사랑에
날을
문이
개인적
달에
확보하기
박탈
기후변화
##책으로
충성
발명에서는
인간과
보너스
잦은
오프닝
마운
무릎을
주제에
##줄기세포
제1차
마련됐다
함량
대표를
자세로
영유
대부
대도시
새마을
##oint
##진보
운영한다
##할때
작게
P2
##마와
모두에게
놀란
송파
단절
##rap
상해
정치를
클러치
##철의
요인으로
슬릿
##원들의
패터
전투에서
##목에
##간격
제4항에
1루
상당의
강조한
he
항복
##저스
##걸이
##이지요
엉뚱
10년간
멜로
걷어
아버지와
올라온
시민사회
삭감
있어서도
2년간
##듯한
유사하게
##이익을
듣지
##주의는
일어나지
##히드
경우와
취한
날카로운
앞당
분광
가정의
돌진
##활용
시흥
최선의
매진
왔던
살아가
길고
기술된
바쁘
여유가
사정을
이뤄졌다
배출되는
DL
사용했다
디바이스는
질을
주기적으로
언론의
아랫
##버릴
개발로
죽이고
##분류
나누고
민선
획득하는
초창
내놨다
지난주
연도
상당수
포스터
제한이
##러드
농어촌
##저리
개최했다
##건설은
아끼지
HS
그라운드
집필
흘러나
접촉하는
선수로
##것은
지원해
멈춰
BC
인구는
시작되는
활용될
플루오로
##발표
뇌물
안쪽
산성
am
##놓는
첨가하고
구비한다
챌린
##되었습니다
저작권
신선한
휩쓸
##yd
구현할
없었다고
1995
중요하게
바꾸어
접속되는
하우징의
이광
비추어
시선
신기술
##증은
정하고
##래를
청취
##촬영
가다
도입을
전국적으로
회로의
깊게
잡음
핵산
##통일
결정한
수상했다
민주노총
나라는
투사
화상을
천주
##었는지
공룡
이치
싸울
##저우
어휘
차트
방을
불참
440
##무지
걸렸다
산업통상
자진
Trans
센서의
##곳의
##유는
캠핑
기용
무리가
당시에
##로오스
주위를
세일
##이름
##브를
이용객
싶을
면허
자고
##76
매출은
직원들의
##8000
구비될
투입해
무단
이번에도
강도가
초콜릿
컨베이어
처녀
취할
현탁
##부장관
간절
루트
친구들과
톡톡
돌격
10억
50여
어렵다고
컨텐츠를
쳤다
존재하고
아야
스페이스
압력이
##후군
못하도록
사람에
직장인
작성한
전장
##프와
플레이어가
모두의
갤러
##노스
##주군
영화가
침대
##받게
감자
##저를
일산
ed
중세
행위는
놓았다
지분을
박원
##메가
흥미를
흑인
##이어야
들어가면
##분석을
동남아
##하겠
##제거
5억
주민의
시카
##ision
##롭지
부재는
기업으로
묻고
한명
라디칼
폭염
##전문가
##측이
소비자들의
기반한
답변을
천안함
##ION
##릅니다
건물의
302
웃는
악의
##르면서
고려대
156
수율
##네스
러시아의
지시를
있느냐
사진이
보아야
##79
일선
##조한
rec
풀려
##과장은
습관
4개월
##예정
##속도가
##린다는
경향을
본원에
하이드로
때면
공소
정형
주자
플러스
방과
SA
이뤘
모방
인스타그램
##재정부
실존
##교도
거북
마련이다
750
굴곡
화제를
본회의
##하기에는
단점을
미성
지역주민
회의에서
##경기에
혁신을
##더라면
인슐
표현할
일본과
아냐
##비용을
##함으로서
온천
138
안정을
KA
살던
장시간
가이
스탯
##차와
제치고
제도적
의원을
수익률
등재
되게
상담을
업링크
저장하고
##라기
요즘은
이현
##작이
301
##그룹이
##물인
오렌
주제를
정리해
프레임에
##다졸
넉넉
##메이트
적폐
침전
입점
도입한
연안
박찬
해임
먼지
조상
현실적인
설탕
##받기
택배
공사가
바이올
##타에
지체
녹아
이노
##공은
이하에서는
예전에
결정이
받았던
정권의
구출
##페이지를
CL
##찰을
처음엔
것의
벌여
꽃을
불합
격파
환자를
특허청구
조화를
##벌을
거꾸
최순실
구성이
모른다는
311
심사를
##son
기업인
대답을
대구경북
##사리
소아
변해
주둔
테라
분석하는
type
네트
메디
##송신
될까
##릭스
##빌리티
따라서는
뮤직비디오
이보다
듣기
수준에서
선보일
##과대학
쉬워
프로세서는
친척
##해석
육박
231
발산
버린다
보람
온도는
##세력
이전에는
평화를
많기
치명적인
출자
서비스는
양이온
전승
##이라고도
남편의
극심한
격투
gt
##초에
막강
제18
넣었다
이끈
C3
##수리
항원
것과는
유우
반란
지나가는
구축하고
동북아
비핵화
HE
내려다
us
확대할
##GT
참모
패스트
언론에
정정
가지를
마신
비롯하여
우위를
하려는
타협
것이지만
설정을
##1000
##mun
효율성을
골키퍼
좋았다
쓰러뜨
때문이
부르고
분주
##효소
산업통상자원
가로막
페놀
고부가가치
##버드
이미지의
분담
의문을
##사기
위치와
##극장
원통형
정부를
짐승
##ervice
##준의
통상적인
보호하는
신학
공동주택
다르지
학문적
##레를
수행되는
공립
회상
##연에
쏘아
선택하여
폴리우
긍정적으로
불안한
##3천
차이로
전액
블루투스
반응에
지중
##제국
장소를
모호
고용노동
입력을
드문
나오기
대수
##성에서
있음에도
권유
모드에서
행적
끝났다
돌렸다
##자격
중증
느린
##빌딩
자체적으로
불편을
아니기
하락했다
모스크
아토
##운동의
노리는
양상을
기획재정부
공급이
11개
강의를
많다고
##다의
패턴은
##기타
214
##경찰서
대표와
##걸음
##OA
도시재생
대표이
무늬
##손으로
차관
전지의
시행령
##더링
입국
체력을
당하고
귀가
앞으로는
심각하게
제조한
시작했고
##명령
아래와
민사
##티는
유죄
##다를
타락
달러를
##병으로
영주
여름철
국민에게
앞을
위치는
##리케
##마일
##신호가
분야는
##cr
##추는
232
장려
학생을
확인해
##비전
##들처럼
말투
##오면서
물체
계획에
인산
시작되었다
전류가
레벨이
##했듯이
##eter
불만이
군대를
박주
##적이라는
##무늬
##이었기
직결
이격되어
##경로
ON
PH
##었어
질적
차에
데이터와
Str
스테인
우선적으로
적다
프리미어
아래에서
##업체의
공수
구하기
던진
시청자
##양은
S3
Sm
최고위원
수요를
내며
대체할
경기장
활동하는
##기업이
원활하게
냉장고
차고
그러고
크기에
일기
자동차의
##들까지
국무총리
부총
모델의
조건은
소성
어렸을
##번의
우대
##자성
방안도
명백한
##마케팅
모조리
키를
##커의
직전에
##전지의
준우승
받았다고
후유
모금
풍경
##테랑
간판
##atch
홍준표
목욕
떠날
파산
걸까
앉아서
선거구
##사관
당국
##복이
표현한
Mod
##목의
스퍼
베를린
웹사이트
트윈
커패시
##푸드
변호사는
교회의
구비되고
무게를
동기화
기피
##여름
##점인
장교
##그리
도입된
표시할
저장할
##적어도
총리가
##파괴
은혜
영동
에이전
##했으면
##화상
사랑은
##슨이
최고경영
##짐에
##세기에
엘리먼트
돌연변이
선점
##분과
서정
4인
박진
##화장
앉은
연루
제19
Inter
##발전을
봅니다
##면허
##씨에게
제한된
##제도의
아산
보호하기
경호
사랑과
맺은
멀쩡
부식
창설
##이었다는
##박물
##디지털
강구
산을
귀여운
파이어
##56
딜러
마시는
그늘
서열을
풍요
걷는
교육에
노부
선택적
실질적
##페놀
동호
지냈
구간을
프로그램으로
바나
##레는
설치할
잃어버린
인코더
##현을
##감시
안정된
없었지만
공격력이
빚을
되었는데
##카운
##창업
##ae
무사히
포획
줄곧
하우스
이론을
교실
수만
유전자를
##이기에
특집
상승세를
똑똑
언급했다
향상에
##님과
근원
##하이드로
씨와
DA
##당해
제기한
재킷
일체형
거리는
선언했다
##7000
CO2
외부에서
아쿠
페널
15분
나라에서
MD
##번이
##초가
##휘발성
요청하는
##디스크
학생부
##타리
종합적으로
작품에
일주
여론이
하야
동아리
병원에서
##lic
이후로는
##하진
줄기
용액에
##원칙
중심을
##민주연합
상금
7만
##베리
노선을
##방법은
산업용
RE
어렵지
세계로
위함
##배가
##노선
초기에는
##하자마자
qu
준비해
##토니
든든
프론
##첨단
##위원회에서
##계산
##홀에서
##시각
일어나고
마련되어
##기간에
국가에
바늘
##바디
##투수
감동을
스타일을
##값과
아내의
대부분을
미드필
##블럭
클록
##에스
##에이
속속
OP
선거를
조건에서
대사를
비해서
급성
설정할
형질전환
채팅
일으킬
##출산
늘리는
프란
소리로
국가와
바라보며
추정되는
금융위
배기가
밖에도
##대통령
높아졌다
불안정
맞을
서면
파이널
##나서
1986년
어머니를
유머
##온의
올스타
지났
##플래
기능과
리조
학교가
##적이라고
##메이크
거꾸로
강사
연장된
세력을
올해부터
손바닥
뜯어
이동이
##적용
외국어
던전
##DD
초점
##연구를
서울특별시
##퇴근
살아있는
라틴
속이
맡겨
##ail
이곳을
1위에
천공
소속사
##병은
실려
얼어
내부를
##96
에너지가
낚시
검을
연인
##보닐
간략
꿈꾸는
달래
편안한
주목받고
콘서
카를
제동
액정표시
##너의
연락을
강서
##코팅
공유하는
도시로
시절부터
모양이
구성으로
인문학
##자에게는
서울시는
##전철
너도
정반
남지
##저의
결국은
전송을
성폭행
않았습니다
잘못을
마법사
형태는
프린팅
호칭
띄는
번이나
##숙이
나가고
##시장과
여부는
매뉴얼
비어
운영할
디바이스에
16개
장소에
없이는
인트라
##자라는
귀환
성추
동경
속을
제안한
원자로
바다를
##구조의
우편
웨어러블
성공할
순서로
##디언
환경의
##연속
애로
이벤트가
이용하고
184
자에게
자녀를
간단하게
##IL
막판
스페이서
작용할
보인다고
난이도가
당진
위를
12시
1996
##계좌
일각에서는
계획은
사소한
서울에
##움의
얻는다
판매가
측정을
결속
기공
##다니며
싫어하는
양방향
##클리
##보라
유익
km
##유키
임플
너무도
##청과
옆으로
##값의
다닐
현실의
맛있는
햇빛
##티의
##심에서
이별
기능에
##품으로
공간에서
지냈다
심지어는
로버트
활성화에
L1
열풍
선수의
파이터
예비후보
##렸는데
대표적으로
얼른
다채로운
AL
균일하게
##무성
서버에
전송한다
##지지만
BB
총체
슬래
도주
모양으로
재학
심상
바로잡
기간은
달랐다
time
##일지
표현이
종자
가져야
그룹을
명에
##역량
금융당
가지가
시스템으로
검거
곡선
끼움
##입을
효과도
비전을
포트폴리오
지방족
수용하는
##RT
크기로
대응을
애를
결합한
##하고는
노하우를
##수출
2분
조형
산다
##시간은
청렴
PCB
전경
col
##석과
제갈
카라
소폭
능력치
##청문
##기면
유격
##gan
소프트웨
불포화
루이스
비콘
##업은
루이
손상을
기밀
##림은
단백질을
##산업단지
##53
밝혀진
USB
특화된
크롬
되었다는
영등
부위를
##커가
폴리비닐
두뇌
하셨
##대한민
##럽고
##엔진
우즈
진단을
제거할
카나
##판에서는
게이지
다이아몬드
##중계
목사
전용면적
##ject
착색
버프
##심리
수직으로
제5항에
아내는
여전
LG유
호흡을
증가로
사제
광화문
##으려면
두어
##거라
케이싱
그제
바른미래
4를
통하는
off
처벌을
화제
1년에
확정된
For
##형상
##언더
머무
양적
환경부
그토록
##학력
사교육
가설
##율의
아파트를
##지역을
항해
##4천
되어서
##지점
##품종
##크래프트
현대자동차
JT
몸으로
30만
떠났
핑크
312
네트워크의
5위
모양새
경제학
만들어낸
미끄러
발광소자
##어머니
완료된
불어넣
돌고
종단
어마
대회에
살이
신고를
##있었다
살리기
해당되는
##52
짧게
##밥을
독창
놓아
Mar
##아와
목에
2위를
멤브
욕을
나뉜
6000
가뭄
보살
레전드
내놓았다
치과
##감치
약속했다
발자
##cc
몸은
싸이
농산
##연수
입출력
해양수산
건강에
##개에
##oph
알고리즘을
대학에서
전두
##여대
나타나지
원칙에
##erg
##무의
주민등록
방제
보일러
##소시엄
my
마을을
졸업한
##자문
고품질
공제
판례
EM
국가는
##eng
윤곽
이사장은
##보게
##빈은
추진한다
##소유
장의
부문에서
불쌍
구성할
##구리
파지
강남구
2022년
거제
느낀다
토마토
비단
##처의
유가족
##인지는
##구치
않겠다는
##질러
버릴
용매를
함유된
틈새
##손을
##ms
대고
##str
as
대용량
유물
부가가치
원자를
변하는
사직
기록하는
내놓고
선착
##들이나
날아가
캐소드
##다나
여러모로
리브
##츠가
정책은
학력
유재
##망에
종교적
구조와
플랜지
균일한
##작으로
비행기
대검
슈팅
##졌습니다
구슬
세분
개선에
책상
작품으로
도널드
확인했다
트리플
##제로서
했기
수행하였다
철근
##EX
병을
부양
##느니
gl
##화학적
기점으로
값으로
타인의
##ool
10은
평상
최적화된
시민이
통영
이루어졌다
실전
GT
##우면
반가
낭만
##이었을
길이는
코트
고혈압
가져올
과도하게
시에는
##단계에서
환기
탐사
##우스의
효과로
실시했다
Mult
##훈이
해줄
박살
아니한
##변의
사업비
나무를
620
##전부터
이완
여기에는
이밖에
전화번호
요철
##움은
##휴대
광범위한
원화
##통과
50만
건물이
이산
미립
손잡이
대안을
2a
한눈에
겨울철
부당한
비웃
부품의
연계해
##도서
조선시대
조율
경험과
제어에
D2
가리키는
봤을
조직이
내각
초보
##으라고
박상
여부가
포함돼
##신에
처형
컨택
##자금을
##케미
##라이브
##벽에
선생님이
Te
맡게
죽일
명은
7천
4배
주요한
광전
시기가
성범죄
노멀
##아동
쿠키
나쁘지
산업혁명
##삼성
##하기만
균등
다큐멘
세기
만료
거라
재질로
##애를
1a
물과
휘말
길러
##ener
평가다
급히
살펴보고
한번에
느껴지는
##레가
##린다고
아마존
차려
에어로
출사
1970년
공정이
건전
대미지
##급한
휘발
구조물의
수산화
칼로
생성하기
사막
지사
생성하여
핵심은
인접하는
부속
강정
싶습니다
교육감
세르
여성들이
##추천
다운링크
##시험을
시작하였다
##종에
사면
박태
200만
우아
##킹을
##찌감치
돼야
수지의
뉴질
막혀
남아있는
선보이는
번호를
점유율
없으나
##국어
##거리고
뜻은
얼굴은
인정하지
유지하면서
##하자고
높아질
장착되는
거래가
##산업을
##벤션
의원과
총장은
박물
전구체
지극히
시간도
시스템과
위해서다
팀에
성질을
대향하는
노화
뉴클레오
분석에
숙련
파악하는
조언했다
집어넣
mult
Wi
은근히
처리한
주장에
돌출된
죽이는
##웠고
단정
##볼트
맞닿
요구한
볼륨
창의적
##더가
호환
##직업
운명을
사귀
수용액
사단
7에
데도
아마추어
##ept
구두
한복
기질
213
국도
일할
커서
제2항
지킬
실어
172
역사는
200여
석사
##edia
명으로
결합되고
기록해
폴리펩
##ETH
흐름도이다
##쳤고
식별자
##물리
출력된
작물
1100
하나만
갖다
교육은
실습
##주간
글래
##중간
최우선
갇혀
생략한다
배추
식품의
##동원
외장
절차에
채소
그것에
쥐고
##확산
본인도
찾아야
모양을
필터를
분획
181
주조
1994
회귀
같다는
유럽연합
개혁을
하였고
순간에
친구를
##중에서
##난을
플레
베테랑
##오면
연예인
공정의
참사
과제로
나뭇
발견할
카즈
도래
믿지
회사에서
방법도
맞붙
하겠다는
패터닝
벨기에
추경
비하
스크류
달성할
높다고
지워
##기관인
##기준을
##노의
부산의
분석하였다
흔한
##igital
중소형
스케줄링
입각
3으로
아줌
위원장이
##부산
##문서
NS
대명
저렇게
광섬유
옮긴
경감
마라톤
1군
면담
##57
micro
고정되어
이면
추가되었다
달라진다
이세
방사능
남성이
##오던
포함하는을
자연스러운
##것으로
자란
않더라도
##체스터
##주입
위키
정체를
알콕시
1세
바뀌는
171
밀어붙
간접적으로
구멍을
우량
##서블
독자적인
딱딱
그렇고
재능을
20개
담았다
##과세
동작에
##ife
##co
휴게
대통령령으로
변위
슬레이
1985년
짐을
##등장
##ans
##해의
Jo
##구매
상승한
아시
##레스테
먹지
좋지만
경계를
일이라고
재차
게임에
질환의
작곡가
2사
역사에
속도는
##6천
저항을
감탄
4억
재료는
강화해
##점이다
##하였다고
정차
Intern
카메
15개
영세
일조
##51
슬픈
##유공
관통하는
거기다
불리한
생각으로
물은
미뤄
문서를
생활에
##width
유방암
치료용
포위
##더는
##게요
##네가
접하는
##나기
억제하는
##개정
##여객
친구들이
본다면
##래의
스토퍼
금융위기
##pm
##경제의
비난을
여동생
장이
주신
##인가를
##지원을
저축은행
확보하는
흰색
##해왔
판매한다
감사를
##독립
드랍
제6항에
했었다
교양
##찬을
공격하는
개방된
##일기
바이어스
인내
익숙한
수용체
500만
바르셀
감사의
일간
178
예술의
심도
##겠지요
관제
##이긴
여권
병원을
누설
증가에
방으로
##센터가
만드
받아서
##과에
무기로
129
양질의
한국형
올라가는
##정상회담
과의
메시지가
##포구
훌쩍
가방
성막
##58
높아진
AK
연구결과
인쇄회로기판
폴리우레탄
주역
업무에
점진
##광의
법제
##운이
금융기관
행위에
가늠
##님께
생산된
말의
피에
##변에
믿어
체결했다
여파로
##자키
공론
이것도
##고사
주의해야
현수
김형
끈다
##업체가
##아무
펼칠
연계한
4시간
사천
모습도
맞물려
기록은
전송된
지도를
드러난다
취하고
제공한
그립
신호전달
같아서
사례는
##히게
##온을
##르르
T1
##감한
매직
##택을
효율적
##주파수
해리
방통
유령
S4
구매할
야스
열람
피치
살아야
조사에서
##라고도
느끼지
제한되는
##이팅
실온에서
전극층
에릭
삽입된
도청
일례로
커리어
##8천
선명
##종일
인플
달라는
##심판
##맥을
회전하는
치른
혼란을
성과가
명성을
##그레
시속
때문으로
마루
하려
##스에게
마츠
동의를
##지역으로
쏟아져
진지하게
로비
디바이스를
가르치는
별개의
아들의
매크로
##길로
시작하여
계열의
##농구
##ike
##연하게
##inal
조언을
밸런스
##TER
남성의
##ignal
표정이
전시회
꿈이
버스를
##기소
조롱
구독
유무
##파이프
##됐을
가져온
변성
것이니
스노
할당된
위치의
다리가
밤을
동계올림픽
전극에
같고
##나지
##오기
배분
개념으로
깎아
성균
##후가
사회는
기판과
##나타
##이노
던지는
대통령에게
di
기재되어
도광
편리하게
견딜
실시예들은
근무하는
규정이
이끌었다
that
다이오
##처에
세트의
경제적인
회장을
##든다
하반
시세
##아르
미만인
휴식을
측정하여
역할은
out
국부
엄마의
면모를
##증폭
메르스
수광
제제
국가에서
민주당이
시멘트
650
제목의
조제
##해결
효과에
##소형
주변에서
은하
다툼
레저
##전압을
##련을
부부가
대역폭
보여주며
불투명
새정치민주연합
지켜야
##reen
##play
끊이지
40년
지지체
끊어
##urn
##훈련을
순서대로
기준은
클린턴
해독
능력과
마이너스
현존
예술가
시크
##커넥
##성인
비결
재학생
##업계에
##노즐
왕국
보험료
오세
##1천
함은
##비도
올해로
인식하는
무대에서
저널
저주
##저런
본격화
대책이
의장은
이어가고
##메타
##금에
##RU
선수들을
##하겠습니다
호평을
##con
##흡수
레알
새삼
어둠의
아무튼
NPC
##64
##보이
많았고
특성과
촬영을
반영해
그레
그치지
병력
장기적으로
외계
서빙
가문의
##yr
뉴질랜드
짙은
##기능성
심심
칼라
라면
애노드
타당성
목적에
자생
정체성을
뛰는
의정
##mb
##피니
쪽을
꼬리
접속되고
##야는
검출기
강력하게
##근무
판단했다
알릴
5초
기설정된
br
나라에
블록도이다
사업단
##직에
몰두
밤새
182
부평
돌봄
핵실험
효율성
출퇴근
##VA
피터
5를
##타점
의상
않으므로
꾸려
마냥
##보유
2가
##협약을
밝히는
소비자들이
암시
##오와
이씨는
후임
크다고
##evice
정식으로
So
##퍼센트
생육
슬리브
영장
하여야
##유리
유화
동아일보
SOC
##히로
방사성
재빨리
위험에
점과
봉쇄
방한
##스케어
그래야
소독
주위의
폭주
지지대
앤드
저기
##olution
않았으나
##etic
매장을
KCC
스토리지
설정이
##3의
모터의
서류를
하트
적층된
##레의
돌아올
군사적
관리자
오라
계시
비용은
아이러
과정의
일치하는
관통홀
설치될
총기
##매치
청사
신년
##ton
김장
급락
병합
빅토
소요되는
지원하기
##석으로
북한을
장면은
복조
전달했다
없이도
연습을
영상에
텍사
##당할
복합체
요리를
환자는
148
마음껏
파크
사인
##자책
온통
김윤
##PM
저항성
이익이
LD
##운송
##있을
도시철도
##수송
재임
최경
go
##갔고
주문했다
외로
가격으로
원래의
##세다
하하
산악
##돌아
바꾸고
부분과
잊어버
투구
괜히
송풍
##님께서
내년도
공명
왕자
지을
##atic
감안해
강화할
경제에
##점유
인과
일반적
##다보니
끔찍한
붙인
##천을
알려지지
##되어있는것을특징으로
설립한
조치가
대대적인
종일
##사단
##작전
인입
경쟁력이
좁아
인사청문
던졌다
공학
날로
##ery
Univers
코믹
##7천
다수개의
추방
##하였습니다
언어를
전남도
기대가
서방
커졌다
힘의
다시금
전복
비춰
로부터의
##점도
동작하는
##들에겐
결합될
무리한
거라는
청와대는
원조
수준인
외관
출시한
플랫폼을
거는
임피던스
양반
수행한
진흥
히데
도와주
실린
양념
중국어
정상화
UI
2D
제어하여
취약한
##마스크
앓고
키우고
##행사를
환경오염
키스
개선이
신은
시원한
브레
정해져
##ETHOD
수준은
않겠다고
최상의
중추
열전도
##때는
요구되고
8만
##빈의
편리한
해저
종류에
하차
보이기
연속으로
##야가
일컫
질서
이창
164
성명을
강철
패널의
원산
불구속
가지의
TFT
사토
혼인
시내버스
회생
플루
염소
기자간담
돌아갔다
2번째
안돼
마을의
웃고
억제할
사물인터넷
##공동체
사건과
##상가
하려면
쓸데
생각하며
##외의
##들끼리
재편
팽팽
일부에
국내에서는
개념은
##터링
오키
인위
##ext
폭격
지켜보
##실점으로
나서서
해운대
제도의
유닛이
홈페이지를
##언론
흐름에
연장되어
조정하는
차단하는
노리고
외래
3a
##버섯
남편은
공허
현대의
흐름이
고강도
법의
극한
벗어날
부르며
걸린다
##체결
##원장
##집은
치우
정도이다
항목을
상륙
평가할
##oad
강조한다
피해자가
변경을
누나
##수인
8천
##표면
스테이
5번
폭스
아미
##만큼이나
마모
se
환산
##조의2
##기둥
수득하였다
각국의
이차전지
기아차
1라운드
사과를
스마트폰을
##수영
좋아한다
잃지
줬다
##수당
##청정
판독가능
Vol
##협동
심사위원
좋다는
만족하는
협회
2호
발견하고
##정부가
힘은
동조
토요
##기용
##족이
되었던
업로드
리소스
##af
못하다
한도
리메이크
탄소나노
니콜
섞어
의미다
##결승
그룹에
데미지가
견고
주며
못했지만
유포
조현
##현황
##국제공항
넓게
##자면
동물의
평일
##지식
초고속
전하는
홍삼
떠오르는
##락의
발휘할
##제인
##유예
데이트
가문
넓혀
##지정
메이크업
과거에는
르노
마그
골프장
소액
견해를
RO
##테리아
EBS
##육성
강호
적용이
번갈
다양하다
제7항에
형성을
지점에
중년
##록을
힘들게
부회장은
##혈을
눈부
미세한
메시지는
받기도
가리킨다
해지
소수의
출마를
구비하여
##연구원은
고유한
광장
전까지는
아닌지
제한을
수용할
IV
해석을
동력을
과천
9년
##LA
구속영
##ild
WO
산출하는
어떨까
##ICE
137
##RAM
710
##탄성
낮춰
##회사가
미래에셋
꼼꼼히
없었습니다
##대고
스티븐
##대리
##아도
감소하는
아케
we
졸업하고
엔진을
폴리프로필렌
학교는
광의
있겠다
이런저런
세븐
조영
##미세
##임의
넘은
##팀장은
추진을
##셀러
초에
소자는
배경을
설정한
부시
##증으로
All
##라니
백인
재판을
##리기도
사적
코코
찾아와
기적
래치
의원들이
미드필더
##보전
##가면서
두었다
실시하였다
게임은
동작이
사원
정동
백라이트
알렸다
집은
각도를
머물러
##클러
##사업자
예로는
길어
악몽
S10
이루어지며
군주
마을에
끄는
크루즈
##2018
체납
법에
##녀가
##법률
먹거리
양평
설치하여
가스가
제기됐다
감속
상술
마른
정기적으로
전략이
궁극적으로
케이크
카지노
##노인
수록곡
리스
정의당
안정적
가치는
도움으로
밑에서
158
확인되었다
고려해야
안에는
플라이
글은
적법
##2019년
이색
터보
성장한
태어났
우세
##창의
분노를
제거하기
소설을
##스틴
실패했다
촬영한
##체제를
1960년대
##bs
일찌감치
바뀔
쪽에서
##산에서
퇴출
권총
목표가
여인
죽었다
##시드
노조는
##길은
##정원
##투과
운동이
World
##mL
솟아
말자
쓰게
과거를
##변화에
진행해
변형이
정권이
부직
넘어선
낳은
일부의
계신
삼성의
##모스
B2
##명에서
그랑
##시키는데
##너를
##메톡시
미처
KS
구비하며
이만
상대적
김명
##크라이나
악용
구부
삼성물
시킬
교사의
소통을
IF
159
매력적인
요건
##성적
연일
각국
극단적인
##NC
간이
눈동
##처벌
##이디
한정된
인정할
CB
##머를
보고를
발전소
신공항
말부터
720
하기의
것임
처분을
하류
접점
##이나마
시설이
죽기
장기적인
##훈의
##부재는
이야기다
개인적으로
징수
##글라
발전과
소망
보조금
너무나도
치수
##례가
##밸리
학생들
현장의
10의
질화물
기본으로
##집의
유감
기관이
##agn
원숭
##시스코
리간
고래
실로
정시
데이비드
지친
수감
168
OST
##세인
미국으로
요건을
수원시
열리고
그도
그로부터
단말기에
경제성장
##틀랜드
##검을
그래프이다
이어갔다
부응
에르
싶어서
##지던
됐고
졸업생
팀장은
해명했다
가끔씩
Part
반입
##질에
신상
연구와
##운을
성장이
215
거짓말을
백두
접어
##연계
tert
표를
울려
##이하
답이
측으로
##르를
##바가
하늘의
자격이
지난해보다
올라갈
패치로
선정해
int
일렉
Ig
벌어지고
De
늘리고
과열
유학생
누구보다
행동은
평소에
의미와
위원회
##운의
초상
캐릭터로
As
현황을
##ule
##way
183
##부착
이하에서
찾는다
##ric
획득된
##삽입
역할에
양측에
테두리
국가적
##운동에
창원시
행성
명령어
변형된
세월이
자금이
높을
##나들
지역과
얻지
마법을
남자를
포집
톨루엔
##갑을
조사하고
##부동
사업장
발생하여
잠이
교반하였다
목이
그것이다
유난
의도가
최장
##균형
함양
공급된
감독과
탐험
정신과
이룬다
무승
하기로
불빛
치안
접한
일어난다
카드의
##겠죠
##과정에
조합으로
친한
PK
극복하기
PET
##사원
들어가서
나열
넘버
##ient
##화합물
유교
##달러를
저소득층
건전한
소각
입문
나오면서
방안에
프로듀서
##이요
폭으로
크다는
지속가능한
##균의
##2020년
고안
##공무
1984년
##항목
3당
인텔
사용에
압수수색
숨진
개정안
##압이
버블
G20
창고
163
##정보에
무언가
등기
해준
##와이
선생의
##링이
##그로
조심스럽게
못한다는
이메일
초대형
김유
문화와
인조
죽지
조약
##겨운
둘의
제공하며
변환하여
DR
##메모리
확고
Ass
구도
##face
##팡이
가닥
전향
요코
사자
급전
교사가
넘지
의자
##orn
변하지
##2018년
##는지도
트레이닝
걷기
많습니다
워크숍
장비의
카트리지
백지
아이언
JTBC
담당하고
단원
박차를
구성돼
Int
영어로
국악
##프란
##닷컴
작사
R3
당할
##바를
식탁
되기를
승리로
실행하는
확보에
1982년
마리오
##츠키
##리니
즐거움을
국내의
##사다
돌아왔
##검사를
카리스
선택하고
분명하다
않자
증시
이준
특급
##시스트
##시적
수용성
달이
달성했다
오렌지
그리는
펼치는
ip
박용
자발적으로
영업을
질투
Press
어머
##질적인
##당으로
##광이
##하겠지만
없어도
박수
필요도
공격적인
변압
##계수
않나
의사소통
##부상
제거한
편에
뽑는
피리
업체는
코팅된
##하느라
##기관을
빠지는
깔려
3명이
잇달아
김천
움직이지
흥미로운
의원들은
##라비아
쉬는
가파
are
형평
액세서
##되었기
컨소시엄
배열된
적중
수사에
울릉
JP
##했으니
청탁
안전관리
윤석
##duct
정찰
우선순
##관계의
게르
청각
##해볼
선택의
착신
##통에
넣을
꺾고
리뷰
원로
모르겠
상황이었다
MHz
##쌍의
변경된
부드럽게
군데
두지
##배의
김창
##b에
입었다
##oci
교역
여성들의
##잔을
Col
관통하여
엔터테인먼트
반박했다
지녔
수치다
따돌
봉지
179
병력을
승차
##위원장이
##맞은
김희
배지
요한
눈은
적힌
발표를
208
##기전
공구
우스
##도시로
층은
줄어드는
가깝게
없었기
##먹은
다투
한겨
AF
설계를
##앨범
스쿨
##산업은
내세워
ass
계란
가능성에
클립
세팅
뜨거
여럿
all
3에서
##바는
바람직하지
객관적
##00억원
활짝
모욕
##족을
않아요
##시블
아내와
다루고
매체를
의왕
틀을
섰다
OH
덜어
명목으로
위조
낫다
숙성
포토레지
사회적으로
나나
기쁨을
##킬로
##roup
##영역을
오디션
방송통신
그리고는
##제품의
구입할
per
내뱉
성매매
정극
##실장은
불쾌
##air
존재로
진출한
대마
##싸움
##골이
##63
##청에서
강력히
서버는
입소
팔라
한국에서는
용이한
검증을
##사법
##영어
회절
ML
의료기기
공급부
이해되어야
갈색
##onic
알람
도끼
이상적인
현실이
급기
인구의
##단부
도전형
##드래
3번째
출력한다
부엌
스님
주장한
##크와
간과
추출하는
향상시키는
체험을
무궁
설명하기로
전송하고
꼬집
거느
십자가
파울
나루
유저들이
##71
정치가
##진흥원
지급하는
제품이다
##그린
베이비
살아온
금리를
##여명
정책과
##너는
app
활동은
제8항에
시기는
##본부장
제어한다
계산하는
##블로
향했다
##텐트
했어요
로고
차체
##공으로
걸그룹
##리티컬
구절
수치가
대표로
업체의
##분양
우크라이나
이석
의사결정
3G
안개
세련된
주문을
제기했다
마련하는
각광
날은
접종
##pen
##째로
혜택이
내년에
정보기술
Qu
언제든지
##물이다
My
드러내는
정진
그후
우익
취해
객관적인
##타나
##억제
나가야
##청년
단말이
가습
있으니까
건설을
괜찮아
독려
##버전
주소를
기술분야에서
피난
기금
화산
등록을
나한테
국소
공유하고
요동
수치를
일본군
상태이다
Bo
틈을
##매가
실외
##상태로
생계
쌓인
##스타일
##네의
예상했다
셔틀
유리하다
트렌치
쾌적한
##유니
한국전쟁
##수단의
장남
##예측
지구의
한가운데
당기
신탁
제자
누리꾼
팬들에게
놓치지
이뤄지는
인물을
살리
마련된다
판단한
장착되어
히틀
등극
발목을
치즈
##DB
제시한다
##되나
어마어
방울
대표적이다
하기에
동등한
서사
지위
배럴
지키지
비수
##플라이
울고
자료가
##가서
5개월
유상
기기를
증가를
해외에서
분지
재료가
같지
##화하기
국왕
신성장
이해될
이격된
##호흡
##74
개최한다
540
숫자가
단락
실수로
4조
교사는
기록된
2승
티셔
수행하도록
탈착
국토해양
아이에게
##레버
##중개
##스퍼
지식과
공기의
##센터에
##비치
고가의
도우
##자재
##통은
약탈
일반인
##선도
##취업
불공정
손실이
##줄을
##댔다
##조항
구비된다
대우조선
수에
정몽
과정과
선정한
Car
수집된
공식적인
1945년
소개한다
1개월
세그먼
##때로
차량은
##영과
##나간
##실적
모습과
##티티
범죄를
커피를
구현예에서
좋겠다고
##캐피탈
##급이
##피는
##설에
힘에
##공기
형이
##포장
롯데마트
공이
두꺼운
반영된
시선이
위촉
의식이
않았으며
쓰인
##미사일
나프
##오르는
##칼슘
노골
흔적
것이라면
기술력을
제의
##밖에도
정권을
##부하
##박람회
분포를
##오게
시위를
치료가
만의
##상인
외교부
남짓
주인공의
자유무역
상단에
225
증거를
##창이
스스로의
기운이
물러나
대사가
##범이
신체적
없었을
##머가
##위성
더한
##사회에서
돕고
아쉽게
가정을
##쳤던
탄탄한
능력에
공정에서
에디
300만
선조
시작하고
데다가
지난해부터
SO
##에이블
##림에
##이야말로
##히드로
2명이
며느
토모
고요
이외에는
맵핑
##iew
마련을
극복하고
월간
방송에
##annel
번거
오르고
관리할
사라지는
##션이
생기면
##날을
1이
송신기
##ict
제너
마스크를
발생하게
분명하게
먹는다
시판
2라운드
뿌려
단말에
##리스의
부족하다
연사
##메탄
고정부
부인이
##대원
##EG
스위치를
남았다
폴리이미드
외식
##나갔다
물로
무안
##서치
##할수록
##198
##축산
입력받아
서울로
전압의
영혼을
High
잉여
pre
만주
대구의
바닥을
7의
게스트
퀄리티
일으켰다
난연
보러
형식의
##73
오산
민정
양자화
RA
유치를
##외과
단장
수식
할리우
숨겨
드러나는
앞뒤
운동에
##2O3
##영향을
주장이다
막걸
달리고
미미
점착제
한국시리즈
사라진다
그릴
신입생
리프
웬만한
결정되는
네트워크에
명령에
이상과
정책적
##출신
TM
공연이
##ulation
일단은
되길
않았는데
##속도를
소설의
##워하는
지속될
표방
방문을
증상을
절대적인
##뿐이었다
개신
하소
##히기
저절로
좌석
총선에서
상고
트레이드
높이를
민속
앞으로의
홈페이지에
예정이며
신조
장치에서
강화된
##시키게
##기관과
섞여
우물
불완
없음을
파기
환자에게
잔존
살펴본
유동성
##키지
##기술은
콘덴
##ts
영향력
Ge
저자
쪽의
알려주는
게이트웨이
제작을
##교육과
수년
세계는
##변호
방역
##가인
##59
열교환기
라벨
des
전통적
1박
재수
##신탁
인연을
판단된다
##출원
꿈의
증거가
100년
최강의
친근
먹었다
공급하고
손님이
sec
감사합니다
생기고
##층에서
신을
이쪽은
전통시장
우라
형상이
##노는
성균관
확보가
색다른
절차가
##우에
##유형
139
상황과
##두가
##gram
원주민
파라미터를
캠페인을
변경되었다
dc
분리막
외부로부터
오늘도
##수단에
과언이
1979년
찍고
좋아서
수목
제1의
##osition
박병
선택이
무색
##거야
##화도
드러낸
##오일
개발의
##쓰는
일삼
연고
결정은
있으면서
##지휘
맥락에서
##나눔
날씨가
모드에
제조방법에
운이
##라에
가담
세인트
##영화제
속해
불활성
가급
훔쳐
##칭을
성찰
경찰관
판단에
##조달
STX
산불
##병과
벤처기업
분출
##테면
목재
국채
하중
가하고
1000만
아내를
오기
들의
인연
연결하여
뻗어
엔진의
관리하고
##석유
간편하게
CV
조별리그
##림으로
특례
##토와
##진출
##컴퓨터
스티렌
유나이티드
##맨이
기능의
않았다면
죽음에
나타내며
민간인
한전
유예
##능을
선동
박재
##곳에서
숨은
안습
설사
##네스코
##하기까지
화합물이
기반하여
##소자의
묻혀
삼성전자가
##폰산
한번도
변환기
기득
나뉜다
김두
##현상
##자이
과징
Chem
##끈한
도지사
특이적
편곡
블록체인
하락한
입지를
##69
김정일
담임
겪었다
허나
방정
304
##되더라도
##보고서
##조건을
kn
##기다
구현하는
성수
##량도
산출된
적극적
피사
##돼지
우정
일종
##지역은
용어를
챔피언스리그
오른다
평가하고
것에서
##제약
##직이
개념의
도장
잊고
디자인이
##행위에
##센터의
않던
##방향의
않으나
조기에
앱을
귀에
열대
##61
금요일
시군
제공하여
##민들의
외출
염료
##캠퍼스
##결한
##안테나
##통의
상품이
구성요소를
##스토리
SI
자체로
발걸
피니
여주
AB
검출부
##리튬
판사
허용하는
부족으로
4가지
결여
명칭을
이동시키는
국민은
손수
이공
나치
취미
##알루미
1960년
##실린더
나폴
1993
않은가
##론으로
투자해
이용한다
##지연
확산을
오가는
이유에서
하고자
##로마
보답
산학협력
##건설이
##정책에
##어가고
회색
대학이
3세
단계적으로
##증과
##는다는
##협회는
유난히
아니더라도
##부도
##디엔
통틀
조향
##포지
사용함으로써
서포터
것만으로도
발렌
그리드
요소의
##철은
##업체에
목적지
유기발광
접근할
고객들이
1월부터
민주당의
수료
추신
도시계획
관장
##전략을
##원도
부작용이
높지
##세라
조합하여
태스크
##들이는
성장하는
빠질
##침에
할수
##비용이
당사자
##iqu
경희
장소에서
묵묵
뒤에도
옮겼다
탈취
서울과
늘릴
##플렉스
##PD
화력
색소
강등
경질
##봐도
밀고
17개
의문이
이즈
싸움이
##uk
발생하면
스톤
하늘이
소상공인
휴대전
육성을
##졌으나
##mit
발견했다
민주통합당
살게
귀신
전쟁에
아시아나
##장에서는
아빠가
선택에
문학의
##마르
##소스
##ACK
도로를
반영하는
남다른
경험한
주관하는
견디
SKT
##54
##블리
##모델을
포스트시즌
니코
물고기
연이어
DVD
##여부를
꽃이
사업이다
1983년
동영상을
병이
##리는데
재앙
싸워
좌파
제조예
협조를
##통계
업계의
##너가
컴퓨터를
일단이
지면
소개하는
구성의
생산할
더빙
##합이
##셔야
##formation
대비한
전자파
할지라도
인터리
석유화학
##란은
산업을
저서
강해
정령
##역할
혁신적인
유입된
표현은
집단의
##해제
##itch
##RO
기입
다듬
##중량부
판단이
전국에
이상일
5m
면적이
웨이브
보여줬
무의식
소장은
설령
평을
지속가능
관습
들어왔
뿌리를
포함되지
금전
계정
no
F1
##하듯이
근절
완성된
##네마
법령
언제까지
##교실
차는
스토리를
전형적으로
발표할
바뀐다
예가
한발
수신부
자신에
깨고
tvN
스터
생활의
man
##했음을
##EL
조정을
동요
절제
굴러
컨디션
길이의
한약
임금을
임직
정직
##워킹
##턴스
##랭킹
구한
균열
보편적
편견
소주
안타까운
아시안게임
결핍
전일
유력한
알아차
1주일
XX
펼친
전통을
하이라
호위
분위기다
##알코올
생각이다
##홍보
경인
직원을
신하
믿음
누구에게
50년
##근이
아르헨티나
농도는
##있지
메쉬
부분으로
입건
평행하게
##피의
테니까
##머의
##매는
상대는
구멍이
성격의
총알
BT
애완
##att
##펙트
##학적인
아이들과
포기하지
ED
콘택트
##fl
KT는
##귀를
##번을
5개의
8000
토트
제형
최상위
##단계를
##녀의
출시했다
열이
##아라
판단한다
요청한
실드
팬덤
결합부
원천기술
아픔을
##관리에
브랜드의
C4
이뤄지고
##차고
##매일
국회가
허무
라이온
100만원
문경
현실은
크리티컬
계약이
공정은
##조류
##율과
##하루
가꾸
PO
바뀌고
##강이
외측으로
이리저리
백화
##잡을
평화의
##회원
백업
M2
블록에
##인데다
##법원
폐암
##했기에
전념
##식별
전기자동차
보리
차동
경제적으로
표시를
증권사
받으면서
시간적
##치다
단말은
##자들에
도지
막대
못했다는
기업가
어댑
천사
001
유기농
구비되며
##두께
테스트를
바를
구로
동원해
##츠와
미달
성장에
속성을
계속되는
방화
기울이고
프로세스를
종류가
후보자는
비밀을
##리언
##62
농식품
원칙적으로
태도가
행보를
##외교
##인프라
스프레이
넘긴
##정화
##편은
상점
##요청
요소로
하이퍼
공짜
##들께
##까진
플랜트
학사
8의
극성
묻어
연구하는
##ins
잊혀
조카
후보에
일정하게
응모
외쳤다
##ha
부도
섞인
수필
기차
어필
사실과
홍수
##플로
##BM
##상태가
설치를
진지한
고독
##가시
1992
열정을
그만두
실체
##빈이
기자가
볼을
외형
국민적
주가는
참가해
낙관
##가입
지내는
신진
살았다
##음식
확보해
될지
공급하기
거창
노력하는
노숙
규정한
사용해서
##리스는
쌍둥이
##인이다
반지
몸과
게임에서
방학
잡힌
전문적인
처리하여
분자량
건가
애써
선박의
##RL
HA
소득이
성경
않고도
##코일
토론을
오늘날의
13개
##락에
##2017년
1920년
모두들
고령화
비참
중등
##십자
시간대
제9항에
##벤조
넘어가는
나뉘어
비판하는
초반부터
코스트
명심
유네스코
웨스트
법원은
현실이다
##프라이
8에
자동차를
덮는
이긴
방금
##째를
가평
해주고
반납
ox
캐패시터
돌아다
플루오
이미지는
회고
주를
늑대
비대칭
##onal
##하마
국책
메모리에
##사고를
##학부
부극
알라
디버
시와
370
조사가
축복
놈이
있기는
자연을
펼쳐진
##종과
유발하는
운영해
매트
NFC
메신
40분
둥근
귀농
위협을
이를테면
포함됐다
미츠
직업을
주한미
##브의
act
내시
속에는
제3항
원망
##축에
##파라
강판
코르
쿠데
##군수
법인세
성의
솔더
필요성
##증가
뛰고
배워
이미지에
##가야
호전
나노입자
##app
제시할
지리적
분위기는
##사회를
##요구
적었다
드라
##규정
확대하는
접촉을
것들
급속히
법원의
##arm
강수
cont
앉았다
322
UP
물품을
##운동이
안료
있었기에
확산되고
아테
우리들의
유저가
##조각
##상황을
##산업이
자유의
헥사
활용하고
세우는
##곡이
골격
TV를
서지
사람이라면
벼슬
제조될
모드가
##태평
만들어서
##mmol
헌재
##메리카
##츄에이터
대안으로
##경비
가시광
당원
아인
##문화예술
메시지에
##박사
인정한
##초간
계량
10a
진도
연내
##펠러
##위원장을
감소를
##노가
영향력이
반응성
아홉
##구장
##후에
대회는
있음은
궤도
작전을
줄어들고
장병
저마다
키울
##기관으로
##신한
무작정
기대감을
녹화
세번째
차별화
신용등급
무너뜨
안나
12년
캐리
말미
##공학과
부스
중력
활용을
상품은
올레핀
요구할
눈치를
##하더니
##하니까
##업계의
##포는
TP
가속도
운동의
십자
유닛에
상대방이
전문가들의
일찍이
이룩
접근을
타케
성향을
오존
##지급
진해
부부는
단어가
물량이
##ible
##군다나
미성년
만들어졌다
글자
경우엔
필립
요괴
판교
##이송
##2019
액화가
402
간직
진행을
어지간
실패를
미얀
##89
이강
##아세테이트
추운
##상환
7000
값의
암세포
H2
경부
먹기
##분야의
핵심적인
줘야
습식
##날이
줄줄이
시카고
박원순
내구성
기념해
인건비
주저앉
수화
후보와
목소리도
마켓
고려하지
##IV
제작에
전광
##ally
말만
##홀을
##한은
제21
지점에서
혼돈
##천이
##맨의
토큰
지시하는
권력의
두께의
##백의
##모습
추억을
##생활에
##다시피
##코를
##러닝
##슬링
비롯된
덮어
90년대
재원
출혈
개성공단
##학교를
이들에
누르면
출력부
##베스
플렉서블
지향하는
ppm
마케팅을
매몰
서울대학교
믿는다
두들
##줘서
여덟
##les
##화재
##자석
저장되어
##일간
설문조사
다가오는
로열
무언가를
##자라고
##ors
정세
개선하기
환경과
단연
안녕하세요
##피가
높이가
불태
입대
신개념
##들이었다
남편을
정면으로
변환된
헤르
##율로
SL
##기술에
내부에는
##혼합
방문하는
뜨고
보류
허리를
##시버
성희
개발할
합창
데에는
측정하고
고해
옥수수
보스턴
논란에
##irc
죽는다
세상은
죄다
##itro
가상의
탄압
상황에서도
1990
모르겠지만
##소화
비비
##분배
14개
정상에
기술이다
##불가
인스턴
##상선
##즈니
프로모션
##하였다는
##ble
##거리에
예측할
이뤄진다
대미지를
##절차를
##선발
해결해야
경구
다카
##기법
때때로
직원들은
사례로
검지
11은
##드릴
번째는
수행을
중시하는
엘리자
개최된
NR
수사가
##했음에도
영화에
다할
통신망
벡터를
루시
착탈
##바겐
UA
대목이다
희망하는
국토부
꿈은
추세다
할머니는
얼어붙
확대에
더욱더
보낸다
##끄럽
시작하면
사고의
키워드
##표는
##직자
압연
의아
걷고
지점을
나주
##시대에
후반에
RFID
##마로
몰딩
놀랐다
규모다
생활이
##c는
가솔
##당한다
글쎄
성추행
세이브
이해관계
##평한
##차도
꿈과
중이며
용량을
의약
까다로운
##랜드는
군이
##적이거나
뭐야
리처
하였으나
서두
주도하는
생방송
##각각
채널에
가능해진다
말하기
##질서
형식을
##물류
##언더파
있겠는가
##학술
출력할
감각을
임대주택
마도
자원의
방향은
관련해서
어드레
분석된다
황제의
공화국
소리에
한옥
하는이동
예민
공산주의
청와대가
자녀의
##동계
6명
우리나라에서
카드는
하라고
엉뚱한
재래
장래
입양
서남
고전압
##레드
퇴적
정례
##램프
영상은
아르바이트
방지를
실물
##ange
포함하지
이윽
일의
고기를
##향이
공화당
##하다면
##기간은
개선할
##올라
당대
소설가
##유입
동지
노력하겠다
살면서
성향이
시각을
발령
삼척
읽은
포수
살아갈
##독성
고도화
##EP
1항
더군다나
멸종
한인
벗겨
##디드
짧아
공부하는
개소
제1회
사냥꾼
산업화
넘는다
흘려
학생과
진한
##말의
##UT
자격증
특별법
##레스테롤
반복적으로
핑거
골고
##정보가
내쉬
구성됐다
광대역
따른다
차지한다
##축구연맹
혼합된
##elf
##금리를
안타를
##프로젝
로드맵
김원
의도적으로
BGM
요원
##관념
##느냐에
##제품을
##폭탄
우주의
치면
요구한다
교육청
브랜드로
만난다
구성한
Korea
안전사고
시점을
변한
부합하는
낙선
##토지
##중은
##면역
이해하지
##해져서
배터리의
과감한
##내를
중이라고
스티브
풍력
##워치
배드
##렌기
Poly
##커는
침공
산업에
우리은행
면적을
자연과
동성애
높아지는
멜라
경상북도
##정보의
장소로
분양가
밑으로
곳의
카바
다이어트
표창
Di
RT
내에서의
없거나
의욕
##원전
즉위
La
세입
경성
NP
하단에
질주
산업단지
나비
양파
##매출
영어를
전달하고
겨냥한
매개로
커지는
깨닫게
동대문
대화가
##전계
무제한
단골
자극을
침지
반죽
미래가
조금도
혁신도시
주춤
탐방
신뢰도
끝내고
덴마크
선천
개정안을
분무
해답
끝을
data
관심은
발목
격차가
제기된
위기가
##일자
있기도
창문
안전하고
일면에
기소된
거둘
정도면
잃게
##형성되는것을특징으로
##천은
2와
증오
##리바
이도
서기
##감염
구간은
술에
피격
##프란시스코
##01
시민들은
변경하는
권역
패밀리
못했다고
주상
1981년
인체에
##가면
진출에
센트
제트
스며
박인
셀을
##측으로
##복수의
이윽고
차이나
전류의
1950년
불사
바다에
준비했다
증가시키는
계속되고
받아들이는
노스
프로그램이다
##아래
##곡의
무분
발광층
##황이
교류를
##ific
휴양
##플랫폼
기반이
이니
가해지는
투자에
##출연
출연했다
발전기
지방세
은행의
특성은
설마
합의했다
##백화
321
극복할
군포
디에
안방
만나면
낳고
업체들이
##쪽의
모토
양심
여느
##나가고
걸어서
냉정
##사업과
재검토
수익률을
1주
잔디
스트림을
규정된
대를
표현의
호평
급격하게
높인
터트
카자
##나사
##오롱
저택
##조치를
계산된
제안한다
셀프
경기도의
업그레이
비공개
WW
공격할
중금속
진전
##동향
반발하고
METHOD
토종
재즈
착륙
##시픽
스무
31일까지
시동
시행하고
##ott
체질
조장
상태는
##루엔자
가능하다고
신한은행
공약을
약점을
피트
wt
나오게
##워진
떠오른
한편으로
기판은
고객은
방향에서
##바꿈
생선
##모씨
욕구를
시급한
상승을
입에서
통찰
##하기보다는
개발은
양면
내신
##궐선거
##요인
함침
맞추는
고양시
융복합
관여하는
##마이드
림프
224
P1
##발트
르네
클램프
오카
암모니아
부족해
가리키
초래할
##히트
802
##키스
고품
##드리아
활력을
유효성분으로
라우팅
규소
##유전체
정재
##트레이
주식회사
##이상의
3월부터
##진행
규제가
기꺼
##der
프린트
##저는
사카
정우
##토스
세계대전
내용도
직권
내세운
산업혁
수행된다
맛과
지난해에는
돼지고
##파티
이것에
시킨
김씨
보태
비주얼
##vent
상품에
One
자녀가
호랑
재선
출하
관광객이
방에서
이용되고
par
획기적으로
쿠폰
페미
##쪽에서
업계에
해석되어야
정치적인
무적
체결한
##무게
수단과
구제역
운영되고
##간접
정의를
##코와
##퍼를
샘플을
##uit
보호막
##율에
새누리당은
북극
초부터
장치로부터
농사
균주
##uper
외야
언급이
촬영된
서포트
나중에는
늘어난다
##서열
허물
##십니다
조직에
노래가
무너지
B1
충주
주도권을
땅이
대하여는
남게
규탄
일들이
290
공급한다
현실에서
RC
##광장
##겠소
전화가
##접합
이슈가
리프트
수출이
미친다
유체의
중에도
Love
##히면
##cl
##리지만
과실
정선
악영향을
시도를
##팀에
싶어요
시청자들의
으로서
표시한다
농장
발이
기획재정
본래의
주택을
조절을
필자는
못해서
##백이
DLC
유언
아이디
원동
드러내고
##암모
##결의
헨리
강하고
본질적으로
##시킨다는
달콤한
LG전자는
동맥
led
동문
아토피
간담회를
시작하면서
시즈
단일화
##민주주의
정주
만들어내는
취득한
끌어들
신호들을
##ody
부탁드립니다
리어
지뢰
뉴스를
NG
유진
받았지만
센서는
2020년까지
취하는
관절염
남용
막강한
누르고
이르렀
##지수는
나간다
접속을
어머니와
3주
##대회에
예상하고
시대적
##으신
금리가
##머리를
비교하는
쌓은
눈의
성능은
계기를
도와주는
저출산
지탱
헬스케어
##84
216
사용하며
스킬이
##카드는
##치아
갤럭시S
65세
강간
느껴졌다
조절하여
통합진보
들러
##현과
##가기
##강점
6개의
##보와
때문이라는
##기업에
분말을
수량
천주교
순위를
페널티
참을
개교
민영
사장의
추출한
1점
활동의
맺었다
취급을
##케어
사촌
##던지
안면
인식할
내버려
##모와
기자는
149
고민이
##분한
듣는다
프론트
연체
인프라를
사상의
##공과
의도를
페어
병원으로
투자할
김은
내셔널
달빛
못했을
현미경
접할
휘발성
##키와
친구의
거미
깨어
가입한
##해라
기울여
막장
시진
전환하는
##백만
과거와
평가에
뮌헨
##드린다
서귀
기억하고
노력할
##터에서
스테이터
항구
##수정
위력을
창출을
향상시키기
나눴
모자라
않기로
픽업
덧붙여
올라간다
다목적
##마리를
##비서
만나서
첨가하였다
##레이션을
선관
##악을
작업은
##GG
더듬
##강은
지식이
174
뇌졸
순조
##생으로
약속한
멤버들이
사업과
##감소
반대의
##이후
##자유구역
630
않겠다
##단체장
주민이
우레탄
가정용
##개발을
업체에
역세
달걀
얼룩
즈음
급변
포격
돌아서
맨체스터
양주
Act
좋아요
삼촌
전립
##yt
목소리는
KR
방식과
플립
가상화폐
식구
##훼손
농약
삼성이
티오
클레
추론
하면서도
대중의
노출되는
##hys
힙합
최종목표
통증이
왕은
유류
##nan
구호
정한다
##ience
죽게
초기화
옳은
벚꽃
성희롱
교부
신청한
##형제
라스
지배하는
##이식
##인성
가하는
##들기
제공을
장학금
##A의
소총
타원
문자를
##YS
##퍼센
희망의
##기상
##협동조합
자외
푸드
정규리그
223
문예
전극이
##회에서는
##이미지
기능적
촉발
투표를
찍는
##리온
파스
위치하며
존재의
모서리
찾아서
eNB
보금
이바지
왼손
##비교예
좌익
기장
타일
영재
##새가
분리하는
한껏
뒤따
4에서
엑시
시비
마련될
평이
전망을
안테나를
행복하게
출루
##테이블
수분을
##하도록구성
구비할
##산성
최첨단
주니어
상대에게
군단
법안을
##BI
가나
공격수
전보다
실시형태에서
협력업체
여타
설명에
##미술관
확인을
경우에만
명칭은
깨닫고
단위를
공통적으로
DF
가정에서
경직
##았어요
건물에
정준
구간이
직관
중요성이
도입해
주어야
삼성전자의
##케미칼
##res
개발하고자
연맹
갖췄다
##자이다
강대
편안하게
##달러로
##시면
감소시키는
가면서
##2017
영상에서
번개
여기까지
이놈
인간에게
펼친다
감소시킬
##었으면
완결
직원의
##대도
명의로
탄소나노튜브
걸음을
풀고
##기업을
극도로
연중
mi
##oo
느껴진다
사용되었다
힘들고
제품과
법원이
1991
기자회견에서
독립적인
미들
도깨
무거
둘을
##인원
골고루
보이기도
정보화
판매하고
##action
눈높
한국시간
합의가
순이익
데이터로
173
휴먼
삼는
들어가지
회장과
보너
거침
위치한다
즐기고
평행한
뒤인
온도로
토트넘
##00년
예방을
지원과
발현을
다룰
##냈고
시민들에게
차광
주어진다
팔고
NE
알레르기
시체
##신청을
##선진
뛰었다
샌프란시스코
성장과
대포
수없이
##기보다
없었다는
##ero
패턴에
주장도
##공사의
2가지
It
##방식으로
음악이
천장
##기록을
밤이
##UM
대응하기
또래
구축해
##회사를
대회의
지적을
Par
모스크바
터진
##ym
꼬마
##음료
그랜
유지를
분리되어
리본
##기면서
태도는
##사회에
라인의
##조제
##영역의
380
박경
지음
생산에
도파
러닝
고로
##2016년
황색
분야로
그림이
굵은
서울중앙지검
미쳐
결핵
김혜
##보존
행동으로
배경이
점수가
순서를
MAC
음식점
감행
##리사
##영역에
명도
##젠테이션
니트로
급감
연평
컴백
15만
##ffect
##집으로
토벌
호랑이
##보적인
공표
선수들
산은
크리스탈
##obal
연락이
구간에
자전거를
##계획에
##시설에
행할
선보이며
관측이
변경할
파르
금세
##생은
모로
해온
회복을
논문을
장인
##클레
재가
고아
EV
기꺼이
제어하고
펜타
##리칸
411
실시하여
제반
##내셔널
아가씨
엔트리
##겁다
각오를
언어로
해석이
조그만
해변
더하여
포탑
용납
##기업으로
만남을
금액은
10만원
고고
부산에서
비선형
번쩍
##틱스
핸드오버
들렸다
못지않게
아지
것들은
빠뜨
##김없이
전문가들이
##TM
살았던
##배양
미쳤
살펴볼
##텍스트
157
토목
sm
##윤리
페달
한국은행
아키텍
했는지
##획득
헤테로아릴
오만
##질은
자산을
조경
공방
주어지는
##대부
편찬
매체에
카드로
습도
협상이
HM
Pol
피해자의
166
처리하고
브라우
##담이
선보이고
보장하는
대통령에
옥사이드
##언어
매스
흔적이
##ature
의미하며
에서도
바뀌어
수장
mM
국고
요청이
바지
아틀
늘어났
마운드
본원에서
im
말라는
성적은
선언한
전멸
제공하도록
유니버
##오자
초청해
dr
캄보
##축의
녀석이
높아진다
##5일
##있다는
시트를
##간다는
다다
Micro
양단
장점은
특허를
so
여기고
우려도
띈다
##본부장은
GC
##뮤직
유용하다
액화
##주어
##종목
폭넓은
부분도
봉사활동
1순위
연골
##박막
이름도
메시지의
제작하는
소비자에게
산재
주기로
진정으로
틀린
면적은
콜로
CI
움직임에
선착순
되었지만
내비게이션
증설
귀엽
##류와
##g을
버릇
##제도가
함몰
납입
##방위
##군사
문맥
4로
Rev
패킷의
경력이
색채
유지되는
##엔터테인먼트
##수화
상품으로
Per
이르게
법은
##신도
이장
발전의
핵심기술
##부재가
남편과
비정질
문제이다
가수분해
딸의
감마
순매
싣고
돌을
드래프트
검은색
##ari
조인트
경도
##스테이지
권리가
##세기의
수퍼
EN
국공
오븐
분리하여
질서를
##unction
선택될
주체가
아들은
캠퍼스
함량을
비영
올라왔다
##emory
##테스트
돼서
제목으로
##바르
중이던
예상치
##레핀
마틴
1장
##렸으며
안전성을
##민주화
아이러니
정치에
기숙사
##ai
시리즈를
규칙을
from
간극
##코스트
##값으로
법규
관건
동일하거나
인지도
인정받아
##스쿨
이유에
##폴리스
수익성
##시계
##복무
미분양
##레인지
예배
공연은
안정성이
외화
관계의
연속적인
##연소
혼합한
기조
협력해
사령관
##모임
일방적인
##터테인먼
은메달
강을
한시
개정을
##사거리
보름
##해하는
##다공
보습
##나카
바짝
##레옹
##멀티
##해지면서
모드의
조사하는
##산소
휴가를
둔다
##YP
제10항에
신세
대신해
출전한
의무가
연말까지
라미
탈바꿈
잃었다
상태인
웨이퍼의
김문
각인
슬퍼
##여부
레벨의
월세
위기의
케이스의
어려웠다
부작용을
받아들이지
147
대국민
승려
##ute
인원이
##초로
초당
다자
배면
중요하지만
##쿠스
##저축은행
쓰다
##조사에
생각했던
책에서
연성
ii
학교폭력
##네는
상쇄
어업
폴리카보네이트
7월부터
가세
벌크
대기오염
실란
MF
내적
충분하다
사외
학대
넘어섰다
##센터와
같다며
거두고
##마당
경찰서
적합하다
터치스크린
콜라보
발족
최정
듣게
##수학
##구조물
##아카
4명이
슬립
수지는
##작동
맞는다
##태가
4a
와일드
제도는
##장치와
헬리
콘크리
구분하여
싶으면
##복시
1973년
글리세
신지
##작인
수단의
터라
태안
##질과
과반
이미지와
지금부터
##2를
##정보와
고마워
경기침
취지
##형인
GE
##미도
##au
당신에게
##대우
AV
뒤덮
다르지만
축을
Network
177
피해는
뛰어넘는
유용하게
실행될
사다
##알데
대하는
임상시험
성서
상습
최소화할
vol
의존하는
때문인
당국은
제11항에
##즈에
됐다는
401
Sw
##산단
미네랄
저수
쪼개
언어의
고객들의
##공사를
한라
##곡으로
##혁은
동메달
성장하고
무시할
조금은
##ission
예전에는
CU
비공식
온도에
##결정을
your
사이에서는
허용되는
내측으로
동등
잠재적
안치
und
오디
##좋은
이상하게
##해운
모델에
##희망
접근이
무슬
백혈
##ky
주십시오
3명의
공단
##드래곤
##경우
발생해
판단하여
##알루미늄
일들을
인슐린
##책은
법적으로
직원은
금연
온전히
책에
순회
부재가
이기는
코오롱
예산은
긴밀한
##BL
공산당
거리의
외측에
동탄
강화에
마리가
##수단이
묻는다
끝나지
##히며
벤질
열거
짜증
폐업
차이에
겸손
하이라이트
마련되는
이야기도
통화에서
등록금
10배
드루
되니
##더라고요
##엑스
##그의
##상공회의
제거된
##방해
국민들은
공무원이
부재에
끊임없는
캐비티
대덕
충실히
다하겠다
하향링크
WH
##철을
176
연구원
서귀포
##유체
공청
판결이
배타
뱅크
상향링크
노는
스코어
해에
##배선
일제강점
##노이
마실
트랜스포
바꿨다
백금
하였으며
강진
##평등
##두면
개발도
연초
마드
마스
시절에는
##무용
가루
##전차
깨어나
도시하고
ISO
분단
건데
R4
생산이
##척을
2점
오가
구축하는
여론을
제조업체
유효한
##ource
##분쟁
텃밭
내연
높기
지방산
달라지는
콘텐츠의
##대책을
승계
제공함으로써
자유로
아세트산
위력
일행은
##타카
##톤의
달렸다
LG화학
라면서
촉매를
해주세요
문화에
사진은
##ning
가족들이
거치면서
##항만
##교섭
협동조합
하마
주관기관
PDCCH
이해와
끄덕였다
##짐이
화석
met
불가피한
손목
무관하게
명예를
##호텔에서
장애를
쇠퇴
프로판
##특수
의거하여
처참
보고서는
##됨과
조용한
확대되고
체험할
19대
공격은
유신
취지로
아모
파장을
펼쳐지는
우체
일자리가
페로
도시가
색을
##리더
OR
홈쇼핑
공장에서
##노동조합
양해
발매된
공개적으로
희망이
논리적
##여개
적용하고
고정하는
트리플루오로
##청사
##남이
설정될
대박
##reat
##큐어
##배터리
전달한다
곧장
동점
일깨
기대에
##들한테
무한한
원더
태워
##비리
뻔한
언젠가는
습관을
##향상
정적
파멸
##스도
테니스
선비
해치
심의를
##션의
3종
감광성
프리즘
단자에
##inc
무시무
상위권
보이게
병렬로
연기가
not
커져
하룻
분석과
상하로
할머니가
승용차
##도이고
##여겨
인제
##지므로
대부분이다
UEFA
별명
항생제
##코드를
여긴
##장소
##풍의
다니며
쓰러져
1만원
사임
소리는
본원
교복
계획하고
##하였음
패배를
비관
인터넷에
1978년
들어설
시진핑
싶었던
열에
##actor
많았던
출전해
갔다가
배급
수로
##없어
속삭
##단체는
non
확고한
조연
가면라이더
압도적으로
문법
발생하기
관계에서
순이었다
안은
DD
거슬러
##마이크
412
새만
그때는
##반은
가급적
수위
완료되면
알겠지만
주도한
공직선거
인에이블
시장과
표면이
현대차는
피롤
양으로
전문의
ACK
공기청정
손톱
대한민국을
UL
달간
장관의
신청할
태권도
보이는데
전통의
봉사활동을
##있습니다
설정되어
##증명
신속히
하버드
콜라겐
어둡
##Cl3
상대적인
내륙
아주머니
6억
##자원을
이마
친정
자리잡고
##원료
거쳐야
##그를
국제적인
라인업
발언은
개선하는
논의할
띠고
스타디움
스트로
투자한
지나는
영상과
##ne
놀라게
도달할
##량한
##페스티벌
반갑
만족할
포유
송전
서산
바른미래당
시즌에
관해서는
기대한다고
##북부
##이라니
라인에
미만이
그룹은
##구도
##전대
참가자
들었
본연의
상대방을
낮추는
기운을
##그리고
시설물
##전당
정치의
다큐멘터리
##유출
##oss
김한
통합을
울음
000만
최고경영자
##담보대출
야채
##상품을
##부분에
에버
북한과
넘었다
후보자의
##심도
현상에
가마
##열차
담지
제조방법을
돌리는
전해액
동남아시아
전자부품
선정했다
참가하는
맞으면
말했습니다
공격으로
##있는데
##내면서
전문성을
상당수가
다물
회전자
장편
제재를
영향은
스크리
제3의
##개시
##enz
텍사스
텅스텐
박람회
커진
유세
##암모늄
생각해보면
##자산운용
민첩
여태
유럽에서
헥산
알케
신문을
금강산
돋보이는
Go
후쿠시마
거리에서
##충격
비자
장착한
국기
장관을
직경이
마찬가지였다
석방
보았을
##팽창
##범의
혼성
1초
미카
하도급
##어린이
대사는
가솔린
나폴레옹
1300
이후부터
##취소
드롭
쟁점
누구를
감쇠
움직여
##캐릭터
KB국민
요정
무상급식
810
##120
포용
물론이다
##덩이
행진
그래요
##yle
유기물
이로부터
##여건
단단히
##등으로
바이오매
재건
있더라도
콤보
##말라
##에게만
퇴장
##상수
열광
작중에서
나오며
올라갔다
탈피
##모니
결정적
데드
발표하고
조합이
정확히는
군에
함량은
표제
수비수
키즈
편을
왔다고
##야를
인물은
배제할
##유전자
대학은
대결을
시각적
이미지로
제조에
성분은
눈여겨
헤비
브릿
더는
사가
##민들이
현지에서
설명되는
해왔다
460
피하는
##110
##증진
만들지
하늘에
##시나
오류가
2500
나름의
단단한
마련해야
했다며
변수가
달서
형님
애정을
기다렸다
멤브레인
##냉각
ant
이어갈
배에
요청할
##에서와
엘프
엿볼
비용으로
모뎀
노선이
냉각수
커튼
##정밀
정조
보도를
##공정을
극중
스텔
창의적인
수명이
##ica
##munication
누출
베풀
가치와
이상이면
가능하지만
외주면에
##왔다고
##사전
수류
법원에
##총장
장난감
캐논
사망했다
때였다
결합된다
##경찰서는
우두
##거는
##지배
##품은
KE
##우로
제거하여
트랩
##주소
미혼
벗고
##업소
1위로
아웃도어
손자
시트의
##거의
변함
##하는가
외국의
재정적
##벤젠
캡틴
임계값
##소환
##우트
Met
신안
##시설과
범주
일쑤
시각이
평형
맞추고
그려진
픽처
차츰
트랜지스터를
5차
개방형
##게이
편한
땀을
2군
미국인
##조제2
매체는
롯데백화점
양태에서
있기를
충남도
##수업
법률에
선보여
##왕에
작동을
조작을
##묘하게
예상보다
운동은
현저하게
개도
의사의
플렉시블
##ever
반복되는
##uman
##릴라
케어
해당된다
함유한
체제로
메뉴를
투입된
선발로
헌터
타이밍을
외상
도매
##건물
지휘관
##문제가
초기의
사살
원수
And
가상현실
수신하기
멈추고
태백
맡는다
간격이
침수
일본에서는
피부가
대기업의
반문
11a
4년간
실현을
불출
명단
올라와
##무대
그랬다
부부의
독립된
단계가
##근을
고갈
새로이
##적응
벤젠
귀한
##우스는
한국인의
스테인리스
건식
##프로그램을
##누스
딸기
이물질
검출할
소개하고
si
##규는
소니
아크릴산
##lor
소유하고
플레이트의
MAX
일으키고
사명
York
노인의
내진
남학생
##베리아
인사가
수락
분야별
변질
배터리를
##por
에너지의
의혹에
자택
휠체
이용된다
1등급
지식경제
호소했다
Ne
##애가
조정할
##뿐인
추천한다
기억에
아쉬움을
자유와
##공간으로
뒤의
##삼진
결과다
멀어
속초
일대에
크기와
감지된
통하지
오게
##osph
때나
그리스도의
이점이
##여고
##공유
등장하고
근로자의
떴다
##이소시아네이트
설명의
측정하기
국가안보
##IVE
2∼
튜닝
스코틀랜드
트렌드
##버스를
존재는
강점
통째로
집값
재미있게
날개를
##사격
Et
##오니
실패로
떡밥
5인
방송이
이관
60대
광물
해서는
쓸쓸
줄고
##난방
표현했다
##확보
나이는
위원장의
##업종
##표의
건강기능
일정이
함유하고
태양의
정리한
사죄
003e
대림
방지하고
삼았다
##계에서는
##총회
##스톱
##ray
##방향에
수입이
아파트는
부지에
존속
##MHz
구성하여
##earch
##위생
4월부터
민법
##소수
꼼짝
도전을
##틀을
피력
##다중
##말에
##손실
지역에서는
사례도
##ina
ROM
동국
오로
우뚝
트라우
##요원
이뤘다
나노구조
객관적으로
뜬금
##식에는
확보했다
넓고
보였고
불의
##쿠라
241
오목부
일행이
경연
5조
판정이
##하실
놓는
모습이었다
소원
그러면서도
단면을
미쓰
기병
차등
##OX
상사
##포에
2개를
파형
거부하고
유연한
참여한다
키운
도무지
##ification
회원국
##기로는
단말기를
상권
모듈에
파인
계몽
테이블을
흐르고
##일자리
전한다
새겨
layer
##들지
분석도
폭은
간담회
말대로
##O의
정년
##마킹
플라스
Rec
포토레지스트
##희를
전전
##기업인
캐릭터는
주당
나이를
양대
##타당
##아닌
올린다
가할
진짜로
1975년
알리기
사유가
죄책
느려
##안에서
수출입
지식의
process
열흘
장신
타고난
종의
##숨에
여건이
바르셀로나
위배
상처가
논리를
신뢰성을
필드는
5시간
실시예와
지으며
##gen
인도의
##공인
공간은
산업적
수출을
월요일
이상에
242
##파리
나가서
퍼즐
##해수
서울시장
80년대
맡았던
실시해
Time
##기술이
진열
산업이
2차년도
슬라이스
증인
##슬롯
옥시
학기
역사적인
제공하는데
정책으로
##션은
씨에게
헬스
##화면
##랑을
##문제에
노인이
##군에게
기판이
금액이
배트
다국적
성장률
##그는
소거
##분권
##학교육
비준
광범위하게
있습니까
##화소
##GE
이용이
##리히
노력하겠다고
현실과
Power
히드록
해결해
극장판
카카오톡
##ett
##ppm
선로
푸시
신차
조절이
경력을
수증
Is
시장점유
##보육
##조제1항
치명타
선물로
전통적으로
첨가한
닦아
경관
512
저술
트리아
포크
##명령을
민관
##마라
##A는
##막과
누락
##성이나
묶여
##만여
전두환
##레아
왔을
구체예
군사를
##공산
전략은
##리스가
##put
초소형
##수집
노드에
학부
##있다고
##87
마일
##ugh
와중
경제는
선생이
되거나
전원공급
7대
1심
##활동이
직장을
##인상
식별자를
개그맨
미라
한순
포로
##ont
기여한
선생님은
##UC
##브라켓
핸드폰
하러
리버풀
인물의
스톰
눈과
빼면
##위원회와
이승엽
##승인
지폐
결합되며
애플리케이션을
대조군
김제
애매한
도시에
그러는
무게가
조성물이
능가
전속
##림과
##억여
걱정을
망명
결과와
기구를
카타르
단말기는
##정책과
##산업에
문화관광
탑재된
##부여
signal
찾아내
너트
집중할
두개
##편성
1억원
한상
환호
셀룰로오스
영농
##식도
포상
자동차용
홍보를
##비서관
소진
전쟁에서
명백히
손잡고
경쟁에서
##ons
때문일
매운
##바닥에
길거리
안주
몸체부
도핑된
컴퓨터로
원하지
추궁
일으켰
5a
확대될
##부재와
이르고
찬반
제안된
설명해
##실업
철학적
##범은
인연이
##탕을
웃어
걸쳐서
4학년
의자에
도입하는
부탁을
##복실산
파쇄
##모집
자처
##I는
부인은
##ows
쿠로
전략이다
따름
경상남도
줄은
없어진
사망자
맡는
모으는
우울증
선생은
여러분의
리스트를
서울을
영업이익은
##됐기
##후는
##겁고
##내용을
신곡
지칭한다
자리는
##추를
형성에
어디에서
##께끼
다양하고
대다수의
PF
##란하게
메탄
##출판
At
##장학
구급
##회장은
네덜란
##조에서
송금
##녀를
##회사에
소속의
##해지기
##절감
대전시
노력은
##파이트
숙주
탈모
##행위가
예견
##병원은
까마
물량을
ab
이름과
선수단
한반도의
이전부터
의원들의
##서스
수신하도록
이산화탄
스탈
##함께
수입을
##색은
빨아
##짓는
VIP
감고
##재난
##순이
장애가
3부
##교에
유지될
스타일의
몬스터를
그놈
황교
단숨에
냄새를
콜레스테롤
##장비를
됐다며
##루션을
급수
공무원의
친구는
받아들이고
검사가
정치적으로
1972년
조속히
생산하고
폭력을
##2가
##쓰레
##지하
효과적이다
단층
##UN
무기가
##부부
거치지
면세점
수돗
##위반
획기적인
소리쳤다
당당하게
스퍼터링
감찰
지오
##거래소
생각과
쓸모
하긴
저장탱크
CBS
다가왔다
1m
좋겠습니다
##ydro
##시키려는
유병
컴퓨터에
##비즈
하루를
##보강
대세
클램핑
방송사
남미
서른
찬양
##송이
개략적인
##ll
1974년
구현을
만들어지는
고종
빠지지
증가된
패널을
부자가
개별적인
평화와
4분
위협하는
엣지
##발전에
노르웨이
첨가제
##작에
기자들과
특기
##테트라
불문
##치료를
파키스탄
비판적
울산시
##반응을
##웠지만
100m
##용지
활용이
필사
팬들
재판에
설립을
시인의
##하겠다며
지날
소유자
루카
운전자의
유보
근거한
걸러
번갈아
누름
믿음을
촉매의
급하게
##르와
##네트
프롤
##홈쇼핑
인력양성
##egr
##됐으나
아름다움을
콜롬
소닉
가이드라인
세워진
의원도
지금까지의
##왔지만
줄어들었다
순찰
method
##upp
통증을
##조약
발생기
압박을
line
국민들에게
빔을
집안의
테레
헤지
##94
스트링
John
브랜드가
리턴
오크
상수
자각
집광
고민하고
모른다고
전문가가
못하였다
##스트리
감싸는
배고
인정받고
총독
시절을
김무성
##인들과
##가격이
되새
Cell
환급
값과
부지런
비상대책
공매
##되어서는
선원
회로에
##한지
구현예
1988
흩어져
검토해
직렬로
평균자책
##aster
본질을
하동
##패가
Am
##yb
최하위
위태
전투기
9에
거둬
토지를
##두의
##되었음을
##드려
창을
마을에서
타단
따지면
##근의
##여행을
단식
천문
북아
경신
오승
순간을
입금
마드리드
고착
내에서도
##테크노
지성
무라
웰빙
캄보디아
배구
곡이다
##훈장
##ness
등장해
유산균
##택시
##코노
##2015년
치며
유니폼을
분의
연장하는
파격적인
소자에
보온
##변형
다음에는
선택된다
방북
##자들도
사용해야
PI
드레스
스태프
할리우드
없애고
##완화
사생활
멈추지
시가총
##바나
구현하기
탄생한
지혜를
##업계는
포드
식물의
레이드
##랑은
다뤄
박수를
##TR
등급을
햇볕
적자를
찔러
6차
살포
저장되는
Data
전투가
##전공
용기의
고액
역할도
언론은
권영
배로
수컷
현명한
노드의
네트워킹
University
니시
심부
비즈니
정도만
굳게
정경
지정한
친구들
범위로
법학
##M의
방탄소년
창조경제
무너져
전대
규정하는
세울
조성에
##벽이
시행하는
Med
집중하고
##미아
행사에는
##전까지
낯설
번식
급한
품질이
면도
꿈에
개원
개수를
적잖
사이트를
만이다
##매의
묵묵히
##하네
##ano
든든한
식용
##버는
##예금
임플란트
웨딩
제철
말하자
다하겠다고
애정
전투에
초반에는
벌어질
오케스트라
성남시
현대건설
교량
성주
묘한
고도의
보았
##태평양
쥐어
감소하고
구분할
##렉터
이라면서
##린과
##ural
납세
실점
통틀어
Au
##600
조망
연구하고
##쯤은
도전하는
끝난다
보아도
sw
RAM
바울
표시장치
아니에요
바이패스
줄어든다
세퍼레이터
기회로
한성
장면에서
나이로
WL
교수와
관해서
##ipt
무리하게
입력에
변경이
찍었다
입장에선
##앤젤
남자와
계속될
가미
살리는
헝가리
control
뽑은
아세안
돌며
##리아는
##사우
광학적
구자
해소하기
조도
남양주
종로구
##술포
맞추기
말처럼
환형
비효율
미주
##시스템에
천하
오해를
L2
판단해
명실
발발
퇴임
이미징
국무총
준결승
스탬
##일인
층이
출신이다
##기한
머물고
시점이
기록할
형광체
640
것이어서
로즈
해석된다
##인력양성
4층
놀랄
##볼을
##치도
##홀딩
알아보고
부모와
ETF
##앰블
개선하고
박준
##회사인
하나금융
##전망
##각으로
##후를
강북
띄게
벽돌
깨달았다
##셀룰
ht
폭발적인
임진왜
##특위
5로
김세
탈수
##디올
비를
곤두
마오
##힘을
준다는
대가를
KO
버디
불려
자원이
농사를
렌즈를
아리스
절대적으로
4H
7명
본편
좌우로
##셀의
크리에
part
지하수
팀장
영감을
내에서는
동창
구간의
이루어져야
##연과
##함을특징으로
심야
12는
유체를
##무니
곡면
지적한
입자가
##지출
수은
온수
제자리
##인가요
##프터
##ner
회전에
가족은
세대의
사무처
제안하는
SiO2
허벅
오리온
빈틈
출품
그러지
키보드
페르시아
대내
반출
힘과
##퍼의
##공간이
정사
몸체의
일어서
A2
##웠다고
의의
스커
요소에
##1호
사실도
화장료
디자인의
언론이
##시켰고
왔는데
무서워
밝힐
움직이고
물건이
도펀
음모
##측에서
증가와
질환을
뭔가를
구입한
##97
거시
한몫
콘트롤
플라스크
장담
생산되는
지니는
확인한다
##바탕
언제든
수수께끼
##경부
6을
무시하는
##경제를
전하고
영수
근래
선택해
커맨드
하니까
주제가
추진한
대나무
하계
fil
짐작할
이야기하는
##nan은
청소년의
귀속
카메라의
Unit
등가
##상거래
##alk
상으로
어깨에
땅의
사라질
불규칙
페이즈
##acter
제출했다
경화성
기분을
8개월
##구조가
다짐했다
어울리지
세계관
##SS
제조하기
진폭
고심
##정부는
곡이
원도
재치
조성하는
신영
내놓을
비영리
부흥
삼진
디클로로
##클릭
어뢰
회전을
##류로
##어스
공동대표
커녕
제사
성동
##기초
원자재
##ourn
##러브
n형
오징
저비용
올림
##타디엔
장전
중후
pc
조성된
축제를
##골로
##400
##de
서버를
밝고
생각한다고
메신저
등지에서
한지
국세청
휘둘
암컷
남북한
법과
스캐닝
취업을
역할과
풍성
라운
주인공인
10회
기관은
##손이
손가락을
판단되는
아파트가
재테크
##Lv
##마그네
퍼부
자기장
완주
성장했다
내년에는
마감했다
무대로
후보자가
방송의
메이커
꼴찌
##롯데
##기관은
전송하기
1이닝
라이더
명백하게
총리의
##실록산
Ser
극우
주제는
최영
사랑하고
##태는
##추적
기여를
##프로판
그룹이
유승민
하룻밤
##스타인
##탈을
요인을
입술을
##자원의
피리딘
페이스트
##애는
올리며
가늘
소지가
##했지
##테마
##혼을
Des
명칭이
이따
사용되어
Rad
김도
필터의
톡톡히
밝히지
진행되며
서버로부터
##정류
시험에
경영을
##으리라
흔적을
DMZ
9만
음식이
사진과
여부와
시도가
인해서
멍청
##만큼의
등장하지
피처리
판매량
것보다는
버프를
접속하는
지켜보고
사업계획
1명이
##짓을
향토
##고시
수수료를
셔터
학년
##배관
흘러내
공급된다
학급
International
거머
모자를
자연스레
지자체가
늘리
농경
지르코
##가들이
크래
하청
##체에서
준비에
##CO
부진한
부디
남는다
계단을
기술력
아시아나항공
010
롯데는
길드
내려와
콘솔
초창기
후반기
##말은
작품에서
##requ
토론회
##막으로
고르
중합성
##부들
사이토
고객들에게
##2차
##대금
산타
이공계
##만도
신중하게
투광
도시에서
성공한다
잠수함
장단
3기
##기기의
##홈이
##례에
도를
우리와
보건복지부
예수의
##동네
해충
수익이
소비를
여배우
##접착
사태에
##나르
##분사
##행복
에이전트
벌인다
영혼의
절친
탄약
보편적인
##사회가
##선수권대회
미쳤다
##크리
대표되는
사투
##부장관은
Ev
##오로
##설은
않아야
##itt
곡은
마당
##펄스
벌일
용도에
버텨
각도로
사회적인
##아나
##지침
##urr
인상이
##소재의
숫자를
알뜰
##황의
소유한
검토를
2경기
초점이
비누
농림축산
기기에
우는
2항에
혈청
나오자
메타크릴
대회가
부모는
리우
##련이
갖기
상황으로
흑자
행정구역
서버로
##등은
낙후
실사
임산
엑스포
이어폰
one
방법으로서
##슈퍼
영화제
통화를
떠오르고
파헤
1989
제어신호를
##83
필요하지
박테리아
중남
##겼고
오너
##혐의
바람직하며
승강장
유형을
이호
해남
우루
##상으로는
쉬고
소프트웨어를
비는
비휘발성
##팀과
테이
AFC
갖가지
달성을
유도할
##발에
##변속
251
수익률이
마세요
소속된
진동을
국회를
뛰어나다
봉합
##창에
측면의
김인
일본으로
만능
있었다면
식약
돌리고
객실
##ings
전립선
시아노
포커
NF
오이
하는장치
입장은
내실
##위안
형의
조사하여
다기능
문장을
##단지를
디펜
병용
##협회가
##영웅
식별하는
추출하고
지지율
3승
행하여
##최대
##술사
TA
재보
##폐기물
##곡동
존재하며
마이크로소프트
##밖의
개발한다
흡사
##드림
논문은
##내로
##셔닝
##철학
보였던
##것이다
복수를
진행되었다
##관제
운전자가
##가다
Control
기탁
##광주
주기를
##obile
Eng
돌출되어
응력
지내고
건조한
대장암
개화
1976년
필기
##현장에서
원예
산지
850
보건의료
두려움
##애니
상호작용을
##아아
##네이션
인데
저전력
녹지
##안고
자위
##정보통신
알면서도
기사는
왔다는
인듐
reg
피하고
탈당
위치할
마당에
1948년
A3
2호선
들리는
빼돌
꿰뚫
선의
##페르
##돌고
AA
영상으로
아비
거리로
공개특허공보
임대료
백악관
##I를
교대로
자에
아들인
##데실
명목
30개
Techn
ap
늘면서
##성이다
합의한
##부분을
받았으며
back
##률과
쓸어
판문
각본
땅에서
트리메틸
짝이
검토할
맹활
무자
미만으로
노란색
박세
귀중한
##가도
변모
영향에
장비가
최악
거센
제시하였다
금감원
뮤지션
넘을
노리
동래
##싱을
흑색
신정
##폴리머
가계부채
색이
위해서라도
목동
##점수
4명의
다니고
혀를
##처로
##퍼니
분홍
30일까지
SG
방송된다
조사해
핀란드
##icle
시기의
##해에
입상
포기한
옮기는
##이차
도울
욕망을
리베
절도
우리나라가
내지는
설비를
##렐라
대상자
가도
##벽의
보호하고
빚어
do
##맞이
김영삼
증액
ref
##NF
1급
모듈이
영화에서
내장된
공개되었다
생성을
국토교통부
카테고리
고개
캐주얼
그런가
많으며
##곳으로
드립
rel
결혼식
##체육관에서
효과와
재질의
##82
이너
인력이
부여하고
조성해
속옷
접근하는
대각
##보이는
독립을
부문의
##겠느냐
Cent
##장전
##곡은
끈질
장은
받았다는
니가
징계를
씻어
##처리장치
촉구하는
표절
잔인
NA
##oul
다니엘
월등
##주주
##직으로
10에
##원이다
##진동
무력화
터뜨렸다
폐수
초과의
##과목
의료용
##경화성
Rep
##003c
로스앤젤
아이스크림
사야
미정
##특구
##경사
##패의
이내로
추기
부사장
관련해서는
놀이터
정예
거요
생생한
날에
##부재에
SK하이
최재
수용부
완전하게
디바이스가
최선
안내하는
대강
##제도는
중심축
##발전소
##마커
미지수
업체를
제고를
작동하는
실장은
LPGA
칼리
스스로가
##기로부터
에멀
생식
버락
예측을
기량을
놀랐
익산
##쿠르
나만의
트리에
##난이
만을
사사
로봇의
##투자가
구현예에
호스
n은
파동
능력으로
보기에
선체
1세대
김일성
FM
그들과
노력으로
단차
걸어가
스턴
과정으로
강민
소홀히
실용화
왕국의
지게
리조트
대상인
만큼의
##단백질
Pre
르네상
##헥산
##플랜트
않으니
항일
한정으로
자식을
파악하기
존엄
p형
늘어나면서
##티노
##옥사이드
다르다는
원치
미치고
##대회가
경험치
사용하게
##시간의
전압에
9천
선대
약학
어리석은
고인
노년
##교육에
생각하기
##클래스
5만원
A는
옮김
분석은
보고는
국가정보
봄이
##oid
##시지
학습을
평안
향기
안도
만족도
6위
트위터에
##하든
않는데
식이
인플레이
여행객
신체의
##페어
둔화
##장갑
배출하는
벗어나는
기능도
##이트의
300여
화살표
좋습니다
리콜
열화
촉촉
현실적
현관
불릴
상태에서는
자료로
##ount
의구
안팎의
논의했다
버는
CH3
##겼던
푸는
위해서도
뾰족
컴퓨터가
##HC
기대하는
##라인의
홈플러스
##새를
철학을
필요하며
데스크
것이오
Amer
##미딘
Electr
떠난다
쏘는
치중
자체도
표시하고
##00만원을
자신감이
##거지
spec
경제협력
미술관
##주면서
1968년
두렵
있었어요
퍼지
##재료를
물결
바텀
##3조
구하고
도교육청
지적하고
이전을
트루
멀리서
오죽
##프스
하나같이
알콜
207
달라붙
포인트가
살린
받았을
제조를
장애물
하자는
가성
##apt
##텐데
삼국지
스물
직물
##모비스
##혁이
##염의
##ward
이동하여
이들도
##정책이
분수
세포에
폴리스
자세가
남기
##받으며
18개
종합적인
말씀이
근접한
칠곡
해석할
박은
외무
액츄에이터
여고
옥소
준비된
##tra
##삭제
구성과
과장은
여성들은
센트럴
빠지게
간호사
필요하고
플레이어의
##회관에서
행정부
##타고
##랗게
##전인
링크를
대량으로
출격
가요성
##베르크
신작
##미트
##끄럼
블라인
##벤트
질이
정부도
공간적
역학
167
위암
##ability
##딩을
Cor
눈썹
##시즘
제지
유도된
필름은
수록된
##agement
여겨진다
용기에
태도로
부스터
집회를
##니지
한국으로
만이
퍼스트
간행
##enyl
명성
소리와
스크롤
##업체를
##말고
전설의
체적
피겨
##모형
살아남은
메일
##귀가
청량
노조가
건물은
노동당
이루지
경제부
호날
##대병원
##교와
마땅히
관악
야당의
워킹
지적한다
사항에
단계별
##컨설팅
배출구
정관
여야가
##산동
유지한
상기제1
##서부
이전까지
##맛을
부장판사
##있으며
가지도록
##롭게도
붙였다
252
결혼한
견뎌
금속층
사항이
보성
##법에서
내린다
긴장을
위치된
TR
입구에
똑바로
유가증권
정서적
서비스로
##사자
##인천
##시켜주는
감기
더러운
이빨
테일
제공되고
스탠드
당당히
PT
커팅
##고등
##버의
감안할
##엔날
인정되는
국군
##태의
##맛이
##야드
##시스템은
세미
차질
##어버린
니들
레벨에
진리
##봉이
날리는
싶어하는
높을수록
근처에서
이승만
벌써부터
Digital
도착했다
드라마를
자료는
Gu
불신
##티에
##탄은
##현상을
생성물을
호텔에서
출발해
나왔던
high
로얄
아랑
출발한
테이블에
합체
찌푸
##배기
있었는지
256
헬멧
대법관
교내
용적
추리
제천
체코
크라이
거부하는
인디언
놀러
대통령님
OK
##투자를
방대한
국장
아세틸
6대
메세
##채용
유사하다
문항
항목에
val
잊을
국민건강
본부장은
북방
혈압
자작
약점
키트
신한금융
인피니
##라지
무책임
구동하는
네임
TK
##날의
아메리칸
##박람
포천
##쳤지만
버리
당연하다
치밀
의심을
##엑스포
##바위
##익은
셀에
팬텀
건강하게
조사는
303
모던
감옥에
매체의
올드
아이와
승무원
##저럭
##달이
빌드
생성물
##rier
따온
단자와
실시될
아나운서
치르는
##식당
사용시
##requency
10초
부착되는
소수성
쏟아지는
##적외선
1977년
전자상거래
가로지
여러분이
통로를
추출하여
##혀서
가칭
폭락
산이
##워즈
싸우고
넘어서는
웃음이
골수
##프랑
박지원
가속화
황태
지금처럼
사신
통일을
국유
유의한
고창
알아보
불화
시신을
기여하는
480
엔지니어링
노동자의
한국지
고정자
대상에서
단결정
따를
##분야에
실시예들을
년이
##럭저럭
점등
마왕
고화
도마
프린터
세력의
##들이고
젖은
##이론
그래서인지
##시에틸
어때
##역학
매일경제
##전에는
##품에
전송될
치료하는
급기야
시체를
Light
5∼
지시했다
KB금융
말로는
제어장치
##살의
관련되어
강화하기
무심
증가가
하되
만끽
##특별자치
선생님의
못하며
1971년
달러로
##동성
임금이
제조되는
##었지
안중
의성
##영상을
부착되어
일입니다
트레일러
본체부
있는데도
향상과
스토리가
신원
리처드
연못
대상이다
영등포
이야기로
정현
제왕
시즌이
##각은
중요하다는
저항이
아이템이
블라디
경기의
##홀이
키리
##방식의
##프에
GS칼
실시된
산에
사람이었다
기억하는
자료의
되돌려
피고인
아자
##렸기
간섭을
해외로
취지를
부모를
##000만원을
파도
##환경이
품은
웨이
회화
불이익을
집행유예
만세
못하여
왔습니다
##arbon
전라남도
##변화를
##wt
삼성S
교토
협정
##칙을
##4의
전환이
##니아의
##경기장
##IR
##나무를
정상회의
서강
##내면
폴리아미드
##지방법
전력의
공성
필러
식이다
홀로그램
통과할
황제가
##소서
찰스
War
항체를
표시될
특히나
아닙니까
위반한
결산
직사각형
만회
1400
미적
유능한
청계
탄소섬유
최고급
##행의
과감하게
넘겼다
##에어
##씩을
편이라
설계된
피부의
내려오는
성장의
##교부
##했거나
각각이
걸림돌
창조적
퍼포먼스
임베
여유를
뜨는
##참모
영위
복음
이사를
##사유
시간당
싫은
end
가던
인맥
##학교에
나오기도
아담
티베
후크
교향
##채로
나무가
살림
부사장은
펀치
##퀘어
반도
Min
##교육이
##해달라고
플로팅
논의는
##총생산
핀테크
##단장
##격의
전략으로
가방을
투자의
볼거리
이들과
##챔피언
오키나와
실행할
오류를
스타크래프트
화순
모모
이용하기
##배에
314
후술할
##성향
이루기
##콘서트
수명을
##저널
주택담보대출
지방자치단체의
##자이자
당기순
##상이다
10위
맞출
페미니즘
절대적
흘리며
##랄한
센서가
제작할
진단했다
##경으로
구간에서
유지했다
수산물
진술을
일시적인
처리는
##사적
##구단
장점이다
최전
전달하기
디자인과
발전할
시로
제약이
백작
급진
##형성되는
민자
##93
교육과학기술
1600
칩을
자신감
Ab
##HP
미토
찾아왔다
올라간
최저임
FR
사의
교감
##현상이
30초
요소들을
챌린지
이때부터
##방과
##음으로써
두께로
남성은
##통로
##효율을
전열
점화
하나님이
참여가
당겨
시키고
딜레이
상측에
병에
벤츠
##사이클로
##가격은
##방문
역사적으로
기대감이
Service
##진영
##1일
전함
훈훈
전지용
운영된다
깊숙이
새겨진
개발했다
이기고
##액으로
A의
대해서만
금품
##환경에
왔고
502
패러다임
블렌
전라도
돌아간
쿠바
필요합니다
진흙
하인
가중치
일례를
창간
6학년
리오
##하죠
피의자
##왔다는
6자
농도의
지켰다
##방학
306
##출된
##over
##주신
##과장
##ased
##관계는
낮출
증가시킬
차례에
남아있다
시민과
소드
들어섰다
전문성
##92
제22
행한
종류를
말미암
금융투자
돌려보
MT
##거가
##률도
찾아보기
더했다
##거니와
##돈이
개최를
본토
시스
##포드
지쳐
비난했다
안락
순간적으로
지금껏
사멸
악기
새만금
8명
Access
##렸으나
구축에
총수
하루가
풍경을
##패션
주권
개최한
결론이
덤으로
##검증
보이면서
찾아오는
카스
Up
양현
승리의
작용하고
업적
웅진
3선
쓰던
연면적
##티지
4번째
연비
묻지
보호할
달성한
토로했다
양수
분야가
다르고
##출생
이동식
##규가
Inc
한타
솔루션을
고민하는
자명
코칭
##uck
슬라이더
##요시
분위기에
악순환
##규명
##2일
마린
보여주기
지원사업
절감할
전분
성향의
작년에
##한글
쇄신
프리미어리그
스테레오
왔으며
탓이다
국가대표팀
밤의
##었으니
특성의
영산
반발이
패리티
560
프리앰블
사우디아
##설립
업적을
바다의
브로모
레이저를
폭의
일주일에
발언이
천이
낮았다
부지를
계류
닿는
불리며
마르크스
##링은
속출
지구를
놀랍게도
몰아넣
FL
거두었다
상관이
도전층
모처럼
다름없
##tein
꾸미
리치
살릴
문구
LPG
환수
##못해
벌레
제어부를
##미르
슬레이브
##업무를
등장할
췌장
바람의
##uor
##술의
BBC
##저감
##레스트
##호르몬
필드를
##메인
쓰러진
UC
칠레
현대모비스
일대에서
본질적인
##일보는
출고
타운
미터
##렬하게
김우
결과의
##증후군
만인
투자자들이
남에게
도시하지
A씨
도루
윤리적
유리하게
담을
##irl
홈페이지에서
##유발
구조물을
탑재한
일상적인
카오
지반
오마
초라
지령
모티브로
공격력을
호박
##판결
마리의
우상
만났을
광교
문체
##이용한
달라졌다
모음
##진료
##항쟁
bar
줄인
##ush
상황에서는
생성한
치켜
대화의
소련의
와이파이
응답을
선거가
생명이
동급
무기는
자행
교차하는
텍스
통학
그럭저럭
돌아간다
그룹으로
이제부터
그분
취급하는
미국에서는
욕구
예산안
아슬
서울시가
마찬가지이다
##내가
렌즈의
책임은
토니
연관이
##입구
##7명
기본계획
기온이
고졸
3위를
경산
##개소
정신의
##트러
331
연계된
철폐
##공간에
저하되는
피자
이루어지도록
업체인
어디서나
빠져나가
로빈
보도에
소재가
타이틀을
치를
문자메시
##렉트
##타니
##이라면서
##직은
가능케
##구비하는것을특징으로
가지지
격차를
이야기의
##멤버
층에
MR
##봤자
보령
못지
처해
생각하게
살펴보았다
싸게
겪게
김소
소비에
나아갈
##용수
가르침
이하에
리비아
성격은
보도가
To
친구와
대꾸
종교의
##질환의
##프탈레이트
갔을
소비가
작용한다
감지부
자민
행사로
대안적으로
문제들을
can
코발트
도피
좋아하고
18세
rad
과제의
##irect
dd
##ther
풍성한
##사회는
##공천
구성한다
관상
실재
멸균
펼치
행사할
##실태
어느덧
Val
카오스
##레저
HC
엘리먼
개념에
카테고
관철
입이
유치에
먹여
문학적
로스쿨
아우르는
내몰
##운동장
총력을
합친
김남
235
조광
바다로
기도를
높아져
rep
일회용
상회
장로
##셨으면
정보로
서비스와
수제
##함수
모두에
##으니까요
##bps
소식에
충격적인
세컨
단자를
유정
통과하여
보여주지
리서치
##청원
연달아
자발적
천문학
이뤄져야
앨범을
감지할
##백과
##글을
처리하기
##셉터
##iple
낮추고
제보
ue
단말기가
##첨가
##기동
안될
시작을
##사항이
470
FF
무작위
장소가
폴리올레핀
정규시즌
양양
##을까요
##캐슬
물질에
작정
몸통
세속
명예훼손
들어가기
꼬집었다
스트리트
탄력을
##남부
9의
##초기
자동적으로
자치단체
유지한다
박람
직격
활동한
기전을
감추지
권한이
평생을
##기업은
매장에서
왕조
축적된
인덕터
별의
밟고
커진다
파악해
뱀파이어
착안
##까봐
##이냐
증가는
어린아이
전쟁은
숨이
것이냐
##실용
말씀드
소속팀
상무는
9월부터
이동한다
이웃하는
이닝
제대
233
소속으로
삼은
하이드록
Wind
##기아
극적인
결과이다
서머
권위를
이점을
개개인의
뜬다
총재
주민들에게
##행에
##2에
발견됐다
종업원
곡으로
##B의
변경될
야심
금융권
Type
경찰과
라이너
##우스를
공극
시상식
##개편
입으로
##연습
단독주택
정문
절반을
국영
테이퍼
코인
등에게
##로에서
##lication
##년월
##제이
중간체
선거운동
흔들리는
지닌다
변형을
##사고가
투입되는
무너진
##하이머
칩의
이선
해결책을
영유아
##각에
들으며
##찮은
시노
##iber
지나고
제어가
동반성장
##도구
##흐름
맺어
질병의
승마
버티고
차질이
톱니
올리브
아니므로
우선순위
주먹을
##영양
마사지
회사로
부적절한
아머
적용되고
국민과
배치하는
들으면
꼬리를
구축할
개최되는
마련에
사고는
들어가고
생산성을
로그인
##IE
인근의
평가에서
못하면서
##2C
실록
형을
아크릴계
##동맥
##릿한
MIM
지나면서
무기력
##ouse
자라면
진출했다
##재산권
코디
개선과
넘어갈
화면이
더불어민주
괴로워
다저
RPG
노린
판매량이
나일
생산한
항공사
표현하고
상승하는
##기이다
##맥스
지자체의
히든
쾌적
욕심
신경쓰
유튜
서적
##방출
어음
성인이
관객을
좁혀
##토토
##방송을
사우스
판을
기관에
팔려
개신교
고흥
신소재
폭넓게
간첩
고충
효능을
감성을
상설
발전이
1969년
요소기술
##기관에서
친수성
##변수
이사는
장르의
변했다
자재
마법의
붙이고
##소자를
##품목
그녀와
쏠리고
Pa
##올랐다
##특성을
##선박
겪어
교재
떨어지지
##캡슐
##억원에서
광선
끼어
듀티
공동의
##우수
자라는
민병
이동에
우연
스크리닝
엔젤
당업자에게
기껏
펌핑
1b
PGA
나경
##손해
미얀마
부위의
##경제적
정맥
##요양
##연승
곡물
불분
애드
있소
공교
305
지난해에
##셨습니다
실현할
이내의
달려가
획득하고
##emb
2명을
##우치
이루며
명세서의
미워
밀도가
##왔는데
모형을
포커스
외국인이
배우가
6번
섬의
해소를
##프로세서
과태료
##레니
청문회
이오
경악
도의회
변환부
동물을
##선관
확인하여
광주의
빠르
들려왔다
교수를
##테이
떨어지면
마블
BE
##농가
물리적으로
선정돼
1963년
여성가족
유흥
근처의
디스플레이를
물체의
##장착
인정했다
결집
이용을
매력이
중진
원료를
제공하고자
주면서
게시판
제작진
패턴과
##ied
##창한
조조
하나와
유대인
##욕장
해외에
집의
프레이
##개는
11년
리틀
무신
##체력
몰린
선구
##ross
드로
##1에
##결과는
시작해서
##루살
있죠
지대
##8명
호흡기
어설
머리카락
13년
이때는
내려온
사상에
영광을
반항
질문이
##9명
Rel
대졸
##면접
##사회적
한가지
다케
엔트
차지할
발암
자책
추진에
피스
복잡하고
정신건강
않다면
방과후
강세를
티아
점거
후인
인사들이
개미
알루미나
단어는
프랑크
불에
##액과
##ocal
남아공
관점을
함락
용액의
가처분
한신
인터페이스부
임종
챔버의
론칭
휴일
##일체
##신장
돼요
##가구가
빌어
##소나
##ve
불허
실크
사이트에
주인공을
CDR
학교와
말려
김구
조업
돌아가고
매달려
##업체들이
계면활성제
SK텔레콤은
위엄
세포는
찍을
##테러
어그
하면에
##무진
전도체
##동계올림픽
도구를
순위가
##플루
감소로
##문이다
저장될
마지막까지
##시작
실수요
말야
##특이
아아
비접촉
##2020
포부를
캠퍼
기대효과
끝없이
뒤이어
청소년들이
도리어
인사는
승하
요금을
HAR
저압
##뿐만이
효력을
모식
사업도
아줌마
##land
이탈리아의
정체성
빼앗아
못한다면
##enn
주장하며
선택은
애착
bi
이규
걱정하는
농림축산식품
아실
1호선
황교안
##포와
19세
죽으면
깔끔한
뒤틀
섹시
돌아오지
##회수
굴착
풍력발전
비교한
인생은
피해량
##ift
연결이
날부터
역방향
짧고
있을지도
레시피
##끄러운
흉내
스톡
혼잡
큐브
##루살렘
제12항에
서초구
##교육지원
횟수가
##테스
직원들에게
도구로
##색과
것인지를
자선
##블랙
##일지도
234
캡처
100명
가격도
##사슬
##합병
물리적인
수신한다
입어
유추
##법적
투쟁을
쳐다보았다
경고했다
아사히
무능
##절이
노력과
기록에
Im
##toc
##분산
나가지
쳐들어
정신적인
##브레이
##ux
건강기능식품
이자를
참가했다
사치
샀다
문명의
콜롬비아
근위
##정리
복숭
시의회
Fi
##구려
가능하기
알려준다
상공
기초를
##ograp
편이지만
브라이언
굶주
주성
파열
연결해
혈당
AN
고른
대차
##그라운드
트롤
역의
필드의
박형
하라는
목록을
핵심인
클라우
##살인
웨이퍼를
엘레
용어들은
##eh
도입했다
서스
CSI
원재료
출신이
충청권
각각을
깨끗이
별명이
타이틀곡
아님을
도시되지
싸움에서
육종
출범한
##관통
의미할
인코딩된
노래는
공감을
아기를
두들겨
중요시
##신뢰
들어선다
##봉의
전라북도
조우
유영
건강과
실현하기
폭파
##활동의
알려지면서
씁쓸
팔꿈
##실릴
수용된
인가하는
##피안타
전후로
##7조
등록특허
##시타
암모늄
##전해
##분말
연료를
보궐선거
코를
##종교
##기능이
315
다녔다
검출하고
유전적
##련한
차마
총무
이재용
데뷔한
반기
다닌다
##왔습니다
##센서를
소통의
MG
지리산
보금자리
세이버
##자극
활기
##우드
##정신을
##스트럭
일행을
형태와
공유할
한국경제
학위를
위치하여
참고하면
OFDM
WTO
터무니
##3명
##복의
##조례
교란
오름
DMS
거품
갑질
스타벅
##확대
##1을
고스트
10201
데이타
3월에
##는지에
인식의
중량을
임계치
일탈
##네이
반찬
##hed
자산운용
편의성을
공안
대응이
##차지
패키징
장원
사람에게는
심근
버틸
무시무시한
용사
##본의
##테이프
어울려
새우
의사는
공손
단조
번은
정이
국토부는
##하는게
충격에
##퍼가
영혼이
흔들어
공예
but
인지도가
벤치마킹
방안으로
개로
##병원에서
충실한
가능하여
Red
하얗
고향인
각계
트라
##패에
##하려던
##침해
보간
막힌
리액
하급
배차
##랑의
화면의
차용
아케이드
없는지
전적
12만
다량
다니던
간절히
변화로
첫차
했더니
자네가
부재와
배설
##오른
학계
직경을
##가스의
노력해
FP
재촉
따르지
던지고
막론
UAE
숲을
확대와
배우자
사용해도
주인은
남산
깔끔하게
##양식
공채
티탄
표시된다
이분
상층
복선
내뿜
박명
탱커
10월에
배기가스
전문가의
730
사실이지만
형성하며
서로에게
디즈니
이재명
실명
##모듈을
트렌드를
공급하여
##혁의
승률
##배로
##가지를
유지된다
변명
##81
박사가
방해하는
일상을
비교를
사슴
하한
##2로
##루프
##ety
##되기를
광저우
수하
예매
오메가
영역들
만찬
달성하는
##상자
지나간
##금고
기술인
서는
##없고
##됐는데
pol
여우
##나라를
억지
##범을
솔레
마련이
뜻의
전달된
##정수
흡혈
카피
감지하여
미묘한
영천
변하고
돕는다
저장한다
##모바일
시약
##동부
##모양
전해진다
대역의
장차
##상대
전달될
산맥
집진
18세기
511
##척이
글씨
운영이
변할
12월에
구체화
운전을
사실로
들어가게
##진다는
아름답게
##전극과
마력
##91
캡쳐
노원
##합금
은신
##교육청이
음악에
2m
달러의
반대되는
부는
뿐이라고
살펴보자
수입차
실험예
보세요
제조기술
때다
over
##티콘
3호
다양성
가로질러
나왔을
LG는
요지를
사우디아라비아
감소된
동작은
1987
##DNA
뿜어
##사용자
##르자
회로기판
사각형
머물렀다
스틱
##이라고는
기대되는
음악의
준수한
개수가
준용
##클로라이드
##ye
전문가를
USA
흑연
##회사로
##굴절
불안정한
이론과
금융회사
느끼며
##ris
##만하게
##근은
##술이
이야기에
모양이었다
되나
배경에
시나리오를
외치는
사장을
감독으로
강세
해부
모시고
반쯤
기록되어
주인공으로
방송국
현명
했다면
교육적
##교육은
그렇기에
##희와
가하여
녀석은
옥사
조작에
나흘
문제라고
증정한다
전교조
건넸
기술적인
코카
측면도
규모에
빅뱅
무엇이든
원안
##공예
##단면
##세상
대왕
##전에서도
능력도
##수아
##염이
사회와
엄마를
gr
기다리
억울한
관광지
Bro
일축
##다만
압축된
##ering
돌아다니
##of
##삼아
범행을
이튿
##2동
망원
##요리
부조
##부동산
여성과
서버가
결단
Sec
팀으로
이소프로필
##우라
##이다가
관계자들은
##대왕
##중앙회
해결하고
그동안의
의무화
도적
신문은
##만화
선택하면
la
##트론
엘라
예시된
천명
예정돼
빈도
달을
##반송
창당
##칼륨
분석할
물어보
필연적으로
12시간
##되었는지
개월
바라고
##건만
대구시는
##세포를
럭셔
나을
영종
##형성된것을특징으로
형상에
해결하고자
다하고
##The
카보네이트
민주주의를
아파트의
하신
##조직의
12a
당이
곡의
그치고
봉건
배치를
##프로골프
##체육회
적용되지
몫을
KBS2
##ulf
골짜
##매장
최소화하기
오염된
아스팔
##거진
드물게
7번
계수를
사쿠라
제독
##ergy
깨끗하게
고르게
##그가
정했다
배치하고
##엔지니어링
메이지
구분된다
각별한
과산화
당혹
주에
##받아야
대관
수탁
포기하는
휘발유
1년이
활동과
감응
통칭
##데도
생겨난
로보
금산
인류가
들어온다
위주
##신호와
살인사건
GO
날마다
빠르다
파장이
스냅
성장세를
묘사가
엘이디
##HT
압력에
비주
템플릿
##링의
차갑
시라
전방에
##오늘
##무로
생기지
##커뮤니
501
sl
##연산
골자로
짓밟
이하가
대우조선해양
달의
염증성
##증착
313
##소리로
넘기는
팬들을
##거부
Off
VC
일한
절벽
##협력을
가져왔다
현실화
##돌았다
필두로
장타
##rame
##마나
운운
##어드
ITO
나왔고
반등
틀림없이
##ingle
##유공자
잠입
##6월
##방정
실행되는
뇌졸중
가디언
걸리
TO
질병을
차입
대한민국은
##됨을특징으로
깔아
##계급
##아무개
단체가
같으면
##ations
김홍
항체의
##해보자
6월에
4월에
##itor
플러
체내
아무렇
비약
놀고
군부
중소기업이
근사
##발현
날인
과립
조합에
지켜보는
축구를
헬기
불고
폭탄을
##1동
광이
돌발
##성장을
히어로즈
일꾼
검열
2b
사기를
비활성
정리하고
지원은
##시대를
##학규
상부로
페이지를
##포름
##변조
경험할
어른이
##책에
공격의
내벽
##피에
서로가
NBA
car
내려앉
비서실
##인드
시중은행
응답이
이브
발굴하고
발명자들은
홍익
감상할
##6명
50분
파면
이순신
도시락
TD
베드
맥스
##lyc
올시즌
##형태로
7개월
봐서
목표다
이튿날
##름한
걸리지
정산
토너먼트
##토크
신중한
바라볼
##였다면
##벤처기업
##녀는
전년보다
##경도
##룡의
고정되고
필살기
붙었다
남원
프레임은
출시를
발언에
성과는
##거리로
총력
남이
pe
대구에서
제기된다
지원했다
슬러리
##백은
안경을
저승
라이언
##use
대면적
열기
입성
초저
개선될
일면
##코인
삼중
화학물질
활동으로
down
최성
무차별
##천연
축에
##4명
뭉쳐
열적
청주시
##죄로
구매한
생존을
선풍
##요법
##홈에
선택했다
괴로
특강
일이지만
##공격력
뜨겁게
배임
퀴즈
##족은
덕트
슬프
용제
마음도
속도와
자식이
조사할
##페인
에디션
##터치
버리지
결선
비명을
퇴행성
ep
##였기에
채널이
들었던
엄지
만루
##일치
초미세
##부터가
간암
노인은
선정하고
그려져
다르기
##벌의
채찍
디자인은
마코
포기할
말기
소설은
상판
직속
##SO4
책으로
##하셨다
저렴하게
##aph
아즈
끼어들
##피드
주관적
전문인력
원료로
여주인
##면세
아니오
길이방향으로
IPTV
브리지
기여하고
폴더
주의가
일컬
##용성
시설의
##순도
##자였던
턱없이
##메탈
말없이
##쿠버
이벤트에
있지는
신뢰할
##고교
##루와
수요에
착취
킬러
대변인
그제야
##범위를
차원이
지지율이
협력사
자연히
동두
언론사
점진적으로
##2014년
김보
9월에
##포지엄
영하
##나라에
1965년
전기화학
학생들과
그렇습니다
1919년
332
단부가
##위상
충격이
예루살렘
##용과
##반대
##uff
방송은
6시간
##범으로
굳건
der
붙이는
##evelop
금속을
Kn
서문
정치권의
클로라이드
##증권은
개연
우즈베
곡률
악마의
울진
절로
대응하고
패턴으로
##보병
맥도
녹여
핵무
소득세
나들이
글래스
토마스
평가한
평가한다
##인지도
##시요
팀원
주민들을
5월에
SK는
확정했다
인정을
모임을
##균이
촉각
신천
조정이
반대하고
S5
이질
정상회담을
믹스
시인은
##02
서너
과제가
올라오는
들었습니다
의논
형상은
직쇄
이벤트는
7을
프렌
##콜라
##iver
미루어
미백
샤를
난무
정은
코믹스
##주사
##지시
소개한
과감히
컨버
공동체의
무시한
관계자들이
이제까지
대담
대량생산
위에는
않습니까
형성하도록
부문에
##9천
승리했다
##이전
##란에
##탑을
가혹
그물
어우러진
챙긴
제목은
로마의
타결
##교육감
복종
움켜
구인
국가로
준비할
다이나
모이는
교전
##카리
만들면
##할인
적분
동기를
문건
직영
구매하는
##ize
차선
100억
반감
##쪽을
된다며
무형
서울은
변한다
밝혀지지
급속도로
##발효
나왔는데
##s의
메커니즘을
했다가
##압축
전방으로
하층
행위로
발표하는
느슨
독거
거냐
시료를
천지
##자로부터
비추
내려갔다
이통
밝기
##생들이
##Si
어렵기
##정책은
야당이
교직원
##복은
##atus
##웠을
과금
##소기업
주식형
404
##스러웠다
헤아
있음이
3∼
진행되어
##신호로
##리브덴
맡을
따뜻하게
##혈증
다음을
참여하지
LV
상기에서
잡아먹
양성을
저질렀
속도에
능력의
점검하고
유체가
조인
사용은
편으로
ELS
Pt
달할
인천국제공항
학교로
단체의
야수
ESS
토착
##소송을
주기도
개최하고
1962년
##클린
8월에
교보
##스위칭
##정도로
뭔지
기록했고
공격한다
선뜻
픽쳐
글에서
##청장
먹이
##대륙
그때부터
분야에서는
내면서
홍대
##직의
논란의
##거티브
어마어마한
클랜
일만
수박
##지라도
하늘에서
플레이가
어촌
산소를
##나물
##성우
##RAT
El
어쩐
생김
함을
##소재를
업무협약을
TE
##짐으로써
공천을
서바이
상승에
##시딜
Rob
단부를
한계에
##크루
위상이
##정권
모릅니다
##방식은
##초는
막론하고
꼬박
##건지
스쳐
퀘스트를
난입
섬에
Mark
강변
##결과에
##비시
먹어야
##9000
##코트
##ler
##목록
제공했다
자기소개
##해방
##균은
관리부
D1
봉투
##축과
##깊은
잘생
주의할
##ocial
대서
##슬라
만곡
1967년
공지되어
이한
천연물
효성
##궁의
해볼
##치자
자들이
본체에
##지니어
현재도
여드
##타당성
시도하는
##선물
군수는
성에
재계
유입구
감당할
상상을
유학을
통용
어떡
##르드
가입할
##소비자
죽음이
보고서에
위함이다
##중심의
불길
전자빔
심플
추세를
넘기
절반이
이틀간
소실
아레나
##파운드
캐치
크랙
##되었다가
암의
격렬한
안아
출력하고
BN
유튜버
##Al
이름이다
테두
지속적
카타
Mon
불거진
롤링
컬렉션
페인트
이음
총회
콘스탄
##호에서
이름에
정체가
창문을
CDCl3
놓을
탐욕
굴복
이효
했어
공정과
위원은
##관찰
500여
##행은
제24
측과
발전시켜
담당한다
민주주의의
##국회
권익
뿐더러
쓰이고
스트라이크
화소의
갈등과
재회
확연히
정당의
알츠
영리
당국이
마이스
##실습
감금
##미안
잠재력을
성숙한
프로그램과
프로테
뽑을
개봉한
현대제철
정밀한
학위
조성하고
활성층
##기술과
##rist
일리
자정
##전설
도트
중요하지
있나요
##종양
고리를
뭐라
전폭
Day
천년
##압력
무슬림
8개의
약혼
재일
얘기는
##대회는
7억
유휴
명단에
검사는
모나
방문했다
추첨을
받던
전자기기
드물다
광경을
로맨틱
대안이
바꿔야
원금
##겠네
오르내
20의
##펜틸
새정치연합
장내
참된
Stud
##UR
약칭
##전도성
실천하는
적으로
##ck
매듭
회의에
지우
전망도
장마
##임대주택
군림
털어놨다
JR
Aut
유일의
##mission
##irst
누구의
세월을
시장으로
둘러싸는
수행하게
않음을
##민에게
##Pa
유수
전반을
##뿌리
지시에
수와
##로선
셀룰러
##영향평가
##지방경찰청
##스테이션
##허가를
##150
돌아온다
노력해야
새누리당이
빠지고
떠나고
체인지
비료
않으려고
이것저
미즈
유의해야
미시
자막
Bar
덩어
돌연변
위치되는
현상으로
플레이어를
Out
원년
미끄럼
##문자
분석됐다
##스러울
UHD
this
CNN
생생하게
저속
##개입
선수들에게
양해각
시대는
모친
바라본
마땅한
##퍼런
잠겨
전자의
모드는
눈길
##등과
한국전력
객체의
디바이스들
##카드로
연구용
해결에
##차트
264
발굴해
##iff
##커넥터
알아볼
악역
DI
지어진
장학금을
##트로피
리더십을
렌더링
##몬의
##채무
과학적인
네거티브
이청
활용되고
표면은
5명이
모아서
##방식이
13은
오른손
정교한
어처
신나게
잔을
1980
무섭게
디에틸
현실로
감정의
효력이
OB
##마력
공휴
##겠나
맛볼
##번은
하겠습니다
##버거
항암제
면치
투자는
원단
이겼다
##기구를
흡인
잡으면
Er
박씨는
가구의
합의에
탓인지
목적의
잡는다
##ournal
관문
PG
추출물의
218
##ublic
자살을
음주운전
댓글을
##장치로
보더라도
엄연히
형법
그림은
보였지만
때처럼
주워
5층
##형태의
의지와
공통된
묻은
빌리
아동의
날렸다
##문학의
아파트에
고뇌
감이
엉망
김관
지팡
해발
응고
Ra
명령이
교육부는
밝아
초빙
은행이
영국에서
##대학의
보훈
##ysis
생각해서
펴고
M1
금속의
통전
라인이
공사는
서대문
동안은
이토
##축이
재료에
##주의적인
용인시
S20
운영되는
체제가
##리아가
분할된
카와
##대신
파악한
어려서
##술은
대학과
프로젝트의
모은다
질렀다
책임지는
그친
한없이
아빠는
영덕
##개인
헤매
에밀
평활
행사에서
만나기
유발할
불행한
##리스타
분석한다
5점
후단
##겹게
공정위
공평
중거리
반응하는
개념과
##알킬기
칭찬을
땅볼
전년도
민원을
왔지만
##스테이트
아쿠아
상수도
무관한
뒤섞
글라스
들린다
##갖는것을특징으로
20명
##발사
중으로
##5명
통일부
수집하고
애널
##장구
얽힌
그리워
vitro
이문
##1로
구애
블록은
선봉
지도부
유익한
행위의
야구장
##리조트
면밀히
비판의
매출액은
##프트를
기본적
##캠퍼
유기용
Fil
소양
##아들
인양
##비나
월평균
##버넌
쉬지
##표지
생산과
PW
Ta
심리학
##곳은
관심도
##격에
역시나
1건
갈등의
함께한
820
가능했다
혈중
##조직을
등장하며
이펙
##port
용출
15세
로스앤젤레스
##지수가
##열은
FT
정할
학자
##실천
10m
활용하기
하였습니다
따라잡
거동
섬세한
14년
##욱은
음악과
득점을
##검찰
친이
시도한
프로그램도
원한다면
레이싱
성공적
##살에
일람
##메르
마음속에
별명을
##표에
감염된
청원합니다
몸무게
단말기로
서재
진리를
버려진
공세를
사옥
예이다
##글로벌
오타
자사의
바른정당
마누
내면에
인서트
##문제로
은행에
지원으로
격추
모사
##가구로
과자
무모
##컵을
시연
##케이터
변호사가
벌을
ne
##돼서
방식에서
운명의
독일은
한식
##코프
자사고
5월부터
축전
##체계의
##오피스
##가수
방송인
로렌
##파인
약해
유지하며
##염증
##되어도
멤버로
표현되는
##카라
##스트리트
계명
전부를
화합물과
완성차
유도하고
주게
동생이
다량의
몸매
##ideo
소비자들에게
심정
마취
부산지역
##행으로
시한
##검정
별이
##금형
일부분
공권
sens
산의
방법론
연계하여
제13항에
169
##객이
사무실을
칼륨
##품과
자기도
산업은
인생이
##ector
##플링
device
제조용
챙기는
정하여
멈춘
환류
결정적으로
##정동
##dr
목소리에
사회과학
##정보는
생산량
박민
20세
횟수를
국정감
dep
##주석
일렉트로
##마그네슘
분별
꺼냈다
서구의
입자는
카세트
반란을
##MI
##걸로
LG유플러
여건을
편에서
당국의
틀림없
##회사는
발생시
기업체
MRI
밝게
다단
바우
반영하고
##래가
중이었다
혐의가
LO
브래킷
시외
출연하는
대우를
해병대
강타
##미션
일정으로
226
##운동은
##시설은
피카
혼합물에
국민은행
상반기에
용량이
한탄
저면
사용자로부터
아니냐고
제4항
##법이다
채운
쓰일
페라이트
2030
집중되고
티켓을
받쳐
발판
점검을
##만원이
이불
##미국
##나도
##하부
약정
올리고뉴클레오
버스터
##폴드
##pr
살해한
캐스터
제200
스폰서
조원
##비율이
##명인
결정하도록
2TV
25개
도출된
업계에서는
레귤
비과세
지난해까지
성공의
##ents
기업에서
창업을
##단체에
MO
풍속
알킬렌
잃을
##가니스
놓지
충청남도
붙잡고
계기
해외시장
국공립
수학적
싸운
체제의
세련
돈의
용역을
힘들었다
예술적
멤버들의
자격으로
##업체는
하는플라즈마
자릿
액화가스
아이템으로
문제였다
누리고
신음
##처분을
치렀다
##여도
올랐고
엑소
상관없
어김없이
태도에
챕터
천정
주유소
심장이
증가하여
선발된
외벽
채우고
18대
환경적
세계화
조합한
R5
반응하여
사유로
윤종
##내서
아니한다
지갑
헷갈
입학사정
카메라가
파워를
발판을
하는휴대
장동
안전에
부모님이
생계를
화살을
##럭스
##해선
원칙으로
내서
이전과
내심
마무리했다
얻어맞
##SC
소통하는
##포인
스토리텔
5세
성격에
떠나지
남극
자부심을
다방
연구기관
쿠션
채우는
##주의로
##지는데
건설사
누군가의
개성을
16년
공간과
뒤흔
보통은
##군데
SEM
숫자는
##공간의
뉴욕타임
정체는
케미
조직은
동백
행안
안테나의
프랭
세포가
Sk
MIMO
푸틴
##쳤다고
벙커
드러낸다
프레임워크
불완전
##련은
##막한
##매니
3과
##오며
##램블
##단계로
##보면서
제작하고
본보
##방식에
통합된
power
##ley
두터
단말로
지금보다
Global
생명력
대선에서
가정에
##어버리는
도광판
한쌍의
리소그래피
3라운드
더민주
두개의
사연을
연계를
흐른
##St
노선은
##갑니다
아부
느낌의
##율도
요구하며
델타
설정에
이벤트로
예시적
이희
##스토어
Us
품에
갈고
장사를
2030년
부어
의존하고
##ines
PUCCH
헌법에
##쳤을
빈번하게
완벽히
고층
종영
남북정상회담
급증하고
시어머니
##효가
기지국에
일시적
민주노동
방송되는
##be
##분해성
##피오
못했
자폭
새벽에
루마
추세에
올리고머
위원장을
노릇을
주민자치
최단
화랑
디옥
목요일
스님은
허구
시립
명분
아들과
연이
##부패
논란은
리뉴얼
가소
작성된
영화관
간파
군대가
한잔
Ox
건축물의
##분열
못한다고
채우
예방할
##대며
에로
오르면
##인정
도입하여
유지해
해본
평가와
##TN
유지하도록
마저
정중
##다녔
토대를
원숭이
형태에서
숨기고
6a
##신체
필수적으로
##았어
진입을
##역이다
##gh
배는
unit
국회는
펀드는
##보세요
##언스
마련하기
중단하고
엔티티
유공
억제제
돈도
D2D
##시인
##kW
빼놓을
##일한
##산업과
3명을
신데
영국은
사물을
만나지
2021
개정된
돌입했다
선에서
##국가의
대처할
mRNA
##처에서
##려던
총선을
예비후
때로
아프가니스
스릴
5에서
910
의식의
##평이
##인쇄
떠넘
적성
수위를
공직자
인간적인
KAIST
시너지를
##6년에
방황
어우러져
서양의
접근성이
지방에
##버스터미널
##rd
##만원에서
용지
##학대
2단
음의
평가받고
습윤
지속되는
호소하는
##하십니까
시행할
인물들이
남경
홀을
부드럽고
##손가락
지속되고
가격의
유저들은
##그릇
시리즈는
##수산식품
존재한다는
유저들의
제때
성산
김효
이케
##개혁을
비드
##논문
숭배
안았다
광고가
방법으로는
패스를
경의
경쟁에
사상은
존슨
박혀
##수단으로
약학적
면서도
수년간
류현진은
##교체
6월부터
하와이
##남에
##거린다
전에도
브로드캐스트
3경기
튀는
1800
##ates
과학의
반송파
나타났으며
멘탈
아깝
알면
##오르
멤버들은
법이다
6자회담
먹이를
유착
함선
##피온
##퍼드
구워
높지만
파랑
초전도
##네임
끝낸
호감을
##문화가
수순
덮고
안심하고
예시한다
사람처럼
Pd
미흡한
반포
담체
힘들다는
0이
그쳐
시조
막지
요크
##1과
##날개
증가함에
주최한
##anced
서스펜
고운
60여
풀리
##멸의
패키지를
설치가
그칠
##부서
##병원에
둘러싸인
##자료로
모비스
기수
일대를
맞대결
GL
표면과
##경제가
sur
적기
소용이
불충
일상의
##보정
소원을
##베스트
4주
인플루엔자
치르
##분야에서
그러고는
상태와
##CE
이밖에도
축제의
자신들을
##학교의
굉장한
아폴
모세
센서부
확장된
##tocol
Cont
두부
자초
길이방향
쓸데없는
60년
##수준의
마련돼
방법에서
많았지만
지인
시크릿
향상시키고
효과적
##ivity
폭스바겐
html
##기준에
컨벤션
##실러스
##설과
나기
##진화
위협이
무성
##음성
2명의
저조
피처
유배
파편
##개방
헌법재판소
통기
##득한
도시는
이것저것
확률을
구성요소에
이철
##전반
붙는
##떨어진
Id
플레이어는
공개됐다
인원을
엄격하게
SNS를
최민
좋아하지
GA
##교로
드러났
만나볼
국회의원이
위험성이
분산된
##8조
보행자
가며
전략에
짚어
그렸다
##수수료
판로
##공장을
알을
해골
##마블
예측하는
세일즈
종사하는
드라마의
개발되고
높이의
대미지가
교회가
국민연
분은
냉방
모발
소를
##VC
사람이라고
있지요
바빠
##바야
가져가
원어
의병
규정은
##리에게
##통한
식물성
##망과
없었다면
대비하여
지정을
##트럭
구분이
승온
장례식
쇠고기
한국사
푸르
##마모
손학규
증발가스
돌파했다
뿐입니다
명동
특색
국내총생산
##관한
##바와
##하나의
Lab
형성함으로써
부족하다는
##광학
##운은
전원의
시행된
제1항의
부패한
##집중
사태로
엑스트라
##호도
이때의
필드에
곤란한
정전기
이쯤
##볼넷
따위
열전달
내에는
요오드
최근까지
외국계
8시간
김석
단번에
없애는
##몬스터
이목을
##oot
##함유
익스
성장해
쉴드
샤오
##만원이다
야쿠
기억해
신분으로
##수단과
##배구
카미
이곳의
마을이
SB
유니크
어렵지만
그지
북측
고루
17년
준비해야
파트너십
정의하는
어학
다가온
누군가를
다원
본다고
cap
리세스
##유동
떠들
나가면
행동하는
컨디
솔레노이드
연구위원은
##전극을
##조제1항에
대본
##4년에
경고를
사람들로
전화로
티저
le
아름답고
모터를
분실
선거법
사람이나
낳았다
불복
전량
보통의
것이지요
가게를
발각
프로젝트는
다룬다
2장
장으로
증가해
모델인
앞에는
##탄에
꼴이
##토벤
##옵션
network
재확인
인터리빙
쌀을
##사장
자유무역협정
##규의
교회는
언급하며
플로리다
외환위기
지원한
1도
청와대와
##바람이
1986
##하시고
##적층
내놓는
수업이
궁금증을
요컨대
##5000원
이름만
것뿐
답답한
레닌
치료의
취임한
테일러
지급한다
플런
마음과
통합진보당
##주공
파란색
가치에
양승
사회로
수조
단기간에
##공사와
아테네
저에게
반영하여
도료
청와대의
시작될
시간으로
맹세
10월부터
탄도
##있지만
##연료전지
Ver
##SK
가히
압수
자리로
Sl
##등기
주민과
배웠다
택시를
1조원
가까스로
##우스가
잡아야
생성하도록
##시설로
라이브러리
##변동
해결될
그것들을
기초생활
조각을
##진구
제니
고농도
##라면서
사업시행
등장인
경험은
##최고
알츠하이머
청와대에서
X선
내면의
되어버렸다
제목을
섭외
그만두고
##제에서
##웨이브
가뜩
맡기고
255
작용에
쏟아졌다
양측의
계산할
##아연
##커피
##전국
보던
경복
수고
부리는
스리
살을
정제하여
식중독
당면
피아니
받거나
약물을
##만t
봐요
펀드를
분자의
최태
미끼
##해는
구성도이다
승리한
##파장
조직과
고위험
있으면서도
##ube
##가이
센서에
##주요
##블루
업체들은
마니아
주변에는
끌어당
강아지
통신이
AG
##가슴
로이
가리는
보기는
##도한
국감
겪을
##남의
강화와
이타
사계
품질의
균질
##atter
카메라에
##V의
나서지
해상도
업데이트로
초조
윤성
여인의
차지하며
유형에
m2
곡명
궁궐
##불리
우리들은
잘못이
##지상
관련되는
식재료
회전시키는
닌텐
대구지역
나노와이어
남들이
하사
특정의
치환기를
##아크릴레이트
이뤄져
화재가
##노에
오염물질
##uch
IgG
얼굴의
감사원
##현재
검증된
부동산을
##퍼는
정자
##가구를
갑작스럽게
##라인이
##청소
사용자를
필수적이다
031
동축
##상황에
기사의
##ould
경영에
##암동
공정으로
##amb
공론화
젖어
IOC
제1호
프레임이
위력이
##표시장치
##효과는
사고에
급속한
##ination
모여서
##114
##ogen
눈부신
따위는
경이
##나미
서번
인식과
Gen
측면은
##노동자
열쇠를
됨으로써
재계약
두근
일인
해달라고
집약
부직포
특징에
부르기도
경로에
##에른
##검진
기다려야
T2
머릿속에
##마련
대금
아님
추월
##ivo
Fc
기체를
중위
##였어요
명단을
저하를
가뜩이나
##사냥
자본의
평면도이다
7월에
다니면서
침범
##RD
##검색
동종
##수립
접하고
##타인
##투성이
##학위
맑고
본관
난치
선한
치러진
섬세
##카이도
직전까지
##년월일
둥글
##사회복지
평가도
중상
어벤
깊고
근로시간
선수와
재외
획일
콘덴서
받도록
##세트를
멋대로
학창
중대형
사탕
활성화된
설이
세계대
##round
##메뉴
##라이프
돌릴
##돌출
일반적이다
전송하도록
상온에서
Pack
블라인드
담합
이용자가
설치돼
눈치채
팔라듐
##개발에
##주에게
노출되어
한정하는
세대가
박기
공교롭게도
뛰쳐
유태
##dm
##겨울
무대가
밟아
증강현실
개최하는
선택한다
글쓰기
까닭에
정석
멀티플렉
데모
부하를
황당한
##WC
업계는
어플리케이션을
##레타
##ng
제25
음식은
##반도
로의
슬쩍
돌출되는
##ump
군을
망간
성당
결실을
서버의
계산을
1961년
분류된다
직원들을
살충
아릴기
부득
2차전
유연성
수자원
깨뜨
명인
우여
##구청장
WS
밀가루
소녀의
꼽을
##디바이스
화려하게
등에도
물리학
동해안
##MB
##완료
##상업
엄마와
브렉
경사지게
##행위의
##률의
##문화재단
##LR
팀에서
실행에
신성한
##택이
윈도
##사이에
##피롤
##치킨
평가된다
##팀으로
종점
##훈을
힘써
한겨레
되는지
마주보는
자존심
키움
##관측
다녀온
##경기가
됐을
개발도상
##화성
홀딩
밸브를
##소송법
자발적인
하반기에
##인력을
##공사에
보듯
카자흐
명실상부
정대
##마리가
결함이
수집한
페이스북에
보니까
저탄소
Star
초과하면
늘렸다
##끄럽게
가르침을
만드는데
##보리
##ions
like
걸맞게
대표팀은
사상이
선반
##건과
여자친
못하기
마지
확인이
스타일이
유쾌한
유지보수
이제야
우려했다
더운
스크래
상자를
진심
##설턴
해석하는
해법을
##주체
활력
교육과정을
실시형태의
국내에서도
유틸
##국립
강압
패킹
마트
여자와
신속하고
시야를
기재의
탈환
활용하면
거쳐서
도깨비
나니
했지
레코드
특권
##어라
역사에서
프라임
##회차
##함도
이상이다
기회에
김미
예고했다
자국의
퇴진
우수하고
생성된다
만화가
졌다
변동이
##복원
업무가
만나러
##나드는
제스처
시리즈에
보은
음란
통장
블랙리스트
흐트러
##히면서
물음에
에반
임베디드
##갔을
면적의
설명과
mon
발부
##원자력
다가올
잡아당
독립운동가
재미가
Ba
출력이
사무실에서
안전과
타이머
집요
웃으면서
##In
점유율을
갑작스런
##귀한
말하면서
개념이다
##리우스
Do
인버
선고했다
진다
임진왜란
단종
성격과
계획대로
달인
Tw
##데르
당직
설문조사를
동거
부적합
기관총
209
지구촌
##블린
도요타
깃털
##기업과
마포
##라인에
5가지
##어가는
##갔지만
우리나라에
##체제의
부결
인수한
##입찰
김부
청송
동남권
트러블
비일
평가하였다
치부
에그
배부
잔인한
급성장
설정하여
결혼이
언론을
소득을
##자리에서
종목을
타인
넓어
파우치
고밀도
##분께
대승
조치로
4년제
참가할
노력에
##스틸
6조
언급하지
릴리
##ynam
교통안전
연출을
후일
단계에서는
기대했다
네팔
종말
##취득
솔직하게
가져오는
대역을
##래는
내한
예보
##로프
대체하는
게으
가능함
방안은
##순위로
플레이트를
것까지
비용의
##유치원
표류
hydro
신분을
마키
레이블
##ealth
기묘한
BA
조항을
소관
고3
공문을
단속을
치르고
신문에
무지개
증진을
공급원
##들게
일컫는
일제의
협의해
데가
생활체육
되겠다
조차
##케톤
계속된
무술
유무를
서로에
##문명
##준다는
##오도
생성될
미노
##2명
조미
말했다고
목회
##망은
나눴다
신촌
1949년
충고
##수화물
기자의
이데올로기
발돋
센스
보상이
##방법이
카탈
색상을
##B는
##되는지
##130
금지하는
남아프리카
##때마다
조속한
검사의
##사실을
외교적
나르
세수
##레이저
프로젝트에
박힌
바비
코레일
##클러스터
열의
제어기는
고구마
받아들인
소리도
어쩌다
구동을
가든
물체를
##니에
##하십시오
어닐
##해지면
기름을
주민들
제조사
기지국의
지역이다
두려움을
2위로
그러기
기계를
##처리부
야만
투척
공부하고
마음가
기온
화성시
##지원사업
종사자
경사진
사랑해
로봇을
맡기
##ESS
뇌의
부인의
우여곡
지수는
확장을
##공고
따르고
당선된
디폴
##시키려
경량화
은은
여름에
field
공격해
경영권
확률은
디자인으로
보기에는
기다릴
##란스
불안감을
##애의
이단
지배구조
##각도
거래소
##이었다면
##놓는다
노력했다
Sol
청년들이
실태를
잔잔
위스키
##alysis
강연을
대량의
##신문은
##대상이
시그니
Har
김학
##me
틀림없다
찾게
##법도
무엇인가를
건수는
준다고
보도자료를
생리활성
아디
##회로를
터질
##ME
지칭하는
5명의
구성했다
주목하고
감소할
획득하기
종류는
본원의
##사령부
액세서리
혼다
인식은
메르세
싶었지만
##노를
언뜻
Pe
끼친
동인
판사는
차례의
Journal
##any
활동했다
끼치는
베토벤
이소시아네이트
시즌2
엔진이
나왔지만
제도다
style
단체는
HPLC
DMSO
대물
눈에는
주중
##금도
##5의
이론의
해시
들어야
전주시
진료를
통역
##익이
골절
도시개발
소자가
옥타
##달을
당을
도로가
체결하고
시인이
금고
작다
취지의
##구만
주도로
4승
자손
##샤프트
##급은
##골드
##퍼시픽
할머니의
연차
메트로
페이퍼
자아냈다
덩달아
사고와
엔지니어
문화체육관광부
용기가
위상차
현대백화점
빨간색
##g의
지역별로
음악은
두껍
희미
경기도는
갑작스러운
계층의
장치로서
제작해
기울기
사학
##자형
레몬
주일
메카니즘
탔다
##맨은
케네
경기에서는
##작업이
앞에서는
수출은
반발을
##영수
농지
한국토지
환불
직접적
지침을
공진기
##움으로
글의
터지는
##크에
경합
##임계
##염은
방출되는
아르곤
관리와
Life
햅틱
##예가
생기기
신경세포
자이언츠
절연체
순간이
갑상선
무리를
행동의
기쁜
발생이
날뛰
##으시
예년
##해충
게놈
들리지
사례다
명료
편파
거두며
미사일을
주니
협상에
3m
##연극
일으킨다
냉전
1950년대
유의미한
충당
기술이전
차명
##자치단체
서독
할부
부정하는
기믹
그루브
##유래
챙기
##불량
생기게
##신고를
아시아의
##쉬는
주인의
결승전
##무스
언급을
##배당
스티어링
화답
모두는
중국산
##창은
페이로
문화는
바이에른
영국과
선발한다
살지
dec
포름
##가드
##미스
운행하는
2위에
김신
인권을
안무
인천의
내밀었다
Air
##당시
사이코
노동자들의
##ctro
##침이
늦어
적용한다
감귤
업무협약
##오토
조문
##버스가
삼을
반영할
VH
노조의
대기업이
조명을
sol
워커
##공구
추대
조합은
##측면
2이닝
딛고
편은
입력하는
C20
셈이
차장
리바
이범
공의
##주기를
충방전
공부에
김시
##만원대
마셔
블룸
우리들
레이아웃
교회를
외치며
개국
섬을
아버지에게
흡기
##클을
##먼지
손가락으로
LIG
비박
##갈이
유망주
운영체제
발매되었다
단체로
##무효
##arget
매혹
##프탈렌
배의
타쿠
대선후보
방호
앨런
사춘
측면에서는
##노라
통해서도
박막의
부위가
성과에
인체의
무선으로
부탄
지킨
건설에
불륜
송파구
##또한
결국에는
구의
##단한
수비를
##생활의
3초
농도로
위험도
MI
##돌을
##장기
커브
유럽과
수치는
구동모터
오토바이
장본
달리기
극동
장흥
닮았다
쳐서
##물가
상품권
부장은
영화로
우승한
글루코
##환경의
달해
연주를
논쟁이
투자와
미션을
시작부터
계획도
선후
별지
트립
대법원은
자존심을
박막을
##피리딘
##만원까지
서비스도
싱크로
나보다
##천사
버전이
연구팀은
해라
박희
나가겠다고
민원이
반동
문제해결
그것으로
##PR
##볼루션
구속영장을
개발하기
달러에
##cript
경기도가
신호들
상대방에게
Team
결론적으로
##손상
주목해야
재능이
del
성적으로
개업
평생교육
일당
이론은
세단
체계적
##슨을
연설을
VOC
장외
아이덴
성리
류현진
지장이
무방하다
##데다가
사용하던
##디와
되살아
역습
##올라이트
나노섬유
제주시
주한미군
요미
정의하고
객체를
저녁에
##인수
엄중
##납니다
호기심을
##자리가
집단이
9명
프로축구
Fran
달랐
부호를
국경을
라인은
치른다
거인
내역
키우기
벌이
축합
친구들을
활기를
버스트
거푸
현대캐피탈
경우이다
디저
민심을
활성화와
프로세서에
블러드
공감대를
송영
원딜
##테니
##론에서
사각지
처지에
##죄를
도입하고
##가능하다
시합
열매를
시니어
구석구
천황
고객과
장기적
3일간
있을까요
##ring
유로존
미래형
입출
연구로
것특징으로
의미하고
부여할
가창
##상블
##업체와
세부적인
배낭
자구
##내용은
삼성물산
몸에서
시각에서
맞선
##평의
군민
아껴
타지
도난
##갔던
춘추
##마치
전압은
감소가
데몬
##해보면
##치료제
내열성
이어지면서
하늘로
Eu
리그에서
가구가
친밀
말고도
개나
갈아입
##장이나
개정안은
살펴본다
##리시
##ino
져야
기관을
##으라는
바르게
느껴질
##6조
슬림
향상될
##ason
원판
폐지를
폴리에테르
부근에
사적인
##비만
##피로
1차전
취업자
##ycl
고출력
##킨슨
개인과
접촉되는
화보
##ized
##영동
인간에
얘기도
이론에
##실시예에
유소년
제약을
입력이
장안
##놀이를
중소기업에
지지부재
비판도
플랫
##2016
원장이
부산에
부여된
기한
순례
들어있는
TiO2
생명과
동유럽
식당에서
미숙
옮기
트윗
우산
사용되지
수지가
애용
mac
순서에
서슴
절실한
##하였기
##대한민국의
##보관
취직
유라
표면처리
기회는
싸늘
재조명
##uter
##itive
##소득세
끝없는
박승
##특정
미래창조
##stit
WWE
쌍용차
##부장은
낮춘
무등
시신
품질관리
11월에
나가겠다
내건
열등
갈등은
고통이
##pc
도면에서
Adv
대내외
##irt
##하와
##민턴
만들어져
동상
물질적
안되
검출하기
그외
비용과
세뇌
##소음
##지역이
신뢰가
장비는
아니하고
희생자
국가들이
통폐
조치는
트리스
개발되어
알아듣
인상적인
도모할
##편과
리간드
사태의
절연성
##리덴
포함하면
##페리딘
분식
##지지부
추징
제2조
후방에
말미암아
##욱이
테크노
국민들
##보우
##장면
##03
##이었어요
##물에서
믿음이
will
간다는
11에
대통령도
1984
##전극의
현상이다
바뀌면서
##엘라
버스가
치닫
##지방선거
##목은
어리석
나타냄
쓰레기를
##궁을
손님을
했으니
##유와
방영된
역삼
60세
내시경
7위
파운드
##인력의
스위치의
시뮬레이터
스타일링
높으며
상원의
신발을
끊고
##제로는
##캐리어
연결하고
겁니까
계엄
고취
사용되며
미래는
견해가
주최하고
발견되는
중고차
닿지
한국수
회복이
전방위
##물질로
만약에
범프
우즈베키스탄
##잡고
강박
기하학적
크레이
어린이들이
도달하는
##홀더
사람들에
제2회
오스만
어퍼
요인에
굳은
1985
국방부는
생쥐
##규소
소외된
한양대
2세대
금품을
##공모
##계획의
충동
##관리가
안된다고
##균을
##머신
슬리
폴리뉴클레오
모시
245
발걸음을
pd
왕을
대대적으로
딜레
남북관계
회의가
포함함
##범위의
내비쳤다
심혈관
##제나
끌어내
분과
존재감을
오가며
목표에
필름이
청년이
황토
##담은
남쪽으로
하측에
##준을
##ral
노력한
넣으면
업무의
수용되는
정의는
불균형
명사
꼼꼼하게
##룩한
##장려
파악하여
확인되지
##1명
오래전부터
도자
opt
번만
##모니터
예전의
안이
재기
##공대
다산
가파른
법관
##본부가
9개월
성직
##세이브
전이금속
##포도
성격으로
교대
##리그에서
담보로
##만원씩
##있어서
주장하였다
살아가고
선거는
하지는
하시는
트렁
##보급
세르비아
받아들였다
왜곡된
##경기장에서
##국수
비명
유격수
견지
능동적으로
##eel
걱정하지
부통령
문구가
##에게로
풍자
##도리
다름없는
지배를
박사의
공장이
옥상
초인
##성취
몸짓
벌떡
##형사
유지되고
옳지
이씨
공세
나리
밀도를
40만
실패하고
동작할
소변
건강이
인허가
##양자
개구부를
배척
적용했다
공급될
개혁의
출판사
##eph
##아슬
NACK
여지
##포지션
판매할
연평도
70년
빚고
10개월
하늘과
BD
오르며
하느냐
##허브
##다오
##칼라
##급히
##내부
어댑터
서장
의대
##토류
당나라
선순환
택지
단자가
선택되고
가열하여
우위
##탄생
다가와
IBM
##L의
마을로
펩티드
너와
##학교는
선행연구
지역적
써도
오다
선택과
##TRA
토르
##예고
##예선
주도하고
electr
일품
삼성전자와
금정
스파이더
성이
야구를
대신하여
ev
sil
넘길
중쇄
만들었고
PBS
공대
기간의
기지국은
vivo
위해서였다
구청장
안과
가결
했으면
이어가
됐지만
주인을
##보다가
침대에
A를
속성이
다우
##구장에서
죄가
3자
첫째는
##차기
자세하게
기술한
고정될
빈도가
작업의
이슈를
프로토콜을
조성할
불이익
케빈
코일의
가르치고
투약
##쪽이
따지고
원룸
확보와
##이미다졸
아리랑
강우
##연설
예열
308
똑같다
특이적으로
지면에
고정된다
##코리아는
RB
##버리면
##플로우
감산
아들에게
sn
녹차
##I의
예상되고
요소들
클레이
신흥국
파우더
##기일
시원하게
강점을
흑백
##플을
미수
배아
레이디
다섯째
##희정
##봉은
##샷을
몰아붙
조력
아이디어가
만져
풍선
박현
##남은
##단계는
반대를
향수
입게
비산
한국전
개인용
반복하는
비행기를
GB
공지의
거나
동독
낮을
수요일
깔고
한수
금융상품
##2013년
나이프
작별
그중에서도
도자기
##9조
##도다
지지하고
##근한
##수산물
##버렸
하나님을
초기부터
대타
##당초
비정상적인
인용해
면에서는
위한장치
주정
경험에
보호층
1946년
몰리브덴
발광다이오드
에드워드
간장
무죄를
어미
정을
수집하는
##퇴직
실체를
##이었기에
성황
스킬은
뒤바
##안타를
##공약
논쟁을
유이
블러
진급
제작진은
튼튼한
Super
##은행과
겉으로
산물
삽입될
625
구분하는
타르
티어
닌자
손아
모집한다
공동연구
##발전의
강인
##임으로써
##7년에
실현하는
고소득
나이지
가사를
만족도를
것만은
##군인
8억
띄워
저장하기
버금
##마이크로
양재
파장의
421
##사령관
##재단은
이야기할
무분별한
행정안전부
5000만
반응의
##했듯
맞춰서
##호기
포스포
IBK
PLS
다공질
순서도이다
##채는
고위급
병기
에미터
쓰면서
크랭크
##rough
별을
면의
##국이다
검토한
소듐
홈을
할아버지가
소포
무의미
끝단
울산의
홍명
##04
##생물학
러시아는
논문에서는
못하지만
하듯
##마침
안구
자화
##공공
##세계의
날의
말에는
자꾸만
대한민국이
하우징에
지정하는
음성을
##보호법
늦추
PEG
김씨가
조선인
주교
내던
몰리는
백만
도달한
있단
포함해서
두세
성북
##용도
중남미
발길을
압류
향을
##부분이
##ISA
장관과
즐거워
##모어
형은
##주기도
메이드
박해
선언을
시계를
##먹었다
아츠
##웨이트
나라로
구는
많으면
빌보드
채울
##금액은
스펙트럼을
고산
저금리
##경보
히로인
호화
##장이다
임상적
레그
정의될
##마냥
10b
독자적으로
포스코는
무수한
상에는
일단에
Sub
수성구
커리
Spec
정성을
확인해야
신당
시간동안
용암
##다보면
##자였다
불로
불타는
치열하게
마인드
독소
사건에서
혁명의
##아키
##Ga
지적에
행태를
Display
책임지고
##했죠
민족주의
원작의
쓰다듬
순조롭게
테마로
파괴하는
계파
다친
P2P
등교
18년
FD
적정한
##들였다
드러나지
엔터
행한다
미투
없기에
대답은
##형상의
##공주
침을
무장한
태블릿PC
집중하는
친구들은
##mon
보르
일등
불안을
사안에
훈련에
보수를
보자면
모듈과
깊이를
부끄러운
콘텐츠가
권력이
진성
##투명한
조금이나마
부설
아니었지만
청구할
말고는
올라가면
이국
좋은데
##일세
함유되어
light
갖췄
법으로
재위
##아이가
확보된
펨토
회원이
황폐
##공격을
##선한
고를
직업이
비트를
##중지
##동포
확진자가
보잉
협업을
스마트시티
위례
이동한
전극들
결단을
다져
제조공정
폴리실리콘
어택
잘하고
전가
회사와
야당은
딸은
선입
이따금
전한
따서
모셔
이성을
라인들
##운행
친구인
대문
궁극적인
공정위는
##cd
##표로
퇴치
##십시요
##행위로
##5년에
광해
의무적으로
세트는
대의원
##개선을
필요했다
10개의
국제사회의
이건희
##권에서는
막은
##용액
불편함을
비판하고
출토
증후군
국가들의
기대됨
태화
이웃을
연탄
무명
전략과
죽음은
day
세계와
##감정
작업자가
창출할
중얼거렸다
빵을
말리
확신을
500m
공포를
게임으로
위안화
신민
동작의
11번
시도는
크리스티
가스는
##발은
알케닐
##길래
##달러에
##이오
구조체의
실태조사
욕심을
코덱
등에서는
##부장관이
잠복
##라이어
원호
적들을
취항
피츠
갇힌
보기도
진출할
인접해
##자들로부터
열중
경쟁률을
얼핏
정태
##싸움을
한나라당은
완수
유무선
내놓지
한참을
말이오
샌드위치
마쓰
책이다
BR
##기법을
접속된다
인가된
블로킹
244
기록하였다
접경
향이
##울을
갈래
서랍
내걸고
사연
test
대권
##ape
견본
실리
우습
단말로부터
석출
가운데서
언제부터
설비의
커지면서
자서
점멸
##reak
지켜본
착수했다
두번
전기가
조수
흘렀다
보험사
의원에
뉴타운
##리소
어디에도
갯벌
입지가
장소는
지역인
하느님
나경원
괜찮다
옮길
알아보기
##기반의
집결
밝힌다
##uss
##현동
effect
양국의
##긋한
##캐스팅
독보적인
##특징
이더
##보훈
진행하여
높아지면서
불쌍한
숙소
임창
결정화
미쿠
실시예로
##카드가
걸을
열기가
수요는
미토콘
고향을
창녕
##부위
2008년부터
낭독
##왔을
프레젠테이션
총재는
다양화
삼성그룹
씨도
아모레
##its
##클럭
마이크로폰
##iness
전체에서
바그
내준
민주적
##ames
숙명
##경쟁력을
##리아를
순응
우라늄
레바
제23
가전제품
호모
컨텐츠의
오른쪽으로
##병기
들었을
##답지
슈퍼마켓
네비
공사에
사범
3세대
판매한
손꼽히는
풀어야
##중단
영웅이
아들로
주거환경
집적회로
다중화
화력을
되어있다
##사람이
##혜의
줄였다
까닭은
경위
승낙
거부했다
아슬아슬
사람들이다
##oding
한밤
다양성을
부회장이
열연
중단된
아니어서
요인은
여러분은
버전으로
빠짐
서운
##노래
신주
본명
인정받았다
중합체를
LG유플러스
당위
음악적
국장은
9000
손익
역량이
##대인
고정관념
##치유
운수
진행하였다
링컨
예방하기
##다드
발휘하는
##피리
##습관
순간부터
##1조
3개를
들어와서
서북
신라의
기종
결합이
사무총장
민중의
국제공항
1월에
##분쯤
애들
뿐이고
LG디스플레이
Fr
##선인
한국지엠
생각해야
스페인의
콘셉트
중원
##산업단
N2
네놈
댐퍼
방이
영암
심재
반려동물
각별
개시의
본부장
나오지만
도로교통
217
부산을
시네마
편중
평정
##이노베이션
교수로
길다
레어도
통신하는
##함에도
2011년부터
천연가스
테트라하이드로
액체를
작지만
제거를
보조금을
고영
못했기
머무는
야마토
##신안
##식한
추정하는
교육감은
밀리는
있었어
로맨스
오시
노태
관리의
충돌이
모니터링을
##집적
2012년부터
고대의
이양
흘리는
##좋게
은닉
바이트
##방법의
사태는
흐르
##척의
판촉
기대하기
현미
투자자들의
궁금해
##신당
##ryl
효과의
##원에게
라이선
깨달은
마카
구성도
않는가
최소화하는
422
양태에
예뻐
그때까지
당한다
통계를
불타
산업체
법안이
시스템이다
카네
제노
출연한다
was
임을
계룡
혼동
##레이터를
선정하는
악당
주파수의
자질
도로의
프리큐어
손질
254
기아차는
추진된다
전역에
처리의
잘할
후미
분리한
모멘
업무상
되던
작화
믿었다
프로그램인
고해상도
운행을
말이지
바탕을
발돋움
감소한다
자긍
사퇴를
##내역
토리
상대할
3급
팝업
말하지만
##소총
스마트폰으로
스트라이커
Sur
##남을
##대한민국
동학
통신사
공신
##엔터테인먼
##거래를
##토피아
미셸
잃는
##상사
11만
반응시켜
새누리당의
농부
channel
EG
강화했다
##겼다고
##팀장
보려고
이벤트도
손상된
지금까지는
형이상
공포에
영월
축제가
받았는데
들어오면
버전은
우려된다
익혀
어두워
인원은
판다
에픽
첨예
##승이
공부할
인큐
젊은이들이
한대
그리스의
클렌
##상태에서
syn
조심해야
##원가
##문제는
1930년
내구성이
외국에서
테크놀
의견에
폴란
##맞춰
변태
##지사는
공영방송
하는전자
법한
##eless
제올라이트
공통점이
판문점
##리움
함유량이
대다수가
에프
설악
##197
시점의
공포의
추정하고
아데
##요일에
래퍼
도망치
차종
차별을
저조한
그렇듯
멘토링
소스를
강기
자영업자
BP
##회의에
해보고
ABC
제14항에
커스
##았으면
빚은
##aterial
메모리를
여인이
한쪽의
직교하는
병력이
연필
바스
국화
##채가
결론은
도통
##산나트륨
서경
이번주
진출이
판단은
일가
육체적
화요일
가량의
원칙이
개선해
몰랐던
펠리
급증했다
고용노동부
GU
차근
##만하다
용어가
판상
일생
응답자의
##치고는
아쉬워
가출
##자로서의
##클라
코스를
##AME
##부분의
최고위원은
스트레스가
##위기를
스마트폰의
##테의
화상의
연행
선수들과
뚫어
정신적으로
말하기도
##겁니다
희생을
산과
지를
정의할
특성으로
하자고
##rix
중점적으로
아쉬움이
찢어
환자들이
##었기에
향유
슬픔을
하느님의
##심사를
##불교
인생에
환하게
축방향
운용하는
선정을
접촉부
청도
##ask
##크로스
폐렴
##규어
아수
##바스
따라가
##ERS
##당국은
시행한
##ength
가족들은
15일까지
결렬
불합리한
파일의
참지
##ope
요르
##장에는
배웠
##aby
바다가
제기하는
한남
크면
맵을
자유가
부여한다
얇게
진격
##엔딩
범주에
타이밍에
기득권
서태
##옷을
부진을
열혈
Exp
A형
2009년부터
이점
소비자들은
고객만족
발표가
전문가로
가져와
8을
##작용을
주상복합
##피부
##하리라
구축한
전략의
##DF
이동국
증가하면서
앞바다
평가하기
송신된
##카미
아니지
연장부
미래창조과학
제작하여
방문할
고용창출
이산가족
싶은데
설정한다
메타데이터
비둘
저와
게임이다
부적절
Ant
하든
access
본사를
가정이
내리지
취향에
##들일
##제어장치
##해주지
구현되는
##정에서
가명
너머로
##그나
되어버린
##연구원이
건립을
상황이라
음력
스즈
소라
아미드
##uction
사뭇
준하는
##셨어요
의석
##MAX
서술한
##ets
절충
WTRU
소오스
국내산
거느리고
##테라
핵무기
Ep
아서
##끼리의
다이얼
바쳐
##푸스
대기업과
기점
##휴가
405
청소년들의
제안하고
그곳을
발생될
14는
버킷
전기에
자칭
##카인
친다
노출될
정량적
Art
열두
상원
가중치를
면접을
문성
##하오
멤버가
위대
##마늄
연결되도록
타격이
##히코
##문고
배경은
우려하는
아리스토
Inv
선거인
##임과
행하고
아르헨티
243
이용에
매설
##위키
7a
죄송합니다
직행
첼시
갖춰야
1964년
앞세운
오신
둘레에
사람인
인천지역
메달을
이기지
적용하기
스카우트
갖추지
대에
왕실
일사
말하였다
창출에
대니
격차
제게
S30
##양함
##엘은
TOP
##쇼핑몰
BJ
아군의
##프레임의
측면과
##슈타인
노동자들이
질러
할아버지는
Cal
##로일
100개
진행이
버그가
기와
휴지
##표현
Top
##투표를
미안해
선이
시달리고
표현한다
알았는데
얽혀
##맨을
필요해
구축함
섀도우
##HA
지방을
현존하는
##회도
부정한
월등히
##자에서
##모듈의
데려가
평소에는
놀아
포진
##O는
재도
막걸리
피드백을
대답이
두바이
수분이
단말을
##연구센터
특산
얼굴과
중산층
제습
청담
단거리
없었는데
헌정
범죄에
수긍
심리를
시퀀스를
우아한
제공되며
정상이
여자들이
발행한
뚜껑을
신과
계산하고
시민을
닫힌
스톱
창출하는
25년
333
##금리가
많아졌다
##활한
극복하는
전환할
스타일로
보험료를
상여
소문을
g의
발견된다
시대에는
교직
##메이드
##착륙
중량부를
390
뿐이지
API
두어야
반값
궤적
##특례
영업이익이
끝내기
그때마다
과목을
10년이
전시장
최진
기준금리
##mmun
일체의
기르는
더할
##확장
##orr
1경기
카프
감안하여
##업계가
코로나19
기초가
도입할
생명과학
대체적으로
NY
젤리
##룡이
차량으로
중합체의
삼천
흐를
테크닉
##연성
사다리
애틀
적합하지
예산의
##ircuit
Lo
볼수
공직선거법
단언
CNT
4기
박동
오토바
##들로서
대변하는
갖출
본사에서
주제의
바나나
설계에
물적
신산업
##세계를
환상적인
특허청구범위에
즉사
##장르
228
규명하고
투입하여
산출하고
사물의
##EEE
세대를
##차례에
RGB
왕따
거부한
기체의
광고는
코드가
실험실
벤딩
애플의
사내가
택한
##위원장의
적하
인터랙
있네
허니
보수적인
##시키고자
다정
2010년부터
단장은
지급할
자로
범인
##동시
##듭니다
트랜지스터는
의미도
당대의
##불능
기여했다
지식인
읍면
같기도
역부족
Mc
소량
데려다
양과
가입을
블래
시설에
##록의
지정해
불쑥
잦아
보디
지저
슈퍼스타
솔라
정밀하게
##제르
지평
##아세트
개구를
##때도
추진되고
적용되어
##절의
개시하고
변화시키는
변화된
최연소
중심지
여자친구
뿌리는
보고된
##킵니다
브릿지
생중계
1집
백분
카디
##암은
1개를
오스트레일
교훈을
스파크
성질이
현재와
개정안이
3곳
섬유의
최형
자치구
된장
문제점은
전년대비
점으로
Max
대선을
##었더니
재해석
##글리세
상법
상임위
##았는지
연구과
물질과
옷차
퍼붓
설명된다
공개할
재정비
양천
불렸다
공여
서명을
##ylene
단풍
드래그
떨쳐
유니트
950
##대변
스케쥴
럭셔리
문학과
Zr
머물렀
nb
수인
SCS
연구진은
##불명
상품화
이와는
향한다
물성을
스즈키
연출이
point
손오
자산관리
크레인
##대로라면
환상의
혼란이
노골적으로
##총회를
두면
밸브의
POP
운영의
옷이
설교
##오다
발톱
##판단
조건의
##구분
세포에서
MBA
키에
이용자의
것인가를
연결할
고려하고
줍니다
2곳
도산
슈트
어드벤처
이것으로
구조조정을
장군의
오르지
원소를
도입에
분위기에서
##카드의
##1차
티셔츠
산출할
80년
시게
##소방서
##공원에서
Sim
동안에는
##시스템이
북경
자격증을
시리즈에서
우드
YG
구축된
부정적으로
##그래픽
B는
##백한
##근대
발견되지
차단할
양손
URL
인수를
노력의
아랑곳
모델에서
평타
호투
비켜
앞당겨
발견되었다
Ref
적격
광주시는
사거리가
##리에이션
B형
상승할
경북대
당사자가
날에는
저그
집무
사우디
고공
있었다며
##보험은
튕겨
호가
제조하고
에리
##즈로
##역까지
나자
##ension
바는
제어신호
데크
피해자를
목적과
당황한
빠진다
은퇴를
올리기
기만
사용하거나
멀티캐스트
방출하는
##프로세
결별
깨우
수처리
##line
V2
마피아
하부로
주최하는
외신
Black
너프
멀다
비밀번호
어딘가
##먹기
316
강서구
암호화된
교장은
캔슬
##광은
복잡하게
시작은
보인다는
느리게
돈과
해태
상승으로
수녀
울리는
##cept
희소
둘러싸여
인접하여
짜고
겹치는
안토니
200m
비공
시의원
시마
지방에서
##uring
와이번
##킬로미터
굴절률
맛집
떨고
제작사
너에게
어시스트
삼각형
덤벼
예상을
##투입
오비
##협은
영구자석
고생을
전입
근대적
시에서
떨어져서
쐐기
장군이
필자가
수뇌
자극하는
동갑
##너지가
나츠
복숭아
접속부
해소할
##잠을
동력전달
##려다
공공기관의
##예의
몬스터가
##8년에
없어졌다
강아
맡긴
분신
주고받는
##네를
부대를
정읍
중단을
##si
660
청나라
##ipp
원스톱
##LPGA
부가적인
축으로
##발달
##리돈
프로그램에서
가지만
진로를
차의
정확도
직무를
피는
S6
움직임은
괴산
사지
##들어가
어처구니
동포
원에서
##가들은
둘다
실력은
##alt
계양
해야만
부천시
추천하는
##교과서
울부
저류
진행하며
코앞
325
합성수지
유권자
##기기를
후자의
##승의
##출판사
이례적으로
NAS
향하고
##진공
##매입
##에미
국립공원
##닐라
제작하였다
가르치
퍼뜨
사무총장은
봉화
됐던
편하다
후쿠오카
하이트
꾸민
국수
태우고
##측과
여성에게
##하려다
회담을
테마파크
과수
물러서
CVD
공약으로
따랐다
강조하며
##래요
불면
가볍고
수배
전지를
용어로
콘서트를
쌓고
##P의
##들아
판단되면
취약계층
HF
섹스
##ely
WC
가장자리에
특허출원
첨부한
심포지엄
도정
결합할
채널은
관용
##학에서
el
##화되면서
취지에
FA컵
##자동차는
간다고
##스와의
사정은
##휴양
1930년대
낙엽
퇴각
일제강점기
##미지
##줌으로써
조절에
추천을
아팠
변환을
막아야
##놓지
50개
변함이
자취를
##나무가
방류
맺는
승소
##싶다
종신
촛불집
결승에서
데이터베이스에
무당
솔직한
아래서
환율이
메이플
네트워크에서
으뜸
##치인
세레
호불
##bl
수행된
##하느냐에
공중에
채집
증대를
설치했다
여담이지만
근무하고
##ican
합치면
##디자
디페닐
##아스
감정에
리플렉
발상
말소
경사면
쇼크
소통과
색깔이
##try
당기순이익
##숙은
##번지
약물의
##00억
게을
변수를
##순으로
거주하고
미르
##연주
##득점을
상냥
##3년에
2월에
##화된다
##나면
신명
성공하는
활동할
##브스카
1966년
불확실성이
성악
2013년부터
free
Vo
##족과
휴스턴
헤라
업체와
만들어진다
##홈런을
##그림
열악
행진을
에멀젼
열수
##위원으로
루비
카츠
뼈를
설명될
크로아
##우에게
##2년에
청중
##기름
403
푸쉬
2세트
백운
숱한
후로
술이
심미
##시점
##결혼
3b
기사에
자갈
지역민
##규격
IEEE
버전을
##조사가
트릭
포터
##섭은
대응에
머리는
##단체를
##단일
때마침
보증금
##머는
오인
우승에
##레븐
##하리
##평형
담겼다
##지기를
이우
2007년부터
촘촘
흡광
버림
##이루어지는
##가을
베스트셀러
##타마
감각이
발전하는
르네상스
두각을
흐름은
매경
둘째는
제품화
애가
##육상
비방
점심을
##옥은
높아서
##남용
exp
만족하지
오던
의제
##C의
인지도를
동향을
벼랑
후자는
##부양
상품이다
##건전
갈릴
연관되어
과정이다
도의원
##지었다
부산대
GPU
공공의
수립하고
유전자가
주력하고
0의
출력단
양식을
##채의
##호환
거실
보트
싶지만
324
##mm의
단자는
총파
프로모터
퓨즈
##여담
반발했다
여드름
지진이
대구는
하의
개최된다
##했더니
투석
##월의
##illus
분량의
마리를
조계
아밀
즐거움
마디로
단행본
##유적
##옥의
친선
##도의회
지수가
필름에
가두
사업자가
수평으로
흘렸다
##카르보닐
들어오지
근무를
##웨이퍼
양자점
지사가
김규
개정되기
ER
팬이
하는기판
조사결과
실효성
권의
##종료
실시예가
등으로부터
##A1
아니하는
다하는
지금이
생산성이
후보에게
지사의
태양전
모차
재혼
공개하지
하얗게
압입
경기력을
지지되는
많게는
끓여
##라틴
##하천
##자라면
무도
온도의
변압기
케이지
미비
떨어진다는
사악한
##연대는
유년
##게임을
인종차별
존경하는
##강과
조합의
하소연
##유닛을
eth
기인한
근로자가
뒤통
여론의
햇살
성은
장비에
##더니즘
##스럽지
##했을까
##공원을
소방관
1면
브리핑에서
맛있게
##진에게
##ential
세웠
배워야
건강하고
취하지
안드레
양동
총장이
의의가
편히
동맹을
원산지
록킹
인정받은
##언의
000명
투명하게
##아버지
가능하면
미키
BK
뒤따라
##S를
스노우
자기는
504
들어서면서
아니게
##회로의
실험에
튀김
리더가
분노가
동명
조절하기
의의를
일산화
##엔날레
넣는다
예기
옥천
##엔드
울부짖
시행착
공자
소녀가
오징어
어선
회차
KC
##부문의
팔로
하네
##경주
##야와
Char
종류와
옵션을
피지컬
상관관계를
한결같이
##상공회의소
##화시키는
팔이
액세
올리면
결심을
##혔던
현안을
공개하고
아내에게
Green
사교
빌라
##코르
소중히
닫고
##환원
MV
성도
##하여도
성지
##NI
베네수
부하가
틈이
if
##기지국
병리
이용하지
정원을
이용가능한
엘리자베스
시공사
필요하다면
red
로테이션
정서를
거란
컴퓨터의
형편이
언데
##창작
##ibr
Open
##댄스
스콧
제출할
##르지오
도보
독창적인
모니
먹어도
##덕을
국제표준
나타내기
후드
인정해
충분하지
거론되고
##강좌
##화했다
HCl
분량
머뭇
유쾌
숙지
만든다는
원내대표가
경로의
소유의
##토미
시리즈가
유목
자력
##비용은
형성되도록
금호타이어
사주
상경
학회
##체육관
인지하고
올려다
죽음으로
생을
유지관리
빅토리아
파티를
have
선명한
시각으로
둘이서
견고하게
약학적으로
정류장
건넨
은평
딜을
1패
조례를
신청하면
이근
클론
##심원
타마
빼앗긴
Test
##종점
불교의
##부호
평상시
첫사랑
대령
병사들이
철학과
표했다
조선왕
##무사
얽매
출력에
최소화하고
##주차장
##티렌
도사
##보인다
##론적인
등장하는데
570
색깔을
##회의는
그랬던
증거로
전압과
애널리스트
검진
##차근
논의하는
##업으로
이동하고
어드밴
가혹한
크리스마
미식
방콕
큰일
나아가는
100대
친구에게
추측이
꽃잎
정리하는
##론산
정당이
아니라서
VI
조정에
페이징
다수가
연산을
자기자본
개시한다
가한
##제국의
자동차가
##외부
##TH
외과
재연
단결
거기에는
함수를
하중을
##경로를
운영과
사나이
상보
자비
##her
습관이
제기하고
##202
##ybrid
갔던
무주택
문서의
##3일
여간
기울여야
방심
##높은
프레임과
수소화
신비한
공판
구동되는
도약을
이마저도
가열하는
퓨전
가의
청장은
풀리지
##근로자
13만
활약이
##학급
맡길
불공
패배한
##합창
전달을
연타
브랜드인
##송을
건강관리
진입하는
##경남
자리잡은
ZnO
역세권
기생충
##프로젝트
김범
절실히
활동도
fr
가위
히로시마
무릅
혼입
끝나자
개수의
12의
GTX
일어나서
예비타당성
맞이한
Sil
거스
바리
이미다졸
참가자들은
##대성
길이에
뇌물을
##구성되는것을특징으로
##위한장치
심장을
##시내
보입니다
왼쪽으로
않은데
##해주었다
이행을
영토를
군용
전달된다
이화여대
설레
엄밀히
##해주면
동산
뿌듯
누구인지
통보를
낙하산
남과
달성될
oxide
감리
##되기에
온도와
빔의
##거리다
##ML
운명이
에너지로
진작
우수성을
8월부터
##로니트릴
스크립
산업통상자원부
GaN
문구를
증가합니다
아치
한번은
결혼식을
부당하게
힐러
이야기하고
팔레스타인
태어날
안젤
이동하면서
##금액을
70년대
알려주
##III
취출
측정부
르노삼성
락토
민주평화
##평면
구성요소가
굽힘
투수가
인간으로
독일에서
##com
전국적인
부타디엔
카트리
최고치를
경주시
일류
##항에서
예에서는
반가운
아낌
##질소
레퍼런스
##비밀
시국
##배열
디자인에
동전
부녀
집게
토우
##가지가
##왕과
##홀의
움직인다
SNS에
여동
합류한
엄격히
송신할
격납
기기가
##P를
처리한다
무상급
막차
display
##찬이
지시한
측에서는
가리고
구조적인
아니다라고
본문
신입사원
B의
지양
예시적으로
돼지고기
무관심
미만이면
관광객을
원피
##MW
경품
공급받아
퍼스
##것입니다
곁에서
버거
신고가
##프린트
넘으면
관통공
들었다고
순교
추세이다
고치
컬러의
신자유
제시해
광고에
뜬금없이
water
공통의
##oom
김호
폼페이
대한민국에서
사장과
##쇼를
##해야한다
##할머니
##약품안전
깜빡
##관능
표시한
공백을
브러시
가습기
원위
간염
와중에도
전세가
효용
##TEM
청양
추가하여
##티드를
##실험을
가졌던
단지는
##EST
합리적으로
##피크
과대
로밍
##켓을
충북도
과징금
담론
도와줄
##아파
김씨의
이전에도
대리점
##극의
현안에
##거라고
병과
올라섰다
항소심
##니코
즉석
3상
되려
수전
##ucle
판명
##3에
시즌에는
제거한다
##umber
##조건에
log
Method
파업을
##다닌
##자전거
상승하고
말린
옥외
생태계를
수준까지
조건부
재산이
##내장
전파를
끼칠
3위에
##킴이
의장이
2025년
TRA
##형성된
선호도가
CGV
함대
##졌는지
확대로
소개된
##받이
디스플레이의
들게
등록한
씨름
위험성을
자율적으로
원인에
터졌다
500만원
각광받고
발화
어빌리티
전시를
만년
변화하고
우수하다
익히
느낌이다
권오
##주아
일그러
후발
복귀한
##총회에서
하여도
##스마트
미녀
Gener
##부턴
##배추
Dream
명나라
##수준을
쓰기도
단발
전자는
##ella
하였는데
북유럽
프랑스는
포인트는
잉크젯
자유주의
바다에서
승리에
편도
##기술로
재전송
##념이
제조방법은
일관된
love
궁금한
글자를
##조사와
일이라
##찮게
바이오매스
혁명을
만족도가
없어야
상황도
시달리는
알제
흔들었다
부담으로
하반기부터
다저스
가치의
항공모
근본적
##군도
집값이
버터
우러
청라
사진이다
몸부
라인과
개회
담뱃
경유하여
성균관대
활성이
리스트에
##버를
차근차근
대청
##들에서는
암울
떨어지게
날린
뒤진
체육관
한국당은
메르세데스
방청
빛깔
발전하고
##지진
모양새다
##더미
동물이
가족들의
풀린
통풍
펼치며
보장을
타면
지가
국가별
회원들이
##usic
##아이템
빛과
##3호
##축은
판매되는
기간제
기의
알파벳
중심에서
예방에
기본권
좋겠다는
퇴원
##운수
산다는
##마니
변호인
스킬로
셔츠
##예약
전쟁으로
교회에
##글라스
##atio
Will
서보
##꽃이
##레이터의
모델과
종래에는
##했나
않는다며
접촉하여
뚜렷하게
변수로
##병원이
전국을
차원을
##엘의
우파
##세력의
20억
DNA를
손에서
시편
15일부터
500원
180도
중국으로
##링된
##대상은
##어린
##총괄
보건소
##천동
Ma
##EF
자동차부품
언급되지
맞벌이
##장관은
블록이
미립자
무공
가부장
그랑프리
##한테는
뜻밖의
##농단
상황의
시행에
성분으로
##있기
교사들이
요소들이
알린
##9월
거기다가
앞다
##aser
누구든지
설명하였으나
항체는
편광판
신념을
채용할
##쪽은
##2015
##특화
##둔다
마련되고
남궁
거액의
분을
추정된
구조체를
반응도
것만으로
##물었다
##min
세기를
수행하며
Program
위치정보
나만
6월까지
운영하며
연습생
##세대의
##ucture
##700
height
촬영하는
내구성을
평생학습
100억원
##코치
나와야
말에서
반으로
인력의
##강에
바디의
신전
딸과
뜻에
분말의
조사와
교류가
모을
살리고
70여
##nt
Christ
##conom
스와
처우
고통과
카자흐스탄
대진
##너와
##가지는
암을
초강
원리에
스몰
##4는
버렸
개수는
##러운
동그
국제적으로
완도
##고무
접수된
지방선거에서
##상태의
##컨벤션
군중
낳는
보탬
##크기
그것과
오빠가
현황과
##스태
##나온
손흥민
오정
##종류
830
생활은
반구
하루는
고마운
커터
코우
##상금
##탄과
표현으로
투명성
공공부문
수익성이
역동적인
##EV
323
다름없다
기고
섹터
열차가
죄의
승무
##제재
이견이
부쩍
슬슬
파티션
원상
##운동과
합류했다
정인
##골의
경청
##8월
최승
생활하는
유비쿼터
검출하여
무상으로
반복하여
사령탑
우루과
치밀한
결함을
젊고
제작이
남녀노
절을
아우터
긁어
##버가
하방으로
대우건설
담당한
##주머니
강화한
퇴직연금
쓰며
삼겹
장만
##iam
결투
##푸르
예결
정의된다
전투의
거버넌
의문이다
포함하도록
케이블을
지금까지도
##세력이
사이트에서
##해야할
한바탕
##목표를
제한하고
대두되고
단점은
커버리지
윈드
##A를
강인한
##기판의
싸움에
망막
스쿼
##모르
유래된
가다듬
지위에
충원
##비즈니스
1970
아니나
힘차게
할인된
##경색
페로브스카
##대표팀
히팅
증명하는
소극적인
정권은
이론이
플라즈마를
연장되고
디지몬
카이사
획득했다
감지하고
모기
##기구의
줄도
가족들과
##백화점은
저평가
##국악
존재에
충돌을
##왔으며
직후에
오미
불안해
데이터베이스를
6명이
factor
사관
하나님은
무난하게
증가시켜
겨울에
간간
지표를
찍힌
질문은
##애틀
그때의
##앉아
개인전
강관
신청이
제도에
유닛과
아이템은
고문을
하필이면
7개의
전달한
당근
##판정
소년은
set
##연령
단수
비트스트림
월화
부끄럽
##800
##항이
##거에
##ersonal
설화
역임했다
시작하게
녹색성장
다이스
일었다
살며
웨이트
산화막
공언
하나였다
시작했습니다
##메톡시실란
베인
담양
치료는
집전체
형성용
어스
구현된
헤쳐
##하르
8위
비난하는
가는데
해결되지
원하고
##놀린
고상
##대수
아이소
한방에
발표에
실시형태에서는
껍질
##맣게
전부가
##향의
훈련이
피고인이
뒤처
RRC
##초교
##패턴을
석회
##노와
당신도
감싸고
개인별
임박
대응한
##죄의
여러번
의료비
신뢰성이
기관지
섬유를
키보
##러스트
양립
이부
생산해
프로파일을
##hysical
##간섭
루나
##루에
구입하는
누구에게나
##esis
투입하고
Ir
나가기
나노튜브
캐패시
돌아섰다
말합니다
측정한다
지급하고
##좋아
##어버렸다
무궁화
유모
도쿠
아리아
1편
규모와
견고한
##락은
총학생
척도
이용함으로써
제30
수립을
입힌
낳을
인근에서
BO
공모전
##세탁
End
성능의
##ror
편이고
##신문이
선호도
연상케
딱딱한
겪었던
언어가
시멘
필요성에
근로기준
결말
##던데
##톤을
사유를
자그
최근엔
타기
있는지에
밤낮
##12월
돌린
상승이
##그리드
배치해
의사와
후방으로
지원도
##스파
판결에
iii
않느냐
당시에도
##익스피
성능에
주술
##카운트
양분
##선거관리
##이랑
이걸로
제15항에
현금을
연구한
##업과
타입을
면담을
##멋대로
단계이다
실적은
형성되지
MEMS
굴욕
어느날
의견은
설정되는
1940년
아모레퍼시픽
핵심이다
회사채
##였는지
북서
참배
##주택공사
주황
최경환
##브레
금융감독원
##evelopment
기는
임기가
위원회는
상업적
맹활약
꼭대
없었으며
생명체
마주하는
1턴
##가스가
패러다임을
우르
##키고
일베
##호에게
하나일
민감하게
##수다
과외
수정을
부유한
##통치
##등급을
##이라기보다는
문제인
던질
노드를
유전자원
##농민
로크
정의의
센터를
##란도
##연수원
##복음
석면
참고하여
그림자가
올바르게
못지않은
말하기를
대상물
주식의
들어서면
수득된
##계획이
경향신문
라파
##가전
##티드의
포지션을
송치
##피해를
term
##언은
질환에
촉진하는
발아
성대
선두를
740
##생명은
크라운
왕세
근육이
테이프를
인상에
계통의
소비자를
체계가
레벨로
##스테이
지낼
하나라도
관공
광역시
##실점을
365
걸맞은
##복수
##각성
뒀다
부재로
##새끼
1위는
문학을
##재활
힘껏
나뭇잎
우리나라에서는
법무법인
형식적인
의미이다
발전은
##연구소는
남자들이
##라디오
에듀
소유권
세포주
##념을
시차
알맞은
발생에
구매를
모델이다
직원들
##아카데미
시켰
울렸다
외관을
헤겔
겸임
연구결과를
시장에서는
명상
시베리아
마법소녀
##서에는
##국내
시작하기
소설이
때리는
뻔했다
분노한
VL
단양
골다공
##가루를
유일하다
중반에
복권
한경
##소모
개구리
열지
유입을
가구를
오니
22개
메트릭
열정과
단국
##set
##조건이
개는
오리엔
것들이다
##위치에
맞으며
벽체
학교생활
know
##5000만
낮다는
바이오마커
뛰어들었다
심정을
IG
농성
당당한
##수에게
##민정
아쉽다
따라야
그치는
모르겠습니다
채권을
##웨이는
감미
CIA
경상도
니트
개발자
신호선
구본
노면
넥슨
코끼리
농업기술
group
역도
##연구회
벽면
포인트로
겸비한
##셨던
대출이
몬스터의
진출해
##감각
욕심이
##드럼
##비어
제외한다
##목과
한국도
자기주도
프로세서를
인계
##동물의
남발
##하다보니
간헐
##장비의
마케
유로를
신청했다
맨유
하세요
##이성
초코
고향으로
간선
늦춰
수첩
안내를
언론인
왔으나
##하냐
위치하도록
관전
##구조에
스스로도
A씨가
날아가는
만전을
##상표
녹취
##주거
##9년에
없을까
상징적
범죄의
때론
##선거구
거칠게
같을
뜻대로
시대로
효모
##다툼
로봇이
추측된다
뿐이며
##화시켜
공습
##1년에
세탁기
602
간담회에서
D램
업체들의
##메틸렌
견학
꽂아
mos
##기억
투입하는
##레인저
##때까지
환경은
광주에서
군대에
성분과
속도의
재순환
##씨에
지켜봐야
종이를
평소보다
평온
평가해
시중에
이루게
소급
마련한다
##부에서는
시행을
선도하는
반사된
##공단은
병원의
연상시키는
삼성중공업
유기층을
난이도는
화력이
스크린을
imp
만장
진입할
혼란에
트랜잭
장탄
##전담
보장하기
가로등
1일에
의상을
밤에는
##보좌
부문은
애프터
미국산
주목받는
프탈
방범
세게
탄성부재
살아남을
맥주를
뽑기
오퍼
2급
무기의
지급을
회복할
부산광역시
호프
##분비
하락세를
수문
정종
##랜드의
3점슛
그대는
평론가
발표한다
걸림턱
##선정
생각한다면
펀드에
##에서다
도화
##애나
러시아가
부산시는
하루빨리
일원에서
##됐다며
스토어
여력이
Bu
플롯
기관과
##여진
##봅니다
##sch
##음극
요구는
철원
##적이지만
부산국제
시시
자이로
지구에
검출을
##지지는
값들을
342
한림
맛은
##통신은
가열된
희박
1983
브롬
모였다
##사업비
구속된
압력으로
전만
광장에서
미팅
안쪽으로
경쇄
제사를
청와대에
번들
기술도
236
디폴트
일절
마는
DT
보다도
해결이
포털사이트
##레어
역류
체결되는
선교사
열정이
수준이었다
변증
관례
관광객들이
##변호사
교사와
##사항에
##iffer
유관기관
저급
심벌
##어져서
범죄가
제각각
형태인
##고체
##핀을
누구보다도
인정받
불가능하다는
하는무선
있었으면
생활과
스미스
대시
옵티
손은
##비율을
승승
##명칭
##마드
전작의
##모든
사기꾼
##C는
주민들과
토지의
##컨트롤
차량과
줄여서
배우이다
정치자금
근육을
색의
##로서도
엔트로피
수요자
꼽혔다
##SI
##물도
##욱의
##에틸렌
경작
소소한
내세웠다
그간의
망각
설정은
##andom
돌이켜
무엇인지를
질병에
꿈도
##타기
통계적
##이루어지는것을특징으로
광대
임대차
말초
##샤오
평가의
흡수하는
파종
샘플의
효력
도면이고
##어버리고
tw
시민들을
개최해
상반된
##병원을
성능평가
##난에
수백만
기포
상봉
컨설턴
연동하여
조작이
능숙
상동
질타
표결
##원지
곤란하다
하겠지만
##전남
시력
직진
저항의
##인삼
의존도가
무실점으로
부두
부품이
문서에
소크라
할애
Process
부스트
LDPC
곁을
고르는
스쿠
##less
유지해야
비축
##인구가
발행하는
사명을
##격인
내려가는
Science
경우다
시작과
에어백
##140
분위기로
HR
헌법소
엑스선
경기지역
막았다
필터는
놈은
##빛이
잠재적인
인터넷에서
도배
수양
##추세
기록하면서
워너
##교정
줄거리
##댄다
용량의
##론도
질문에는
관성
비현실
코드는
관리하기
Bus
모종의
후폭
##생과
형태에서는
오줌
편차가
##학교에서
물방울
두산은
pack
##ius
태조
##유닛의
##수익을
걸리면
허허
자본시장
##체계가
이벤트의
흔들리지
한나라당이
광학계
드러나고
사람만
##수준이
시청자들에게
운동과
##화제
한승
판매에
국정감사
함에
각질
지원금
누비
잇단
발생부
사랑으로
세금으로
윤상
주장과
##소득이
불변
모닝
50m
한여름
##덕이
한국인이
업데이트를
독일과
알렉산더
베리
##거래가
비결은
인게임
신기한
중견기업
개발사업
감소에
방어력이
삼성화
땅콩
포텐
서울시의
금지하고
네트워크는
느닷
한다면서
##질서를
생물학
통솔
##속은
4연
신규한
Kim
사하
소사
웃을
기울였다
##2호
파급효과
기록으로
정신질환
거머쥐
반공
261
##KA
칫솔
먹으며
입도
소통이
애리조
교체를
주범
##탐정
재량
바티
사수
2010년대
건물로
전성기
유량을
마하
돌리
버전의
비구
제휴를
##F의
언급되는
피아니스트
통한다
덮도록
증시가
정계
새겨져
우선순위를
종북
팀과
발굴을
스나
##osis
프라이버
##차량의
##사이즈
##항은
##겼다는
만들어질
중요성
400만
##2012년
부문을
##해와
##집과
돌아가신
한화는
발달로
역행
##선가
##채널을
꿈틀
##병원의
쇼트트랙
멋지게
조치에
##으세요
Rh
천만
필라델
곳이었다
사진으로
키나
일부로
안된다는
불편함이
마포구
##간은
서울역
헤엄
30명
화합물에
정명
말뚝
##교대
이동성
귀금속
피우
##분화
##웨이의
심각하다
NT
##ke
##홈을
스크랩
길에서
모색하는
오일을
사이에서도
법적인
오아
분쟁이
제곱
지속시간
POS
잃어
편인데
수당
##현미경
산으로
유저의
외국인의
상부의
국가들은
2월부터
스님이
식품을
EB
초연
##렌의
황혼
뛰어든
##하키
동생을
##번과
##과정의
##기는커녕
포퓰
통해서만
누리는
법사
따스
##일어
분석의
외적
262
각지에서
철새
##매수
17세기
##가치를
대위
##보고서를
일대의
식품의약품안전
920
저분자
인정받는
##메타크릴레이트
관계자가
게이머
##트레
##제안
만들겠다는
곳에서는
##집합
고향에
Organ
심하다
e스포츠
##브는
경로가
##야지
난이도를
한국관광
복부
10억원
시추
땀이
제도로
마마
균등한
##iter
##ros
##바리
자리한
많아지고
스킬의
##들리
경마
통계적으로
선장
상상력을
잔기
4와
20일까지
##학위를
기재한
내부가
##외국어
때까지는
광촉매
005
오후에
2014년부터
바이올린
영도
수직인
올리지
##iol
일어나기
울음을
드립니다
기준으로는
단말기로부터
중장년
Management
헬리콥
##S의
##창고
정국
언어는
브리핑을
커스텀
사와
떨어지기
수익률은
##센터로
2015년부터
공기는
##D의
여겨지는
보라색
##스킨
아침부터
의식한
놀이를
바뀌지
가지다
가족에게
비판적인
서유럽
투자하고
상부에는
##전적
극단적으로
보나
보빈
지장을
##7호
##ival
사상과
제목이
연구목표
사라지지
집단을
증가하였다
가면을
규명을
치료할
무너지는
##서기
거행
##usion
고정시키는
생장
##길에서
##렌은
리딩
살폈
얼라인
근력
##시기를
개략도이다
Line
카카
##락으로
성능과
##TION
7조
보이자
피험
데일리
만점
##10월
신경이
만족을
시발
분들
충무
크레딧
11월부터
집속
편의상
예측이
패드를
##피트
발명과
지방분권
가이드부
##도시를
종편
정당성을
빌린
##곡히
파킨슨
10조
정장
n개의
ser
##uf
시기와
가오
인신
##나스
##매립
부족하고
좌안
사람들에게는
##시장으로
갖추게
믿기
발동할
운동으로
비트의
어버
##슬로
적층체
##유닛은
늦어도
환자들의
##윤은
평가받는
##장치에서
예술을
허용가능한
콜드
##였어
종교를
민정수석
높인다
극적으로
##합니까
253
rpm
안장
접전
##법인의
##부사
Multi
듀오
투자유치
Mac
자신보다
제어신호에
임금의
친박계
불문하고
방향성
다르다고
HB
신화를
의미에
Not
해경
마그네틱
귀결
판넬
##길의
일측이
##홀에
것에는
말이었다
체온
로펌
##엘이
문정
유유
분양을
양단에
만연
##옥시기
참여하여
리모컨
인센티브를
염을
리튬이온
스마일
희토류
##독을
IA
엉덩이
경멸
신봉
마가
아버지인
친노
일관성
복귀를
본선에
실루
김이
##b의
월급을
합한
있은
우리금융
진실이
타서
위한수단
배치한
깊어
통폐합
사이즈를
시드니
놓친
센서와
일정에
사무실에
나타나기
사시도이고
한동
이야기했다
##검은
뾰족한
폴리스티렌
대추
회로가
Windows
##재료의
##작업에
가온
혹독한
나라와
받았으나
1명을
R6
싶어도
유도하기
개표
환매
소셜네트워크
어워드
픽셀의
무비
클리블
되려면
뻔뻔
제3차
보험금
않았으면
움직였다
의미있는
타츠
부인했다
이의를
외면에
코레
1년을
Reg
들썩
##성분을
짝사랑
명과
서점
종목은
어머니에게
수업에
Smart
육아휴
간을
##2조
시도했다
난감
##G의
느낌으로
##들면
바닥면
적에
여야는
엘라스토
의도로
평면도
종료된
##진입
소재지
브러쉬
유형은
##2012
##No
공급관
의료기관
펼쳐져
protein
몰라서
현금으로
그레이트
275
분류되는
살다
##대조
##trib
##장군
연기에
##수련
##라고는
남성과
보루
##관인
현황분석
입는다
샴푸
이야기한다
문단
##지리
채용을
남도
출몰
식은
추가해
신품종
회전력을
스모
경계가
위계
요청하고
뒤로는
무난한
막연한
집주
이혜
아우디
단부는
화약
앨리스
service
에미
우에
설명회
##승으로
일정은
약점이
관계도
##해한
페로브스카이트
카르복시
엔진은
혼합물의
원료의
탐정
하원
##천에
평년
상품과
거치며
패스트트랙
퓨처
##권익
G2
애칭
온건
시작하자
멤버들
함축
라고도
친분이
다음주
필요한데
##M을
뜻하지
1010
도시와
않았다며
유래의
세금이
저자가
구실을
현상의
파이낸
고려하는
중앙의
SiC
##이야기
##틸기
##클론
자연과학
코난
용매에
임기를
##국도
##잡아
동질
##하하
##우승을
영화배우
긴장이
생전에
##ography
신호로부터
##단계에
##수술을
1982
퍼포먼스를
선택하기
서울고
전북도
조동
물가상승
말끔
##관도
떠돌
나서면서
발길이
##ancer
제한은
출시되었다
이토록
##조립체
##achine
상관관계
##배는
카리스마
넷플
##ger
독이
##5월
2초
21세
##찬은
초반의
펼쳐졌다
전하를
##픽셀
수입은
더해져
##강판
설정된다
소나
ET
실례
##러와
나무의
고기능성
##률로
자라고
저자의
부활을
변속기
##역량을
키타
핵연료
서울중앙지법
단선
여당이
주형
도리
호시
평점
##끝에
디바이스와
중소벤처기업
##제일제
밑바닥
효자
절감을
길이다
어려웠던
기내
수소를
욕구가
테란
조성한
제주도는
착용한
피지
2편
##되다
주말에
유해물질
내주고
인젝
##수직
배드민턴
##엄한
##사지
기구의
초선
수취
천식
시도하고
분들은
변경한
지환
정신은
기자들이
조직에서
둘레를
있는데다
허다
힘겹게
구축과
되겠
토오
한자리에
##학과를
북한에서
흘리고
단서를
점수는
##여과
극소
설명에서
손상이
알아보는
누수
줄어들어
로저
##폐지
공장의
리츠
레미
초록색
채굴
디지탈
운전면허
전매
미토콘드리아
길이로
이스라엘의
원심분리
발전해
결손
결정의
공동체를
왕조의
피해야
강하
##쓰레기
오자
통제를
주도적으로
직장에서
##법안
선박을
어지간한
작용했다
태아
허영
일직
투신
##망한
SK이노베이션
드워
##어나는
TB
프로젝트가
기자간담회에서
편심
패키지의
띄었다
지역사회의
스크램블
나들
요소와
NLL
숙련된
도시된다
function
딥러닝
땅으로
평창올림픽
8번
안하고
근린
##해당
경제자유구역
증세
##데스리가
##미생물
지방이
휴대폰을
유비쿼터스
참석하는
변혁
편이며
학문의
##쳤다는
##주들이
프로농구
지도부가
심폐
##iki
압구
산출한다
담담
적발됐다
상품명
연장선
소박한
서해안
아쉽게도
안다고
해소하고
천둥
그에게는
여겼다
정수를
##신라
입주자
Good
우안
가용성
##보컬
신세가
공급과
Cap
걸림돌이
재심
논의하고
금리는
##측을
시점에서는
표시가
Real
잇몸
자문을
휘어
경험하는
##씨도
도착해
예비후보는
결합에
마운트
자네는
포지티브
Sum
##인해
##사제
##냈다고
붙잡아
정황이
부담은
정치와
##교차로
##ECT
다행히도
이온성
시설과
분리하고
일대일
산학연
디렉
들어도
##삼거리
해외여행
정윤
서바이벌
죽어도
주문이
##간으로
20년간
백종
10∼
쿼터
죽어서
##성능을
발가락
업고
챙겼다
적발된
로터리
덕분이다
##성공
패딩
가능하므로
장영
##도시의
스파르
이전보다
급급
[...]
